conv1_param_0 156.639840536
conv2_1/dw_param_0 63.6101305164
conv2_1/sep_param_0 100.345310403
conv2_2/dw_param_0 255.897909209
conv2_2/sep_param_0 172.178812333
conv3_1/dw_param_0 98.04308453
conv3_1/sep_param_0 128.391132187
conv3_2/dw_param_0 430.423700928
conv3_2/sep_param_0 120.463218716
conv4_1/dw_param_0 154.132992202
conv4_1/sep_param_0 206.227559089
conv4_2/dw_param_0 478.306385215
conv4_2/sep_param_0 197.963457842
conv5_1/dw_param_0 197.52550451
conv5_1/sep_param_0 199.589322533
conv5_2/dw_param_0 194.821766281
conv5_2/sep_param_0 233.45947638
conv5_3/dw_param_0 229.165904235
conv5_3/sep_param_0 223.146231084
conv5_4/dw_param_0 224.154830587
conv5_4/sep_param_0 162.72600108
conv5_5/dw_param_0 228.974207031
conv5_5/sep_param_0 204.163206657
conv5_6/dw_param_0 567.534506444
conv5_6/sep_param_0 286.221061478
conv6/dw_param_0 680.700669437
conv6/sep_param_0 317.761344308
fc7_param_0 211.145021716
data 49.4665182589
conv1 123.881372478
conv2_1/dw 45.3636813192
conv2_1/sep 30.7997748552
conv2_2/dw 38.0147631094
conv2_2/sep 60.2702106607
conv3_1/dw 67.2733262142
conv3_1/sep 62.9261644212
conv3_2/dw 45.1314245571
conv3_2/sep 138.024647679
conv4_1/dw 65.6473314213
conv4_1/sep 108.043928207
conv4_2/dw 112.401202149
conv4_2/sep 159.488017485
conv5_1/dw 84.3091798213
conv5_1/sep 142.616080215
conv5_2/dw 100.286656678
conv5_2/sep 134.686887838
conv5_3/dw 92.0042454653
conv5_3/sep 121.712769475
conv5_4/dw 81.7049592398
conv5_4/sep 89.1531290617
conv5_5/dw 72.6746138205
conv5_5/sep 45.7512218993
conv5_6/dw 101.045986428
conv5_6/sep 233.354378924
conv6/dw 262.792182441
conv6/sep 7.71593719037
pool6 18.9272218404
fc7 4.51432416664
prob 2024.09338521
