conv1/7x7_s2_param_0 251.159095905 325.558194096 158.959554924 259.250666239 256.734059345 184.020837725 127.280602434 139.788055259 204.246539121 295.412528063 314.96500273 222.012322704 222.931925457 152.132724281 112.182463407 168.507516186 290.698036365 122.177849401 159.905537817 122.176728474 331.77263981 122.189956724 211.520305124 105.503466051 286.283900143 191.581415607 256.107820983 176.446477222 152.599569325 140.89193191 245.548538013 197.589395508 181.083431983 264.92537419 205.812361551 145.893240049 187.293989496 235.70830447 169.454887057 129.188976885 388.481890758 301.665694766 359.372469119 146.027223197 205.90637787 143.799270403 332.729325113 291.668111793 318.836150856 192.402045829 316.011031209 358.525131641 273.002237428 215.143768554 182.116781916 310.678743154 233.103129909 124.568666553 136.830848119 402.725611189 372.818280726 183.173172875 283.298481046 233.061543725
conv2/3x3_reduce_param_0 194.424515574 191.698037321 166.652139522 147.358443924 195.535992206 237.20309286 295.516023135 156.075242294 170.941454955 182.875878833 332.146901801 202.117607106 149.793443711 254.863474294 239.975766204 225.557626163 176.94902925 224.646023797 217.029013678 307.779084129 232.587883285 127.520618245 206.826429206 255.416334381 151.167493957 195.428958436 294.841783273 238.947458184 244.616370316 115.001241494 245.383927545 171.499312701 201.966428005 218.472686229 326.001586168 178.340491121 251.420489263 141.500281778 294.210216963 221.570831479 247.414985335 230.724880442 204.677081692 272.685414932 156.198903569 253.886473636 193.059311897 187.887366683 141.790011271 149.124588189 251.108273337 286.448742305 298.110262268 166.899878156 165.275959444 238.23508131 242.904294378 266.905210667 130.066814597 242.787298709 224.562517765 291.208034349 281.68458587 225.586999486
conv2/3x3_param_0 440.42438121 334.681474265 570.905893922 478.663823193 456.579427909 611.467918048 430.141038878 593.774728701 352.540549735 541.184330085 293.766856368 685.7260842 673.967116406 177.74879392 490.140330799 567.514439553 408.418457537 505.521988847 614.531337124 527.84226564 354.75925444 528.110334995 559.757868608 677.753087506 518.292122784 678.186799365 164.772547138 680.436443717 685.32207805 199.655809304 680.309023542 711.314007197 654.551725658 244.113144789 373.843169167 171.863138731 536.121119176 255.270646271 378.4966571 674.89360512 477.754596499 607.648378926 677.585403544 587.667523007 667.029006924 680.220845879 258.70385619 294.349219629 242.224712735 493.883137084 391.754271694 322.481312993 513.356933177 427.084288509 467.382409106 445.217986694 422.237196831 699.622725307 658.875016747 527.704608163 607.21735855 324.487226143 931.323942683 562.321123267 487.884594244 408.845761498 578.953363514 686.276534113 493.508046436 619.324431195 359.217457575 412.337744368 450.743831273 305.421203839 601.59991778 593.396993839 541.265441861 448.260994111 549.341217161 652.316112285 397.798018465 682.941492922 402.147934202 389.695376993 488.154366926 448.134612863 681.553273358 486.95299959 374.846338798 708.922729669 618.832027271 597.054284784 256.773120116 695.396583487 581.570592602 641.758217636 452.87966407 530.756067171 352.256942617 465.960805788 379.192951983 478.915257407 362.199000781 381.700301945 444.095721129 426.130675746 465.028859769 665.377916153 347.692561202 505.263894359 282.882060164 543.475777402 542.951489863 876.316607336 693.518559223 548.746583093 490.381170727 504.591845823 336.254823795 341.888121393 601.253729465 433.337902278 401.793674564 577.374838963 458.0838882 396.801135853 619.947690562 626.657673434 733.89667302 355.851385607 182.426916395 462.026616487 345.076920486 543.147784402 339.8453438 543.467356157 628.410974582 376.182285164 477.645248092 757.347139732 280.80604574 363.39521545 414.195514972 414.616482274 630.362599999 433.420541045 413.087434314 406.52452667 562.211437117 755.167703999 342.608695484 499.190883533 633.229305765 588.854668277 502.658946687 387.462177136 486.842681993 730.224959639 542.396868378 662.989002543 320.344454872 278.303402169 601.965211731 444.285599274 606.755414476 701.729579194 672.210967666 538.636996681 423.614931671 611.732522363 629.492657394 246.273166939 397.413719079 303.414752346 476.339090617 481.234558622 564.699442829 473.366506583 574.137982399 253.609123188 593.436039022 577.197824225 614.247749352 579.650467498 423.0379645 412.5508706 549.365331032 598.216664988 501.570520915 457.251292594 578.440310872 305.987647942
inception_3a/1x1_param_0 282.392044645 210.133232766 294.389949516 318.886564682 404.984376112 186.219210996 259.538303131 170.146072841 266.13929834 222.091789602 156.380424785 344.85284877 156.877753525 243.53068155 365.510794432 419.407902234 404.128910038 370.106593052 395.012668565 239.043777515 282.848000357 231.963060209 183.522399105 156.695260959 334.88099195 276.612810223 381.521028626 193.151017405 309.505343044 174.277371656 156.539501658 265.944506672 369.017809251 329.62227941 315.562013924 292.331127148 300.246279836 277.064492167 271.585332626 396.437382963 119.740723761 260.587273175 292.810998677 454.75404725 136.881031939 343.79258077 307.201144197 422.096253583 176.132183966 144.747013256 231.679058873 186.107256397 403.361677671 315.249920215 262.337848563 164.385038638 142.05208623 147.648597814 357.635612591 174.979712122 345.751306949 150.958476236 338.700986525 116.860034164
inception_3a/3x3_reduce_param_0 410.795011749 270.382791184 324.464916147 403.315217991 297.54588326 206.728762921 325.581798952 172.172621056 367.730401118 516.521995208 165.717008128 276.225502368 149.249226333 459.059032439 245.830763677 419.103861991 236.788622978 236.362094943 363.4114853 325.418649669 391.270299163 582.978786881 499.245155413 301.096827697 262.691813267 391.311186403 311.245710488 433.425390165 396.110670835 395.704268085 377.443790504 291.280727293 273.669306058 309.764588927 224.681817573 371.320914705 267.635886414 435.882787223 332.507271887 240.164433521 272.76409766 155.249401031 380.062982491 276.672685917 346.20329239 356.852278642 422.969942366 281.266283466 215.3375446 385.242027976 336.824678123 399.253331255 313.752203655 485.630708215 366.496918232 463.159292884 500.629851871 523.95066808 315.948802124 292.60224493 446.617867029 346.326922396 309.297930801 459.062444649 201.883434201 356.760770666 188.370554271 318.320927091 446.39376999 389.327846788 338.460382726 185.851420319 277.039238959 297.651751994 281.816624128 278.251466637 323.507423894 213.344898066 256.724485468 239.438819223 311.955360958 238.012868541 269.764635213 301.424534245 540.890331941 318.796103149 260.595958054 484.02331083 79.1881406724 354.974447315 269.505584157 361.576427739 181.023723747 261.281398493 329.643162315 336.554327487
inception_3a/3x3_param_0 309.300804322 597.9474281 597.860224675 712.236267715 406.222878742 338.302282744 860.512688253 584.650743646 611.819032534 649.698766111 856.792729729 638.061186251 395.051485119 767.204227226 664.627622186 591.909592868 589.480944464 712.52333037 268.961179805 238.089704582 504.813131688 438.668067194 777.086549499 546.693697737 289.364993582 474.586401883 444.821475291 645.570019609 437.343220718 717.376361195 312.063598273 685.739711924 607.532251477 603.251191061 475.58325444 627.908555254 873.43077753 753.956270527 481.753515098 555.401158827 539.707273456 510.705085721 501.657789993 234.921722801 472.433275016 381.014875218 459.089892533 800.260292071 388.841118816 414.873084501 368.620651016 394.789438456 462.54872806 576.713475809 491.352510636 672.010087533 801.468055442 510.342397949 612.169802985 541.471870968 704.382586328 589.36057102 649.421237339 736.228643102 544.773020534 712.486161744 414.551826799 539.510930146 714.632192344 761.250488508 377.740155907 488.043560282 715.121965316 533.021972925 377.969859358 836.368077387 321.161591258 737.393495421 588.935764334 504.60033025 752.209255249 771.641135624 790.033539153 375.195315452 372.859480243 446.316207176 347.974262035 772.607221319 541.928409812 770.403126944 557.641521883 663.740716688 691.213119482 231.357912988 529.365197095 383.108370507 719.724018914 773.321147704 733.116911443 509.736307771 366.132153255 604.34805714 399.350087106 379.044344336 572.788715341 553.124012511 983.954702292 367.007497045 387.010535094 291.032641943 562.082405749 772.385054556 617.611418023 703.548715822 421.565863458 733.065583144 474.725025266 527.288379868 630.030355473 482.862190477 537.326361671 711.956810913 285.22613939 735.11850356 376.042896328 450.776539846 720.042577242 577.406992452
inception_3a/5x5_reduce_param_0 227.867029237 423.042164114 257.813226273 363.013834079 260.021012251 302.904155299 317.486559461 186.444764669 193.428360686 447.31939972 368.483176192 234.074241969 239.910376681 300.005545024 166.105403449 308.792775195
inception_3a/5x5_param_0 651.719684914 599.034379288 566.870408168 437.038850128 554.169230345 369.743689804 296.967452845 390.744378356 439.072317405 591.504051986 300.677433371 683.498771113 565.601809379 288.533177694 817.432796884 334.57360868 440.310841529 361.267811359 371.395087828 433.762625865 414.05550313 385.17088994 535.836603902 786.326308379 410.28674002 702.390767514 459.602310925 234.823390574 484.673237688 348.598425217 377.469968889 283.383107149
inception_3a/pool_proj_param_0 321.745807687 440.196314527 330.470017928 368.100457762 394.283823725 486.828054619 406.659257997 287.069261936 362.977162167 431.674402557 284.338968874 348.144889731 384.033025263 368.219796848 300.415081392 390.606128246 323.374293954 524.080701839 292.652842832 354.514443712 444.369176718 475.243650463 201.740932929 374.788744551 338.10829906 324.382348916 327.376960826 141.278502738 358.766815744 238.028901874 416.669961505 369.540920806
inception_3b/1x1_param_0 455.278617087 495.024546006 490.661056409 296.206736024 207.010091554 516.598324619 254.797063965 503.910677981 213.944628401 235.774110339 445.666375999 518.073634096 193.265666699 249.88400454 512.019408954 346.537724511 233.887649744 408.629901466 596.422756845 376.543137316 312.311263766 238.308729162 599.756779895 472.70924498 247.643596067 425.925938246 329.72735822 458.057840619 448.625640856 427.506271173 283.538398964 372.076781314 578.144139579 208.520802694 409.929201379 400.747292984 578.275629184 395.265699205 298.632706146 530.202946155 216.821503434 505.75399523 331.278084311 507.574752407 363.964968798 659.339725261 240.348707279 208.67807408 468.570432805 361.049236041 449.97872961 261.975897725 520.857663979 363.096171884 199.795735053 194.015153843 286.370492706 270.702949163 306.829190749 290.268927007 296.094609356 280.773371954 330.873532061 253.171818748 559.133512831 419.673819076 298.298405305 348.384112477 288.450095049 234.467567215 419.658486039 335.086834125 505.900676424 374.450065055 353.269930854 250.968314271 441.03832615 244.232429893 418.93559418 188.274030801 557.721291752 218.157844152 482.119398352 273.969237669 362.168279835 186.874861491 409.429087094 440.703040329 467.15584074 295.102804313 316.449883532 568.037700399 363.023389782 187.43124803 307.742543599 513.474212862 546.594194349 425.553214413 329.392741957 466.468669007 438.495231813 383.153081575 236.198778847 376.828025932 201.322603593 416.957015906 659.170321555 380.470892154 583.094772113 290.726713893 591.839470799 345.77891297 363.548736831 182.756980439 254.810395066 452.487747488 311.35022557 343.064869206 477.836292394 465.535302696 364.360252652 297.047460323 293.493031335 598.250677845 437.882402409 211.273382787 623.506046113 214.809439691
inception_3b/3x3_reduce_param_0 306.451415221 409.759629115 286.809087515 465.88332355 475.099427193 558.883786517 450.184801286 612.268004589 257.489173572 476.745590083 321.10346291 321.679502833 261.844013355 377.597669807 526.588455571 537.325379267 498.342958416 440.051217371 496.162866302 234.642010627 357.884123292 337.226202493 487.764586251 332.241395793 635.295870559 531.193151526 528.329283511 384.535748885 304.56656672 552.122500498 500.258130256 306.833565074 459.392679838 514.702458272 311.717653448 295.220848207 507.610061736 530.693704143 448.404243191 648.438973021 248.687781935 341.490010642 562.44818567 675.6277948 430.570826838 388.267712394 208.371348366 493.238320059 220.490296004 504.555700584 198.995864687 379.322395558 225.059138396 284.839273505 484.406692145 377.073970392 510.002014079 431.667581107 432.995870833 393.649387247 244.36923487 371.327224092 380.246146845 517.776520703 570.981738729 443.559605992 507.119134794 488.542138667 346.722461037 423.829086817 352.093461223 427.841099087 374.111274548 355.009519931 610.222107919 348.099643733 532.805979952 293.66666708 578.677136435 504.080320451 327.909199574 566.077854931 188.983437856 479.995051157 257.931915961 515.951460948 354.820369629 538.018221029 444.35110576 505.585923839 492.326625508 433.24688186 489.003688574 610.344292495 470.093526862 313.706009608 636.839130683 398.704253821 484.434721271 229.479926625 457.978386718 344.148465203 470.107995662 448.835627587 396.03086195 396.135967539 522.684866096 344.490271215 445.441696014 456.251318408 294.926364416 400.356599837 461.960452601 507.598815424 299.375157164 268.730322992 311.153238163 601.229934907 589.822766365 392.886834016 404.24495421 635.142429149 523.718951781 377.909122947 344.674475458 513.025178536 276.237606667 429.251514096
inception_3b/3x3_param_0 435.537039853 570.829113456 837.548009444 568.139749104 621.280893228 467.383126768 855.228149593 986.616873079 733.293525599 828.987525929 812.718152774 516.591561135 716.658649926 669.583237623 989.567900515 731.523920712 767.378440826 1017.50637766 1140.31808313 604.112495234 793.237023101 891.687024951 814.804577033 760.507087191 583.199349935 911.095617073 349.79195215 945.058073304 210.638443224 761.33923122 945.033447528 755.658218809 774.528155942 732.88025577 808.771015666 907.92754541 941.605221481 539.108066146 940.17450428 665.547251658 448.699142205 977.705577383 898.609012527 513.359406879 746.931211864 1214.7411746 554.246568095 902.910096263 718.037977176 571.71632899 1011.33119062 334.304497807 1045.47565276 1097.89220199 979.113172541 1083.5708181 942.358264451 532.489670845 1145.3700567 801.746939861 933.035181608 883.110091565 518.377898829 1023.72718884 801.563935412 1181.06618215 1039.35688651 565.327673087 799.48820902 924.741326779 958.46323904 927.535877371 866.471124104 682.784250346 689.55107131 513.002420123 766.220116355 521.703839392 865.634816721 641.560779849 986.245708071 749.59100395 803.152300881 746.678882442 665.219102817 1009.33882254 1039.06094766 745.714654148 421.777450365 691.449261855 836.860242758 791.86398429 938.090870427 379.949191422 759.032067645 896.313526639 911.264339422 600.428087844 1068.5144159 639.450252709 737.960467611 536.417111571 879.845583375 921.562608555 585.360719041 804.358947164 686.304497057 554.023622963 795.959075865 385.497163917 735.951779018 950.990222554 787.001651509 763.039529622 489.373365808 782.710130513 989.507009006 1152.45839872 640.721180376 792.938869238 956.203752865 544.320994883 1192.69127242 968.142840509 887.043962914 577.328218854 905.110429129 768.817513918 455.423515552 529.690872972 911.455835089 566.988596198 880.431827223 1217.9226967 673.24110313 1082.38316208 1012.0084781 1021.83633583 544.565041455 663.226120453 618.321968276 424.012067402 931.97796581 753.356271967 766.752621366 727.629335323 1019.34269865 812.846201357 1024.18378052 719.124212158 824.581100559 627.366158634 687.614396227 775.16384714 1092.62689041 944.10070968 710.739095211 577.617330148 1047.53587472 704.045567375 733.958040992 614.496954274 803.963786459 941.539063733 1011.12770129 867.947815747 922.002762062 353.541092702 885.565304997 1061.15125599 871.906574062 790.193366115 736.906200635 589.666104894 793.975845052 1040.39193756 1035.18790514 827.566954672 1022.97838246 738.735972722 651.011347521 1018.80192731 709.113423526 898.821766211 840.663427306 527.282018623 1124.66101993 1036.4996568 1007.24083381 380.936912464 679.933232909 562.13553132
inception_3b/5x5_reduce_param_0 325.359740324 320.602236249 416.945348271 345.658000936 460.799739789 487.543655756 323.748160641 347.082094026 413.783838942 475.227273908 215.293549094 254.462035954 254.311439206 215.228393941 409.968244152 407.669379161 246.206605393 306.730249432 304.800683099 288.45569879 246.60172027 454.439652561 496.570472383 357.939404823 313.482830073 459.012107331 470.84807577 284.576833243 227.748291813 191.872441547 275.461787792 502.70662166
inception_3b/5x5_param_0 710.481955365 552.817727216 410.005085264 866.691315927 431.83599402 984.955941071 461.534872724 634.003621549 899.689459653 346.601170245 435.354742348 1047.39137046 952.837943022 630.034500546 440.041493101 574.604221064 698.798704798 542.370083418 807.114202129 605.502686773 862.844916274 1006.77430477 522.418112091 1035.50913093 816.913329887 927.681460566 583.299534028 513.986392319 803.394264347 952.800766996 1289.35143495 988.029301818 627.204568539 1099.42501566 536.743784023 525.995544098 1232.87914601 735.493170897 566.989237429 1280.46761356 837.951259991 742.86916249 947.254392964 730.892634968 759.934496819 604.978452517 503.954359238 553.787219073 449.829344673 485.4499716 831.585328712 651.232409985 946.135422134 911.135259261 993.178557765 734.036741 997.71231209 809.412524108 1140.53721539 850.701459068 937.333908305 507.116238083 473.85218334 622.099617682 528.691726286 864.913773549 546.618207883 713.127088824 1084.61668623 801.591075418 870.798091378 789.901229094 1091.71310658 435.558986359 806.502353837 1002.04430718 738.69262582 545.797581868 405.594362699 686.138189753 1075.29607557 575.617609734 878.956802252 506.911078259 645.118554445 870.739996808 799.796788342 575.635182342 599.454109875 791.682521665 1226.4304443 409.686947587 770.394909631 598.514261581 811.298143362 857.239733004
inception_3b/pool_proj_param_0 649.230382166 468.47992542 456.703373801 569.135575233 634.7409256 654.337346321 445.598291227 535.800189153 643.472959276 303.139301528 708.518324132 540.463539114 516.511508721 618.517164801 437.331506318 586.366727703 698.06517636 652.494898753 420.931542972 727.215908188 372.336339608 437.438619942 430.964337591 316.46623994 381.931493811 434.211719096 228.95841076 342.345044748 314.241956727 654.034459718 328.641477477 552.44957234 454.370169079 619.223773215 309.210785208 318.455258569 584.269904624 572.228121663 746.627534396 533.020006139 402.163266808 442.996321855 474.453828514 555.72140203 493.162116691 376.501851581 638.097157913 616.547355936 357.54040264 545.721989844 630.382368637 452.971032434 532.064368182 356.240311261 610.122028189 594.224817631 541.865598689 401.118850703 389.220989885 452.228830026 458.618492534 448.565620024 561.14537149 525.746772649
inception_4a/1x1_param_0 561.266950092 477.305153142 455.567288713 444.809124708 330.381344078 370.873431012 514.399604261 464.824745435 716.080002971 587.159707744 321.461108822 446.165600081 430.421744565 621.183673038 447.616164258 230.266832058 723.170527233 314.041641528 342.914966696 328.586538849 699.667696446 552.161704344 515.842600573 479.885701647 479.794390023 349.482307337 561.432514702 469.877948761 568.567578537 276.836803398 676.62486993 540.181142038 420.749798482 430.66690652 311.15828193 486.275583936 632.808602631 419.644145911 729.914082654 756.864377929 728.585510572 255.957315189 648.056458331 571.741411696 656.95287633 705.374506484 547.558741251 388.670815675 444.97540436 497.162257176 675.437500188 339.920271572 595.661022739 549.591559164 578.274687518 617.220099699 448.012117969 319.633972727 556.863158812 406.719650329 552.160380766 471.341420316 556.505331538 315.110449451 501.094206108 456.945391791 544.797919051 466.363863837 386.703415873 551.672841671 739.385376093 559.696186259 503.078844568 591.435831821 386.109107976 251.371607092 383.946765501 606.143469547 344.263511781 641.058096786 613.483902431 554.035759992 449.20409863 708.364215198 422.741304907 585.514899746 682.681704181 504.378932378 285.877207074 649.257682716 444.239700653 905.857041718 589.472749521 447.689993633 606.60590671 588.505108319 347.229268404 565.375675572 694.463290065 509.516046586 339.611150153 488.16566286 415.934746834 700.479318137 450.369118304 528.523306692 477.247475487 418.017492646 405.152290938 608.584431231 619.419314533 692.597500796 585.260629517 408.493195715 506.989237784 554.549495807 575.837694635 764.173930009 331.453273155 538.89903944 640.687416703 463.839720535 590.765673615 751.560468081 483.044618751 477.498761156 441.323567368 320.882177396 577.805648727 634.518680454 492.951837684 390.993331829 387.236805032 823.231474957 574.577298373 461.13427652 557.748117946 553.828531103 680.376366708 611.07566846 645.176619708 568.488278383 442.218172275 576.979393771 366.381969116 457.679377307 802.905037086 460.246022973 586.365880527 480.642871604 434.477386781 705.823609227 678.70747882 650.425046005 636.823094728 389.365340614 381.847509845 517.593826837 581.817336613 358.51216169 390.604910934 622.514563837 778.704711383 422.97254528 771.29944741 461.166863572 630.188885143 476.422806468 598.474671392 385.350857668 715.904065382 506.86205993 325.922173563 435.770685547 695.542319715 820.276294108 667.938808877 402.563314117 654.1363614 858.24730575 458.994506709 683.871929504 398.767903538 432.535326369 429.183424348 817.511675702 691.009911651 489.188990836 627.694627648 803.744369926 510.806430671 560.433919262
inception_4a/3x3_reduce_param_0 286.112005388 414.074774795 446.162844026 436.032152542 504.95986592 413.925114496 231.175674755 503.679763987 492.179466289 444.471606586 470.732765681 356.324103613 353.522527183 570.055465531 501.175415217 426.20014464 540.143210148 281.487504051 410.242818269 558.831090554 470.809268686 593.544938183 357.968871234 612.446149591 481.118288311 556.305728591 438.551143529 511.652426073 541.135777762 630.133672546 429.004980445 383.911138002 256.430764835 552.291911068 607.115148086 474.648460466 382.935377087 637.806777489 492.601960692 255.251563991 405.190583146 234.759329939 395.944426347 387.459394034 396.724741877 391.725714508 305.203160599 213.669944661 375.143426211 394.974848073 308.119233555 606.308449209 357.103262565 426.921570955 333.116061291 228.122361952 617.299360967 425.28128259 547.28754355 376.446108582 758.068122926 472.467373861 633.476543831 314.372820518 537.767993701 414.424994496 422.192519763 398.522408237 613.513976426 484.077249017 314.071591509 497.689822242 356.918122908 369.662318213 352.320315363 555.790801099 269.720907618 495.536287161 257.977588938 359.039708927 551.403797317 399.299346172 480.649377072 647.593587697 361.190066057 647.822872195 532.400624826 315.292954244 404.061085538 324.258860575 507.95282945 547.654338034 449.083479386 428.876877564 638.546165404 497.818079314
inception_4a/3x3_param_0 429.008003682 634.43384967 511.481762779 522.549308468 1095.54168889 1068.56317979 599.25002765 1140.20481135 1046.71951519 894.714309454 1131.04404188 644.11970306 636.963353418 846.492899961 455.309116925 960.061582175 483.143854532 823.482029937 828.121064195 539.314934406 689.200503629 933.28407052 773.162040496 566.91150818 482.305305105 471.622848948 711.405086579 225.921366836 966.533721013 837.993526188 669.375618192 774.991084465 415.516123603 1006.90597423 544.917986216 648.151675004 812.945676129 698.455615938 913.392945114 703.484720706 744.994108718 735.35927198 550.833740591 686.389118187 413.269230989 815.452809739 1078.25998806 405.971138163 505.809403464 1030.41649396 902.557364661 268.392766757 385.155816089 944.989648254 700.736987468 725.900779097 819.334589038 761.559307186 670.713832436 662.71227 705.872537999 524.1270476 735.331356074 562.551577556 949.423291591 928.565632346 635.327884345 989.243883027 630.348427022 968.349198201 748.511616878 524.534972852 870.498004698 570.576740024 249.253911258 692.311363066 591.839922881 800.485554054 863.19744554 698.213005771 367.673703731 655.895870881 757.570367842 638.096345759 513.36889993 636.02014202 527.851615356 650.988672734 733.651998405 639.795439035 432.880851668 731.752475951 740.372783364 713.353426267 783.436521592 841.383459739 701.172760967 609.731197549 916.033660599 732.231655237 672.320999097 799.110180917 982.359891326 565.883387925 962.956295375 638.955468849 1065.46482344 701.545318548 825.860487867 656.608812929 682.427795773 833.031302698 539.212230947 872.648442143 522.659960522 711.198024593 747.259246218 519.476546614 685.197944734 400.383269378 679.442952849 1020.57296207 541.479336039 539.348551842 563.886752975 808.882546012 255.282971759 1006.75896342 778.60191626 675.027024047 746.801623072 864.019324908 488.141449939 911.480399135 1127.51509642 747.561339614 629.471317331 683.219169455 688.643351967 889.214496318 324.250274437 489.434517744 573.698217797 766.325869139 1300.14680961 322.798531042 1064.45375258 789.755717251 667.393434948 737.413465101 334.3013245 909.587591618 703.626721983 704.647971245 588.79092203 766.207786172 1005.77512094 875.267805589 657.644014329 649.95412769 467.530755628 1111.56166822 880.033459922 532.853748568 1015.6423474 208.293820192 1070.42872068 704.791841349 760.54787409 753.860838672 720.280509316 975.65603455 195.305015429 694.265405912 1111.47860559 546.682476374 385.77139054 835.152345466 621.435185748 725.894163778 621.073403225 694.098157894 528.576506114 406.013647063 908.63337999 821.227683696 535.275773336 742.725639051 444.933125962 554.366942221 847.392440504 532.690291482 433.846398436 280.427212531 760.96583548 761.82336206 484.53673282 636.698403478 451.588908457 628.621032454 364.513935897 696.355772113 662.862103742 414.535978597 317.467968827 1186.61908602 706.085869519 968.945335268
inception_4a/5x5_reduce_param_0 494.942156148 429.241655957 428.876834401 738.980590676 734.591216409 343.755862603 604.809088317 287.575716762 432.031342505 451.717628891 519.620240131 249.757731161 350.815772552 362.614275101 530.343890398 394.730891494
inception_4a/5x5_param_0 809.643430226 617.810062326 658.185102456 657.808572633 773.658379496 603.412292871 510.278170934 918.884616222 1044.34728008 911.90941108 999.492999125 550.323664989 731.655798313 670.659154102 983.631625136 966.119901071 963.222494141 667.312700998 1008.38250364 605.744758829 526.834865449 430.293532934 337.114450461 1095.00443034 861.085362351 365.177809109 781.288525219 712.526070519 623.307825288 882.431552745 964.495663359 766.77000487 572.079206969 394.472702283 439.192823454 918.870251423 434.679611064 1019.31209892 613.940452249 867.528872212 567.245921676 172.204945816 609.54294487 997.399280917 756.822036182 483.359060153 705.2879412 387.270272103
inception_4a/pool_proj_param_0 398.622240573 529.439087977 622.674155469 631.308873682 703.103952535 688.164715912 687.323546898 655.640207944 376.018408558 461.753868832 765.807030294 461.374370923 775.2938047 696.743503876 589.72028835 735.01174318 776.124148891 587.846274814 613.469065246 663.309895178 609.37711548 745.232398082 471.44842272 599.671874905 503.2793681 448.799229669 617.640734308 469.475106294 447.77805642 620.469244502 755.929996772 698.289947582 350.849277124 567.262609288 620.335838916 428.061527607 731.914164971 848.218587902 409.227858102 705.43563449 843.191284372 500.507313734 647.911420039 520.500507106 605.929250786 558.731112808 605.78492923 1068.07406793 605.296443514 748.85216075 613.727758971 459.611431816 455.737957561 520.856740872 664.740110239 334.73031912 625.236043941 764.861091637 690.549969357 695.914598763 188.650596899 445.952130039 566.332434966 612.368261647
inception_4b/1x1_param_0 306.992495081 309.18559104 294.845965278 568.964981135 389.47647716 317.760515001 260.71003068 381.707618615 291.379075758 568.727042206 566.804811322 453.41863403 210.395672618 300.81138243 379.63595753 604.106971436 370.060504284 548.839378868 443.818626683 478.705441683 382.363632872 265.025928729 373.415699167 300.223625134 706.769772855 501.684543633 767.601331257 538.050386232 261.000501188 427.815327778 589.429780762 720.865967613 272.274935645 451.732185763 540.987288538 435.175530411 662.454252996 367.075150516 548.805592767 558.219913932 309.80255719 388.858008307 455.780120714 620.694050202 756.759473161 568.218270148 650.887649897 551.526615732 323.616774012 241.521405928 432.579277268 619.033930551 323.186728316 462.487283266 470.264097507 561.459921034 595.286414753 774.00883912 518.520543458 514.221022664 529.476452322 233.922802524 465.059512683 317.704984965 468.170856908 516.952339453 556.105724496 483.591249855 446.345517982 266.985660794 508.641000072 598.98958434 287.902760586 260.991006084 382.648398061 549.228642959 459.255638673 215.387066484 505.011509378 313.532257107 512.558587342 506.635059316 298.142381692 716.29473387 318.016763479 409.802659276 352.634311528 562.789095839 523.257354255 393.124345148 336.658580375 336.964772445 335.63911823 339.741031279 301.50331388 330.317475109 443.497148145 513.542929253 250.226060307 394.988723289 209.264128699 557.969468632 589.26558694 244.359229806 250.894345739 746.488570337 433.237191716 271.204475045 278.895431349 267.985358764 401.739129418 481.420490507 303.131538659 613.167443172 313.744372806 510.779827937 414.370673061 234.54546147 284.892592929 283.137544673 559.440448864 472.355457992 635.703624331 397.030716355 307.431079201 193.974176486 270.548546665 356.678952164 473.033998092 724.812359907 480.512094855 377.939689827 436.116938017 614.577467585 552.923957615 420.327194547 429.613162209 305.381960203 355.875724303 445.623360407 212.31968969 696.624593811 495.866053502 383.866353586 464.543924853 368.824166764 534.008358094 582.749903352 326.242928598 240.133766738 626.80141822 222.484170957 351.32509642 461.654672211 417.726151309 254.216650347 627.300543017 336.389000727 248.751393889 515.32129534
inception_4b/3x3_reduce_param_0 253.073939604 496.546228566 602.469967287 397.252378389 295.688122205 349.496237313 643.946157354 513.203115772 347.376737551 387.458337171 524.394356311 272.432029584 406.477723297 549.437012363 249.627227668 250.003072024 321.220321771 400.029744836 377.874137983 510.147841629 509.387019588 330.665596472 559.897310513 684.276479685 262.990029996 460.11716616 431.783443839 194.128054704 672.435204734 503.920152535 588.338180084 662.572908649 583.130318778 526.251602189 335.233186648 340.52929347 340.492235196 357.713186309 464.831590302 352.42660908 338.933791352 451.686938036 449.66734214 439.798798282 539.972822016 441.682412088 300.330074822 237.376184134 433.440599471 338.130217431 289.40447362 376.024414071 334.089112008 402.608079215 232.354738869 383.163175733 295.035932878 421.893243333 257.598813456 386.790181619 242.616892265 577.592316395 254.511033128 383.937148884 318.949144852 270.564315688 454.39013008 484.419136897 353.089387257 165.07484995 569.887634824 203.627207464 388.795531611 560.097916818 260.785304712 592.846487739 226.268956698 336.392851101 214.5775354 391.364913296 342.700941054 243.343693749 434.439825617 316.299887669 172.510325894 203.320160583 347.74876839 360.67862154 300.706013022 397.36498816 511.081498148 355.144344897 595.829550254 737.601028699 622.232647345 520.388034848 361.539677575 353.235786704 413.019091632 274.001439252 203.19943802 356.519871903 558.789321956 415.00888068 654.614870208 536.342239033 162.319440983 475.851333924 392.394930023 285.276567212 272.58661968 672.308695
inception_4b/3x3_param_0 776.405262865 858.97423982 844.185399702 1290.53778247 903.975124743 1501.1896732 574.17797685 863.607489615 1221.86372622 1134.5855557 1082.30591469 1281.04144321 1374.1415435 785.777000539 1179.64251215 896.819432979 1454.16939142 1410.9269743 1112.84208261 1131.38051197 963.961460207 826.699930113 1193.39870645 1316.98145449 819.904779047 828.327345955 733.583862237 1307.15068498 1051.92876409 961.739599194 941.513164883 1023.16535851 1287.99780448 1420.03180983 1591.41788056 1313.63043567 855.296294824 612.395410167 221.563688996 1012.80725633 589.406749803 1255.47062337 1088.5004502 1122.51623263 1169.35122085 1154.10082874 755.263734751 1374.69598411 348.508792186 637.541220953 1545.22494841 1066.77662939 1500.70951538 1293.01285863 892.564826739 956.011975352 739.8471184 638.78479018 432.00375009 1104.56020167 1160.26349506 1212.31978899 1112.23880881 1209.08561056 753.35826971 579.259695186 922.618585164 1024.86823061 816.990228892 1112.71328377 699.472116976 1033.45892947 1174.42516383 868.162126251 1152.2017945 648.283654505 1298.84316746 1566.31037471 955.475771529 1323.85522789 1485.14622629 1246.89049728 800.109436706 1000.29890195 1067.69881684 801.028146052 590.57339717 1349.44141879 1421.1131794 1130.79350848 1677.87188183 1296.31577152 861.467191408 983.300705342 1031.95802244 1039.53969124 546.763385696 1235.28863023 1235.12993049 847.582473709 1198.91538745 1116.39383507 1154.13810277 1419.32674076 1129.49288112 1001.69417392 1059.4242146 768.655748279 1155.78219264 1187.5916538 636.147938956 954.581224281 859.211945296 1021.63600653 1037.5341374 1147.9687223 916.080429271 1231.88888693 804.502524281 581.752960513 1476.65266645 1192.6022346 1108.96990334 777.990402124 992.279404024 543.36247634 1172.8788652 1282.26433706 938.300419266 1254.49231698 792.764361393 908.969065091 1353.11309744 1201.83824912 1008.19474893 877.360880743 873.886533516 700.896152912 944.294747418 689.68359586 651.10260962 997.214660139 1805.83090589 988.295793018 1388.4359198 683.792316723 786.831127059 1118.26731911 1294.26757096 524.222343215 659.463339844 962.207897153 589.08491242 1303.36003668 1116.51749043 1670.36197855 1381.47356757 1055.99282956 1160.57229762 782.907351681 907.900174319 766.342475322 517.858129977 1350.31778239 1100.09603649 688.821397721 1108.21228726 1441.07216203 587.216142263 808.103704875 1026.86286594 933.156135663 925.407033563 1099.63247139 834.524721256 1250.59621747 1395.35708529 1345.17978483 1094.82297662 822.629811814 1201.97511665 1139.00414256 486.799692253 1365.58294151 1462.81719637 1212.26409179 1232.31467972 648.857801005 1128.05831134 1059.20696896 1051.26268234 953.399877822 597.357717633 639.262383384 602.883269 1292.68436531 1099.04711556 891.80272121 1107.42563078 1104.72535134 971.221350122 736.822361404 1310.04285709 1083.35078721 799.587291565 957.145629378 772.558337868 1189.2210705 846.131618996 838.177470867 697.13463284 886.713479881 967.378346309 671.657803881 1153.5277215 843.308588783 1371.98975309 1448.9935474 1317.38808182 813.788815622 1177.81781233 955.480377554 910.273940918 588.873668711
inception_4b/5x5_reduce_param_0 353.963816624 387.22800813 263.254995677 642.24883533 401.79727355 833.771919048 504.300799714 332.359789812 311.445455405 377.182306385 286.230423998 707.195068933 433.393167595 425.326106385 626.358689143 534.606269329 340.314185055 532.7014785 524.784278834 445.669498797 406.591939363 297.596813055 340.207547533 439.940776762
inception_4b/5x5_param_0 843.221483384 598.773492346 744.999057959 968.397720429 799.902929236 567.15347801 733.041056557 535.728923542 692.698825249 657.692276908 840.686894397 356.568198671 789.785722851 800.824249262 1178.64208307 992.314525544 737.380225434 728.356812745 690.108016947 940.114043471 712.668944835 682.710796816 702.187588352 918.223409627 650.890980367 592.913713812 865.18542918 917.60988132 905.740557996 763.695772437 1003.49325086 912.690059624 721.676454729 588.480036634 963.531321004 941.268392328 828.631120455 1264.31208186 776.730041649 707.653368135 512.752457568 767.287939352 617.517042964 620.741833924 911.824922612 1131.9885723 765.974620674 798.997958262 774.093972552 907.603550492 810.846145481 588.445378648 764.737146671 883.621261173 785.554074702 872.119809998 664.288470614 545.974289549 1206.16089069 580.547265572 1044.2882895 1207.32745429 665.397136774 948.22755568
inception_4b/pool_proj_param_0 616.49031592 480.117486582 477.32953269 794.759027082 456.716442685 802.487425557 369.741764954 756.886424396 704.867966507 397.747968144 630.237116719 600.617015913 475.893261933 350.537181679 481.303912901 716.753393779 595.42461203 591.774665819 569.769149395 468.949996462 572.061390027 491.543509786 608.63619272 610.078267276 689.760511354 545.361791439 507.668054667 585.119918945 579.4892726 599.418400207 735.260370398 687.901105515 845.414509863 593.134512268 557.633239677 693.219198961 420.92518155 663.541456774 367.530150681 751.445433745 1050.14721559 693.300570937 640.392028019 426.998400289 397.513960754 789.043278932 494.004457086 587.813110369 534.567037507 346.335338297 425.171046073 519.672264299 842.946101777 665.28188163 901.290896184 405.619881425 451.102597532 519.701734497 504.804998898 688.214450167 725.994024631 569.116649062 474.687374294 689.559216613
inception_4c/1x1_param_0 393.771752049 446.908404923 446.21446732 290.291112728 468.662006016 735.676647145 568.081658259 442.18485853 310.101019683 475.04985411 641.22545769 614.005735448 484.881752997 500.742388125 350.887468586 338.097837193 410.012028228 412.281774886 451.276818532 361.501462874 300.75815783 466.519786908 226.008331957 484.823332977 429.192717866 366.304368837 269.183948463 813.413060323 268.609227135 247.054897225 463.845324694 442.976658608 367.945737536 349.48236466 485.317340026 366.236275227 229.09304416 815.499781362 428.951476206 610.696261571 398.451683555 301.661701446 459.955613241 405.701130341 497.461901799 380.618342973 487.265085631 522.180774434 325.213987319 327.903169211 352.036887843 532.332920558 446.098203281 336.207283701 539.054430494 347.494293035 430.120720292 456.08548789 442.047756034 313.35194566 480.280740794 544.391191937 353.112530311 298.552135387 412.796284283 778.23307329 258.910863336 371.333307192 165.722279791 415.227448153 482.972353447 555.989236695 634.240609003 579.85222535 176.519259157 427.674456559 462.771451603 295.250220516 657.835990099 405.93049421 347.422107374 381.633199964 501.86858912 419.387842041 556.460385681 431.717522609 399.130302809 175.270119089 263.271877713 513.359159507 420.688656584 665.288840475 563.477559211 408.829954345 461.839993853 301.55993951 327.447748982 347.356718558 535.436179138 367.214297858 696.109614963 473.970555722 272.977264625 276.030761914 290.931905318 483.277109264 348.608691484 418.400582739 434.99273609 440.26639725 593.566309426 329.070391229 274.101121873 617.485859444 435.591665376 481.608580007 320.131332329 486.329803285 327.80636052 336.440523378 429.201579502 522.673679129 378.525436204 178.435149483 332.843673607 431.019565846 484.437970437 375.483196266
inception_4c/3x3_reduce_param_0 430.285364748 601.983451933 380.230098922 635.430198545 709.444151503 644.434280007 810.453757642 624.258077067 360.95770343 279.3717468 629.281040976 286.971365847 644.223505304 547.876059583 407.133836127 249.152452964 575.349915694 416.462612004 561.695777817 268.339665078 536.727998661 505.692478099 493.962140039 517.514374813 401.240765954 531.41903806 237.73291295 477.089855159 645.64181184 777.167825816 274.83866895 430.130401772 703.986598953 838.901176248 542.879104664 432.218275351 498.870522336 530.012829769 441.802935377 861.405894914 469.086017483 576.058142576 392.586704475 353.08154681 602.540330872 627.340483331 416.438966428 712.253707568 275.544949629 370.65536444 373.28992786 278.812843698 544.745408478 302.550003348 317.951322273 399.028758656 167.280460819 465.817170756 432.655301352 359.01342324 424.76331174 519.060452016 403.436906252 424.181567558 466.166276263 447.056934492 280.440573746 514.626439442 659.453287732 624.624221302 238.304464658 542.667696884 273.932465251 739.87602053 665.687451203 457.904667919 352.688420824 281.816698677 675.33982443 558.610996335 426.415684893 253.019484828 711.065646476 459.207436263 727.236137114 487.033418845 661.482867065 469.760420484 464.013057746 351.064523214 225.048203707 412.289433391 296.036850342 692.652493779 783.145400445 388.972725348 301.360393596 389.234677093 650.077074037 486.63964588 468.434401629 477.778379175 701.086762474 454.645417227 269.917819159 310.430380038 466.236354006 179.566013339 316.174968417 685.713394904 800.803406308 324.608613643 472.018930323 233.14197578 322.132254795 526.575246441 360.43036206 512.19458672 655.477186305 495.673987221 589.898453996 699.42694138 658.825918369 454.60986539 317.041621203 618.603853611 245.466841455 276.134163448
inception_4c/3x3_param_0 1241.16058795 850.825449136 600.922937796 925.509334066 1623.98294926 1435.90018074 1370.93055129 1072.75050117 1118.36379991 1220.4195746 1226.15801548 1205.83426436 580.203625343 988.812686762 1096.34130293 1269.76214498 947.167754696 624.403604926 979.527843444 936.901553631 789.180928451 1150.67777063 1444.63108532 1080.54000314 1220.87262563 593.512284904 1359.20067989 1542.40361599 1236.88954131 938.41426965 1243.35729791 1460.36984078 663.250275134 1196.15123181 1203.31144414 1037.79009484 1057.21844865 708.716756384 1175.04701256 1130.80341066 859.861391101 773.910161204 850.777632246 1213.90213823 1115.48178209 896.816601937 1147.37689551 1165.57958314 765.346551838 1377.0023192 874.896548836 1206.0341612 1026.13843773 659.268730329 1131.26705669 602.677783187 926.939080596 819.220079232 1460.22859872 881.349022901 684.994514065 925.371062926 943.281192417 991.770767451 689.441128548 1201.19830938 1012.03804001 822.668958308 1226.36823729 968.03188812 1183.50627158 982.552078515 1106.76741508 772.363005892 824.280925481 535.257284088 927.526085967 998.030331468 876.755357416 1214.72715085 1697.14319896 1200.02564387 1137.63271025 1165.23051241 695.050591225 1049.73848722 1178.62969541 811.313048728 605.070666003 719.594766734 848.385429491 597.710834167 1056.32395688 516.139873556 1141.1522577 1188.41292916 884.170903782 1016.19079453 929.203628842 599.545363819 960.835673335 783.765048495 1237.29814145 1622.39134829 816.724432807 816.439334769 766.003741389 823.252945124 480.303151592 1118.66112413 1046.11791891 1249.94923442 1300.22218159 1012.19801673 782.782090704 1024.63850073 1376.65022767 556.382719495 1215.30394955 988.826568247 1315.54251618 1182.77218548 1033.22865194 1002.54714621 1037.37987856 1252.58813294 1540.76878902 982.13303283 1112.86925549 1152.11542856 815.126030836 807.183151452 1190.72444385 943.349161439 1109.67466233 1069.05562289 716.354156666 953.904926315 675.082951672 780.743870742 817.696700757 1077.83167752 1166.7626866 1318.19536216 1261.13607971 959.747085538 868.324874863 1291.6228563 984.508344292 909.19625834 1144.27508436 901.42644985 1346.21954268 718.427345136 800.451121425 1089.93653007 965.513015094 1588.88035578 985.165429569 1038.50247489 1338.69109649 314.666309474 1010.67374505 1054.16027398 865.955138481 929.019084685 1076.11707706 987.473982025 898.478282957 1101.95456811 1411.8783805 815.112154381 1354.44621644 679.108266956 709.55590017 802.284522285 643.508183284 983.373656516 665.944194876 1303.84186521 1090.49680073 838.823977609 1433.244869 1020.6824123 1328.61981327 1529.87403151 1173.64613136 841.44858568 1043.91933375 861.746096078 1128.07137583 1209.77948901 1029.44688088 798.611638079 589.293455542 685.814094633 1201.41436949 765.394733082 994.328110486 1027.93602351 1136.39653703 753.895180686 1360.21393093 814.934842414 1030.48732153 805.856380843 898.399674069 1266.11215297 1414.43637972 1503.37878688 1421.02930076 1666.10071152 1221.71730091 1102.43178659 585.624653165 606.944455934 509.809790821 1357.16573286 736.045527113 1196.23996085 1440.53301792 1188.05915883 1056.10398927 676.476696993 1213.70152614 1294.72214524 884.710118174 1115.37295259 1049.2722014 1270.6206285 522.32718452 891.979775936 1122.30433926 1338.89109305 763.236530073 1332.7239646 1135.11376049 778.047362262 1101.99888014 679.792499765 597.323220145 650.696180359 943.635971169 739.369083799 947.134177418 1036.55209769 1443.53735841 1213.26492067 1168.04343352 558.338069969 953.036122071 1204.38909784 1278.3541889 1017.18523563 965.151107387 1514.05037061
inception_4c/5x5_reduce_param_0 483.666664851 314.718202288 533.07594852 344.878357706 358.343939012 393.201898333 381.137554878 340.125543252 363.179413702 411.825650242 367.652260368 313.68067795 488.327889862 526.760104353 391.775413175 307.302805062 408.494996972 782.151146665 516.457423992 504.451595391 420.450198646 309.711300431 328.312576297 366.302070304
inception_4c/5x5_param_0 1114.76605758 683.547504275 887.693926291 604.159687143 805.244307124 1110.25866872 936.719704719 635.24449423 636.769044756 512.725466686 962.174874428 985.148006748 404.931308411 339.774648139 759.450462064 624.275315512 875.863174282 577.565152111 872.445485936 1065.65139858 491.879336525 1003.20586657 1229.68883143 655.271671749 1020.5030631 239.337100126 874.424128485 622.704454828 281.413037598 942.548772118 845.490242389 681.589083348 910.080220465 1056.45790646 727.615669011 840.075271022 1204.64853282 911.382638185 696.834137411 759.367977663 609.504759069 1035.97188779 556.117771487 382.472524197 276.300992499 853.800630321 431.557636833 825.335532724 1051.59863449 671.03316088 763.752780276 471.212060268 1020.62074817 523.421115975 642.012065222 1091.13091099 926.715328607 711.455386169 986.555659002 1088.1785778 730.502164124 1084.12690612 712.581056645 1025.56828156
inception_4c/pool_proj_param_0 842.779809063 666.232539219 760.635366903 514.530997067 902.080768945 652.838963709 300.882597397 424.110686842 941.515765105 820.64277276 556.118968958 657.911450703 842.55060775 372.68652299 913.423095769 416.346688909 656.599909925 653.950602893 709.81059654 603.922175139 946.647416554 611.679925601 736.310184459 547.003659473 849.303640282 351.13339873 681.217921377 651.847637537 860.299879436 829.61613267 722.451714394 710.424035713 724.990545328 535.12046974 665.873487388 499.465405087 875.043953608 899.797362293 871.717247314 534.821576786 529.678725727 621.403877106 748.831303563 691.461435045 915.771450663 844.636668288 697.012625076 630.323765696 763.847447144 859.812032752 739.480257695 315.34867102 599.196227384 760.199866991 791.59193182 608.793617387 292.606042179 681.06832886 1045.40146764 617.659668289 457.577796151 727.890584782 586.228347729 615.549899093
inception_4d/1x1_param_0 746.508708746 600.959335452 322.121759904 388.912625339 387.695818276 467.115130915 469.638189248 168.708545564 195.260109471 372.729942866 447.325269172 741.647912879 307.952881487 392.304331648 401.648026606 267.997341543 407.521272682 334.314385274 396.899516101 377.446097266 567.405626891 417.21484953 839.521013868 483.123040117 503.968901473 261.545354604 433.556357425 458.933705959 494.984353807 475.27449869 450.927222678 602.492710134 464.441045679 357.279128528 497.096433664 336.450086019 652.629902501 598.366560546 362.542580503 546.572952019 308.324955897 353.216726246 398.931560892 249.103633205 518.877356571 276.515491219 460.852513366 650.205275292 636.584506622 442.063026209 434.203888138 513.837309017 461.685232033 506.959744206 697.66038151 332.134708767 354.086991435 363.290658333 477.039919257 595.97237563 360.924533173 692.45547131 512.968641344 316.560815945 316.847168582 458.316428821 420.194235367 429.115572254 620.666974518 380.509553383 532.084597375 578.796486702 692.932603751 722.362866314 273.908378329 440.063305147 296.321255385 194.15032513 380.373560449 351.297032145 368.409524499 340.356858784 327.599994342 538.619567995 528.75850746 263.452722793 517.687641797 200.076927266 533.568701521 446.28063735 505.263475006 461.514578971 534.754429759 430.527152609 627.647801303 419.69307995 412.936886178 402.921675776 552.965750847 458.008757104 481.029982163 564.220706628 563.739984812 506.017277492 483.720907931 312.333765007 561.657281225 489.855576611 666.492778693 515.156676777 660.895549073 391.937201207
inception_4d/3x3_reduce_param_0 646.716835963 530.707054613 481.85314729 485.66253223 419.921369089 577.597091936 482.666560349 364.904914188 518.341989856 455.645372237 520.321254609 402.664230316 376.254161064 670.0164554 374.029315405 670.147162388 507.74203151 321.448281335 651.028901676 521.475031004 587.59491841 429.046920862 396.980378158 372.344895848 521.900440327 679.567881353 611.920812109 728.220272724 643.736868704 479.646960013 282.621188142 586.140497648 526.957831073 278.046131481 704.036087564 451.888252213 568.118616901 535.941766218 570.882069884 407.838903832 424.56280435 513.137209 426.300850808 377.267790888 775.297119434 564.981321891 612.476297983 483.966691417 501.930007041 661.811296293 489.706514143 670.832403151 780.843655284 458.053655556 518.655912384 513.428309051 554.628708281 354.516508212 612.969744725 409.060632444 553.817590732 318.14563656 430.909602792 418.118183818 566.20545487 652.390960951 570.79780305 633.000548419 573.982003145 618.543694115 386.361470737 533.540510125 476.842948007 366.913171578 407.689699078 577.534115935 331.204987008 541.281254614 698.111033951 615.914931903 499.971708637 539.833073841 380.748727684 396.076026589 540.811734719 527.550172174 469.435956346 402.65509899 456.651888696 495.618644388 537.652073895 406.065644572 461.287320926 713.86847297 625.874573728 451.130821085 504.791305306 380.036409329 555.934691765 416.77962416 623.29351194 587.267893553 527.532539297 483.12457375 327.164779874 720.304250296 541.658215257 603.41605237 495.06485976 596.242797998 579.291428969 614.087137742 660.737228819 612.4170163 734.85387835 626.212846773 644.638561474 359.080007004 465.98021859 502.759169481 344.162362348 624.556111501 663.192575204 560.361219002 473.2835459 785.730999957 597.753090313 317.148224633 695.242854853 382.169991863 668.501748784 314.341398631 662.249538055 570.08112722 765.683328892 427.703430409 523.637608332 241.418758023 350.74748348 515.15455938 578.434500676 385.046679021 470.44320531 352.373803856
inception_4d/3x3_param_0 1289.21959067 1362.9749905 986.937800224 875.424776949 1009.28682806 1017.05584035 1111.90267398 903.908684584 1609.09481478 919.592514754 1130.97004832 1122.87775197 926.536001872 1118.74842111 827.406754216 1381.59281765 1270.37451222 458.343393181 959.402446318 1326.77571233 806.845702538 915.382251382 1424.03424435 878.570364534 911.741522679 762.034996746 1218.37232793 885.791995407 1020.99047781 1095.95790911 770.311353689 806.521128532 785.362031194 902.018616487 1083.61621275 1333.76020291 1074.65990511 864.94844536 648.851478034 815.832717083 900.290852602 639.933598718 959.1632891 1065.82784246 947.26639514 736.685558403 1050.9089325 945.042040206 1107.65763803 1589.98821019 853.122215685 1198.77306142 1056.52469753 1187.23175689 1260.23268396 1214.58476762 1460.86772106 980.228461043 1064.59974553 1502.27694494 1490.61598923 701.449933821 1124.49386226 1011.2512729 747.843268922 860.988283632 552.461712123 1019.51304224 1225.67371231 1239.8501076 849.286544656 1342.27018201 697.303290508 818.224862928 836.969709778 1226.93424467 922.459709939 1079.52857316 1089.13105717 1132.15601065 1175.80543947 1582.0725459 665.850337721 1018.20455411 1486.16385557 1409.05246319 1036.93522837 902.453385842 977.113738457 1014.4706645 799.550010845 1005.09678432 1110.50300613 657.252694498 988.165508295 947.195228786 839.02910131 740.382302216 988.974699925 953.429314518 932.260655039 1078.99795438 986.707451872 1258.50066108 942.821849267 655.675868704 1106.39170455 1060.41031216 1121.88596111 872.629500333 931.082607823 1033.52716796 867.629463031 1139.46616035 579.216627846 1022.18248855 992.247057455 1073.17910634 980.2355636 755.680396072 1135.84299325 1202.74266045 918.385282087 784.574499601 989.293832893 1130.71167211 938.853916939 815.589448202 937.371742861 812.122621875 1304.41847359 959.069602217 1150.0571536 1261.62239223 1509.76580136 820.817755374 597.427980908 969.602099835 941.542392203 1080.30997253 877.313466507 734.906598041 1233.50893111 943.944805069 951.998621177 1179.32364247 682.51097165 963.017880205 847.798987853 1085.56867588 1021.2213278 1223.17023245 429.92427609 984.473090865 953.768714359 814.915596042 571.729867241 672.782356338 1117.8836884 1162.42341774 474.897492258 1203.6008395 591.340505932 1059.83386618 1488.38613818 1106.15656634 1022.75778337 1257.54898617 1228.33552996 818.899086952 1035.97251742 1046.04466971 1115.31872824 1357.51084601 1071.40774115 1201.49177043 1080.35440963 1282.29838789 1172.52105408 1014.87860896 1379.75049334 813.708322899 1077.11286498 899.818261923 1297.15388573 1393.3240102 1022.2437898 1010.99924283 791.152806264 772.634326988 1018.87975425 805.817751366 1021.22775199 1060.00107184 1323.76197891 742.175946929 920.589285107 1681.10548664 674.37182187 1363.4369116 447.064344801 841.499513879 1115.61136871 576.657364135 968.9160342 822.840913495 658.027569935 1187.41767501 1121.28604759 1343.39522115 667.602911726 1276.21352119 819.460003756 784.85345769 1123.57949293 579.974349952 1096.97404123 1080.67906884 403.851433463 643.316999707 855.484565982 662.029624703 989.271900262 565.028928442 1197.27874148 755.696343066 944.371024513 938.405280457 886.011709566 702.398003346 1210.2878313 839.650451581 1191.01705308 931.108342893 940.926194572 963.370566941 1495.52840987 1016.44699585 1209.08844075 833.563406102 904.323112353 1050.80100131 1368.26118638 969.146635237 1034.11856946 997.008180594 871.680604296 1390.93956894 1169.66303437 1015.43578884 782.870819081 1329.52201014 769.490198302 742.545940731 961.933681764 834.221836876 1149.64000721 1191.78790971 968.861292217 1020.11738568 1123.13714816 865.010071489 813.963219341 1130.98280514 1129.76957002 996.686266498 868.23199454 815.051197126 1199.25818785 825.621999987 674.602201988 1115.57829388 1068.63820986 1104.245001 1057.36390649 1006.84519028 816.871519192 1028.74363765 896.002381819 1072.03635766 810.714407621 761.916597615 483.904260511 766.993784371 943.436564576 1128.26767828 945.322855264 1421.93507381
inception_4d/5x5_reduce_param_0 592.970929846 451.953287766 665.357761667 627.495352073 728.395282213 644.97014241 599.205874489 511.02330495 388.695277377 338.217462997 342.706232628 375.758928105 504.832627533 515.946869522 649.454938046 283.655791452 384.773724586 474.270651534 438.917878604 390.29738897 434.643211875 302.033147708 476.136207125 586.879920453 384.568785389 298.138522824 561.276153778 527.58132647 375.401759363 467.005889556 367.38465093 567.918431306
inception_4d/5x5_param_0 1153.86723716 770.10943205 1181.61931296 1142.09638242 654.545994988 796.204980218 1088.74364845 828.132570771 1157.66428041 1592.19383652 1089.98343544 975.098132826 1362.99079335 474.889342224 1049.9913827 1041.76428681 817.438520183 1554.2397032 612.737370705 1373.04605824 517.830693303 909.313535648 913.26326126 933.054691501 1044.4448659 1924.19877382 777.176684332 698.932687379 679.590856729 977.972138871 1372.07600455 1266.2678148 960.040277684 1029.45446591 1331.90233517 400.391733656 980.725211586 595.425735172 1181.70442449 925.554462007 994.737543818 623.196389994 1152.11924428 1067.92591628 2179.3378104 1120.36672326 1143.38870933 691.627807528 1265.59775369 1123.91324025 1107.49765488 999.005396474 1458.10575786 1154.96421889 1166.24076885 699.263680554 670.491269235 1050.22265816 851.679838978 963.347046455 644.266457667 892.906047768 647.279655591 673.17612205
inception_4d/pool_proj_param_0 395.983794207 742.11662188 783.240473343 775.597467331 460.213615625 633.635870575 617.592576506 602.486704834 764.251636633 357.460684938 488.965702396 364.000379255 716.332300935 551.447002323 685.885899184 565.647831198 627.427861841 952.528160451 678.369413327 505.094591934 421.250567313 884.042690499 467.044942336 647.762311137 520.710104011 492.751993654 550.226423675 875.012061102 426.041507479 441.917750078 604.733688442 565.881208728 501.030518397 611.633658466 668.2524084 640.167251189 579.225602961 646.813426522 715.546862435 676.832980126 601.831356528 517.693459192 614.88535851 708.266790766 579.015429993 520.10889178 509.757771169 424.709632699 404.891064737 419.850787999 823.334701046 503.046835013 698.569941453 604.115407044 315.300139389 723.46665759 403.932396552 386.965762614 320.963093046 690.201571486 467.580464821 341.209936358 726.140866882 852.287686526
inception_4e/1x1_param_0 455.611514896 591.494281827 270.133784979 534.318501967 326.128901573 565.164712975 538.299346537 238.620584337 322.707913946 439.81000975 327.328151434 452.325361212 330.619033587 383.239295228 398.213312511 249.305502747 446.195778775 260.358981004 729.699918621 475.209944608 507.016683766 524.245592092 449.313696751 316.072253303 357.371651894 447.343441973 807.682812503 303.690163138 422.675306618 341.728064222 717.34774107 311.453171914 373.302125111 170.752777459 324.851388904 352.555249594 409.054860356 385.995304375 294.538079234 355.843689447 295.884271786 407.887582869 465.833567157 534.255432977 500.181445101 270.317118563 370.578876129 525.898986209 316.02408462 662.410334403 416.943716486 676.052354793 419.721726537 279.393763389 604.250280295 443.529090389 408.445663923 566.428601488 522.249984972 311.578419454 408.010210278 348.871828181 331.410895464 252.222244687 421.633059241 373.394889533 641.905686815 381.527894364 215.277452364 329.446167674 323.065446521 457.677411109 349.657889006 566.48161054 516.848008527 430.546248119 254.251444576 387.179526775 373.224834835 652.991419841 650.494049609 333.75813581 398.153596905 518.114198887 458.602353335 238.149739815 301.174180262 726.294948078 467.955650756 327.001470942 379.43733177 444.659440042 235.901496725 799.011591108 516.551453559 717.039464815 707.985322981 547.592620282 490.368022771 282.709348613 579.051857964 489.112910664 300.923349305 458.795999936 706.689134584 641.426744076 417.450059648 428.851671851 374.94257749 544.062961686 313.748207332 437.363643875 419.359612428 239.163527554 488.160406271 498.259751633 295.907652982 296.654007407 400.317335499 628.977599217 266.814885413 377.880940108 591.722076142 563.310376881 297.238161515 299.563047554 286.946863613 622.775255814 464.200783716 400.302444145 601.047614904 243.096487006 352.782670173 595.988962475 334.308877594 312.974680738 425.984566678 371.257994342 625.809729246 466.866059453 283.796053719 267.965457248 355.290557916 549.320787534 422.009267063 764.601786476 616.224877586 670.010872118 326.772084789 286.479110429 349.657315204 267.371158786 272.482268245 293.116976322 565.855811042 296.98790085 451.454761168 352.779954106 410.843527648 447.012524684 335.004408957 337.815423835 365.127464693 760.844575995 289.825765959 488.234008821 448.999491303 798.820399233 503.665059846 632.597239822 339.544339469 220.670033686 450.449667576 557.507613834 527.111953001 523.309723721 455.301819941 286.026548156 536.445202604 490.990982587 220.793445956 492.757007723 582.36417412 675.258387125 448.181225624 347.780497582 550.358739983 618.123084363 531.767086869 312.709255972 232.232444062 480.389566422 521.219455123 344.864793404 568.710230374 536.65283657 495.339409342 447.336726787 572.431280681 575.376328184 368.466353488 444.941766827 355.056313924 302.743514343 676.259522656 547.426607366 524.547240436 560.939251729 370.867911668 339.403876571 577.639644715 523.019702959 496.253522436 612.014099519 744.571386837 582.178320979 323.996448777 393.698556825 461.875434043 266.115066723 626.924061268 381.323769873 753.485547776 476.360815568 334.051137718 339.401281508 653.267853038 648.571266982 546.589532112 527.966159917 438.860788637 504.753337878 257.970982923 614.439495649 348.164942787 352.101636052 852.694168275 474.454039811 475.593657595 416.005398077 473.667785753 268.198799069 522.492702731 411.392574625 319.607842496 376.685627649 416.958158227 495.685518533 334.794327982 348.691499617 582.826576451 288.162936329 263.290551312 360.441885836 404.665217698 744.84292809
inception_4e/3x3_reduce_param_0 900.642861438 937.212384168 833.666956397 670.134358121 620.543333311 603.611995686 557.597851526 903.414094036 827.727136787 694.667515206 857.91253804 605.972504653 814.506261113 597.52641078 623.009978817 1064.29065482 792.38301285 690.489491796 850.056953684 904.498454531 437.813391415 826.491252086 1128.50252452 359.307897541 808.289861346 860.526415864 567.864661152 814.312251135 801.658179432 673.292054517 569.213725524 565.65819277 704.646340005 805.56952917 1019.96478315 775.180063013 478.33226313 642.77651102 1077.42529506 678.561201732 441.474901719 780.076007298 619.164662592 576.749848873 536.242958828 658.154708053 967.841382055 787.815839036 997.791389082 527.248029337 1219.0641804 432.373167335 710.777860072 918.52701681 1035.43352306 543.87749303 649.975838219 869.274365755 726.396219356 505.227772576 803.816004518 775.682738818 681.901667497 701.011451815 601.536396731 445.415343694 554.39799057 809.847610796 758.504558329 423.067279547 1001.35840317 625.074540581 411.682025623 572.965154159 771.30468253 532.074964234 593.935236808 699.949486315 652.88172227 566.418738682 485.330826546 473.526779784 997.506793906 507.983165345 770.720323812 796.358161628 689.028055083 577.522492904 502.007465887 591.772118291 1075.32544817 775.380772966 563.71958878 735.525478932 694.031518616 702.433374237 1115.26304978 771.682915951 781.85595906 841.485888113 414.541422499 866.287848446 615.990118516 827.198762952 887.680427678 614.550524073 364.461093635 820.115746939 425.383508218 666.935156895 628.959264627 790.809179401 1046.88845908 686.476082468 818.294388074 765.145713099 795.980262125 850.742303859 655.379502943 1145.44402225 508.059535804 375.193961063 775.97391844 936.333998694 530.988496011 958.084193525 539.111749087 718.226464983 637.893419849 908.595698735 812.373660636 331.358737323 508.163590404 875.193385239 977.044961266 679.034087364 963.395939864 921.796041939 722.800643724 343.572112355 803.825784199 788.859382824 850.252509907 836.960175476 721.710432642 816.722006599 757.570233165 891.320074637 606.158773604 890.021254013 612.141663236 1079.12856187 813.299035453 873.433104806 738.579192422 858.83384324 800.723731511 521.847585672 810.506783747 524.65350818
inception_4e/3x3_param_0 1017.18159366 2152.4934324 1509.32584776 1063.38416084 1935.65023223 1020.4528444 2579.654118 4826.95933035 1520.70519627 2329.16258443 1083.36648598 4785.54253043 862.587823266 2158.9045591 4386.18417809 1416.10863203 3022.56882571 1828.25657552 995.909678972 1768.68364185 1194.51734731 4771.1877336 600.833932535 828.499822593 431.264492944 1851.51870391 1087.49162281 688.622375457 1072.01518738 1595.1201255 1470.05226494 4544.87895266 1621.57951658 1793.96204145 1074.99755658 1243.38323692 1504.55714274 1485.05060793 909.184328597 1426.47773353 1280.38883994 1251.21594942 659.596699643 1379.12189224 2061.26611271 1027.99820281 3626.55803989 1905.15724698 939.483971897 2047.90170255 772.628653551 873.666163723 1591.01815726 943.86117526 892.115064366 817.159426337 1620.28381459 1068.16047525 1172.85174943 1046.81317331 1108.42040594 1577.7920767 1773.93006872 982.815509545 1342.15889137 1011.81696839 1819.33556455 1158.13393101 1355.12857457 2297.53427262 1139.45374463 2038.25001024 1595.89521441 1324.5417883 1009.04652779 1326.34221605 1878.45214582 1155.62093394 793.563625868 1385.86193993 980.820694071 3216.22710054 1847.31392787 1643.05523684 1176.4406866 2266.02614904 3652.58219999 766.01992052 1064.94008581 1206.26015939 1118.44444568 1905.13850884 1476.10178677 841.171288894 321.119723175 1438.71736779 1493.66868654 1103.61735407 1027.17962597 1342.43403372 1383.00780864 2186.26601012 1938.47380061 2535.88620978 1055.539339 1024.15436628 1475.00253592 1839.74123682 2129.44859333 2238.55467991 1626.24905665 1312.70801861 1497.70524266 3293.49406773 1643.48660925 999.195600964 2050.00626957 2081.51960339 1752.12770339 1082.60871329 1484.8177595 4026.2553916 1145.93285057 1111.40910635 1304.0918425 1741.18380815 1085.08411426 1033.9506485 636.172915677 1695.10560875 1279.99694344 1818.28369923 4128.12774547 1674.94820889 1297.96461919 1706.12556804 1575.5377426 1782.54339781 2515.45595357 2286.92299744 1758.80202723 1717.7282691 1713.77359387 808.413757714 1015.96596736 907.169406254 1241.15299661 807.584391878 2304.59317218 1081.79453214 1278.03980824 1347.88744064 1470.75280649 1240.90894806 1684.80574384 1282.75994056 1515.52910803 1248.5300544 1321.79714551 1867.45789545 1496.79673645 970.393978903 2355.35683377 1548.22942784 1349.2311027 1344.65356012 1041.9856459 1322.68578649 1388.66508528 659.814539628 979.291263585 1130.23903831 1199.30653645 1281.06002452 1193.22661388 807.717410831 1029.81059072 1558.20269865 1469.4286435 1361.45048767 8848.49916398 2221.73450499 1007.03791611 941.443588282 1325.12892254 1501.52476289 1743.69969534 986.02161448 2640.66670467 1224.55210771 1423.67029774 1065.88455945 1220.20614618 1341.09226244 1098.95868576 1117.1834039 1728.52351868 1003.21283367 1539.86044095 1270.0413324 1454.83984878 1488.53080036 1517.66676054 1239.25563576 1639.27069869 1591.79996662 1516.49409715 690.768582525 1247.45068777 1007.95461072 1282.80975368 2529.07606063 1833.61871461 1154.55507952 832.994338983 740.215821922 2020.42793932 838.640574306 1509.42635543 1348.83233377 1680.2603477 1787.5601325 1052.77707011 1190.47213501 1042.86162382 1322.00309637 1588.56732416 1971.62557595 1391.76430807 1082.10624969 1387.51436655 4497.79682504 2251.24646945 1466.09056163 1428.19367393 1694.70585535 1742.05895793 966.142352418 2866.66473085 1568.00146887 1950.68257044 1197.58787521 1893.83249228 1503.26158309 1775.74980563 1461.50151353 1261.85111673 1469.98279259 1027.87769465 1825.64659168 1516.01529174 1037.7786587 1024.79447665 1742.16382848 807.600385511 911.012934767 1431.73200412 1651.88008226 1476.54828999 1075.55152837 1117.49365397 945.263617598 969.077983321 4549.24258967 1294.90390699 1242.97078981 1973.23031979 995.322685121 1595.06161372 3338.6333781 1358.34446698 1582.69200524 1586.64815223 2699.49062519 1729.19984536 1393.53542457 1317.04047367 823.376857816 968.049810322 3029.31856995 1165.75152612 1645.83977211 1202.34239766 1522.02720525 2097.40707959 1320.76835298 8162.96401052 933.478287889 1065.99154506 1240.44704571 1465.64342864 1245.66629243 934.40192537 1020.55597525 1557.32917209 925.903975613 3018.37213628 1487.70817352 1404.57074564 1052.89223638 1743.821176 879.317451646 1269.13987889 923.473915744 1471.95681481 894.353591806 1449.45756951 1363.1631226 1940.040909 4154.06583145 1207.45522552 1200.78164805 752.327711225 980.83762553 1011.24491362 2215.5870969 445.861238533 1193.25852244 3093.33567362 2212.70657166
inception_4e/5x5_reduce_param_0 376.325765335 395.945382856 288.571297664 619.212211117 425.792775014 367.151749165 379.927003667 711.843472417 513.605102337 474.410410858 289.119178631 723.223240829 446.715295387 364.888479101 451.098777356 353.963463811 346.241097932 421.053694608 554.197013231 423.633250467 539.045702498 478.021698355 581.686296029 424.661934086 422.023643909 479.250752517 353.336217458 325.613567685 708.918189185 405.555916945 451.902868006 621.638111404
inception_4e/5x5_param_0 1617.67911503 1116.52524266 1431.85046693 1480.35900143 2099.83608551 990.777055492 887.87851015 825.894420181 725.269899271 1518.48363187 1086.1594142 1310.49346908 1356.13252437 1625.34532677 1511.27221968 1280.10191279 853.397109425 1116.33475927 1696.73370153 2289.63377616 1118.82662552 1722.68816968 663.154079761 776.829510828 1092.70456744 975.213947069 1482.50076327 956.350104681 2282.12713647 1708.7301754 2014.9331582 1573.35722271 1558.73290109 2039.19781251 1704.08851204 1438.94035366 990.399877101 1522.73232827 1170.97115489 1321.84019613 1366.9478825 1767.2056954 1799.80393034 1212.4418924 1034.79105037 1179.76400057 1137.57880534 1173.11246783 1401.73247809 1182.62743033 1029.02304296 1280.67339403 757.666808608 1109.95755403 1379.75317374 782.76462063 1446.99976604 1444.28541582 1449.49479286 1314.7038008 1287.48501782 1624.84473827 1326.45368601 1281.2766858 1296.33499575 1297.54776696 1251.00529468 1251.39966445 1524.68535892 1492.57017907 1914.32522654 1889.10982895 2035.36473232 1526.06403029 1002.15576992 869.637493438 863.984902713 1271.43731118 1609.07172674 1028.64443218 2003.24001917 1062.3788209 768.348698788 979.71453181 1459.12100295 1508.39011203 1244.05485339 1851.08620845 1218.55122806 1325.16600916 786.313032425 1574.43058555 1339.52302041 1718.29293149 806.21237296 827.006203304 1739.83153073 1094.12718824 1891.71013782 724.307196836 1384.70719871 855.153408307 1928.86756049 1105.16663687 644.190832228 1320.88943071 1662.18621215 945.794924874 1499.43178202 457.386305436 1783.38916323 1820.93470962 1294.23494512 1091.26789574 1666.94910548 1897.93829715 1073.42016984 1901.04880529 1558.19344006 1301.29926892 1384.35891412 1546.28718894 1186.40410282 2494.76900903 1028.27087619 1241.02251221 1471.26553917 674.357735143
inception_4e/pool_proj_param_0 758.929129191 784.770638242 594.410732057 664.590670135 667.378802103 510.220374331 670.949853759 397.89165529 710.894891587 814.99773062 593.366339741 651.17857312 586.145939637 731.264511839 651.201410407 747.837560008 421.161306646 635.179634605 702.129624858 562.404056149 876.112842105 569.315018334 523.864165016 776.546320755 740.677572454 646.713400854 576.070796987 700.276897924 545.978136854 778.404867399 750.206346437 699.20424844 538.208211079 640.907643042 706.285809373 390.601115832 344.466323252 737.03403484 834.467934109 591.230117322 612.978870532 747.218299867 529.207717562 589.165257356 579.331514573 577.266748139 549.35662005 696.800011773 381.193809461 728.285424679 535.617886672 577.304950727 936.489663022 879.795084794 437.89144653 696.753528802 378.373857175 592.369455936 723.581946333 823.016119587 553.51873319 640.643640007 796.285766953 420.685666404 426.346998827 516.55621229 725.241818419 337.327293958 807.149057521 571.251508623 636.047197264 815.345544346 251.869383889 814.154418724 624.148541456 419.650923256 428.546848424 639.804948812 726.801525061 706.092011727 774.928088603 504.203600429 730.304112631 913.267567151 876.938307163 633.438690198 313.742270787 676.782458787 357.613463426 543.482500724 760.444863363 723.46727171 610.324449469 686.286260096 554.157519846 365.392891263 520.988969393 760.789835076 790.608030916 520.029871546 642.366511241 597.784954056 577.794602327 728.558231141 624.685844174 510.903681267 547.272994444 732.318165454 239.612791756 817.07756049 642.092452656 835.561647338 414.540615986 856.079972341 419.098709771 631.209611942 701.679894381 713.815918496 604.819474975 333.693607955 491.794301024 824.872792297 761.832282809 896.17187336 650.967441415 466.377695626 566.236602049 644.263876468
inception_5a/1x1_param_0 820.253005346 528.500987758 688.62398899 741.995610096 493.129587593 404.202431449 703.027454019 749.993244203 658.418338195 563.890222626 494.820605023 511.854095478 514.863707419 735.731961919 582.426098471 869.971352318 610.512398068 1120.22491285 565.427362361 659.184290752 672.289815449 422.733211251 593.310079948 785.927282489 412.580667536 817.339902491 825.476223029 496.846057703 867.428922705 490.467581059 835.157501206 649.594578385 701.815330931 915.523945743 903.438992665 637.184456448 383.674987733 855.699294513 929.291976687 942.259705927 1115.08853419 496.503417106 688.230455567 664.557815802 837.646212991 690.557746611 713.744184264 389.947883633 504.088608796 697.084285209 399.022444219 646.893007796 874.292358346 555.244485407 416.659206181 752.307324046 429.570548085 904.524372936 509.606376961 438.275919437 578.105982702 957.01848432 496.422153497 994.023807141 744.687839662 801.859332576 504.088847313 1027.33092786 808.676626538 489.729982086 670.552092727 429.812833587 798.776377404 646.938182931 859.416069947 1191.7315835 699.170521193 907.884313381 712.346575773 848.82294026 933.229601952 622.046675986 918.82408897 1035.65459077 782.062007233 536.996273146 658.252762953 365.741806667 687.070993306 873.633923808 511.448705711 850.446289172 817.749737366 751.216596312 809.204874963 724.05454095 816.838637382 693.089483154 540.035571476 868.868224565 474.49366143 401.70724252 409.202315624 491.305831942 713.375518574 500.148922666 994.303054088 801.94308186 808.208153463 467.678221147 327.172516302 573.393726569 459.250194362 521.600518784 414.530696132 568.619433305 554.420494684 642.840846534 670.253092995 873.054906268 1172.11816287 1238.70286976 927.59281293 544.677835166 951.294758173 422.179762598 547.20704117 718.005493448 727.356292819 585.068224208 571.444357527 847.69535416 921.994882461 781.513192695 788.534451324 846.273691084 541.704003651 460.701699739 762.874245267 565.167223954 947.047350669 847.000087355 873.958491301 620.124422364 454.564912162 614.360612761 874.894393376 509.178254328 598.936883074 1003.32054069 909.002996262 924.961516451 859.046273635 518.133349691 919.106089097 1158.47427436 431.80177588 951.947475283 485.598169013 791.340124532 609.189168434 749.209215875 357.60656113 394.45784093 288.72258724 686.468839211 803.663351051 940.375024329 452.24985121 485.184780906 894.497299451 498.221653601 753.137982507 624.732321172 381.416570099 873.639565621 602.637555064 680.447091382 857.225247857 909.404933977 882.697047063 644.991081944 843.553147409 654.000834112 700.495726379 815.460611959 384.250247561 441.367859643 970.880477533 831.221741296 1226.6504695 379.945634432 703.741235918 682.250308772 495.447563334 199.742036849 709.717029044 953.79603903 1002.87569018 991.463528973 616.072493185 899.711873917 452.970117605 304.886799938 875.578476417 743.770930974 885.607909888 491.800601044 777.9370717 868.039839596 822.524698491 813.642759515 685.937291993 400.64123313 483.897501793 608.460083189 925.204709989 383.405353713 760.756084366 760.918210199 879.959317233 619.509183432 391.79342305 397.351353055 460.269635494 593.960982454 943.930168782 952.560630779 832.584945134 619.432955277 743.392907278 369.233536778 1384.546361 940.67217528 405.06733428 499.912880232 754.463979075 763.665321556 529.392784557 690.330879448 1140.81208903 871.480147526 1090.16384616 778.505974925 369.995761567 715.74540475 485.328283948 477.443497331 467.953852207 446.607054681 970.202431646 842.91258789 856.522358474 267.848197772 435.013162339 993.835102792
inception_5a/3x3_reduce_param_0 975.753101826 801.417712568 899.861869276 697.508618823 677.145143464 913.823955715 697.999945456 800.256910725 676.318391785 941.753069793 711.793415171 539.469916642 829.884407582 580.900181819 797.491478981 761.502218078 526.080576847 733.143398142 625.3488523 679.474641118 950.016149156 482.633433233 850.363302826 933.670335877 779.717964491 752.019630734 620.720178895 834.252131752 720.215260121 750.316311759 990.952041266 735.727198551 617.343269651 901.750246788 883.487803773 895.885405052 1127.25926534 928.98819944 611.483667643 961.360669336 1068.15532121 844.737462261 1391.41609939 939.69580136 795.766444169 630.784771214 887.569495728 708.656001216 784.850566664 512.188153518 772.917754628 683.726325141 850.366611787 479.780777302 845.062108625 794.118402745 815.091652394 1119.79028079 790.298365571 846.652250668 770.16155542 832.372147788 754.568448761 664.668828828 1017.5406958 777.302709735 726.321748792 985.84197959 871.957687651 1003.41173181 495.419512476 713.803065052 707.103010995 682.274449008 685.574891438 666.917360731 722.35221336 798.621067029 1103.26434388 638.040837545 481.678314368 455.150776277 816.230175678 717.529282074 835.981108383 570.20252726 707.007399382 551.009200678 716.100339111 995.72235193 822.709140936 575.222004801 390.277693454 1019.27967254 921.184203427 635.099312249 675.210614721 700.683065107 983.812385924 760.184271793 771.546063817 838.906378378 1112.67057535 770.970335986 663.177764766 794.058029565 567.690895412 708.865830405 470.080355325 756.158226705 332.047338615 894.403335144 823.313465213 472.083143279 946.305710183 675.954286695 655.559972811 342.777464304 853.728532816 704.675761742 767.66203517 863.541600901 889.953410722 803.049684568 866.287320132 739.340990899 669.46458218 840.268746372 1056.8391874 714.07751188 763.047522458 861.766136782 891.440244408 542.26207299 915.53368208 629.703718305 1001.71477707 1124.91292609 781.631596281 933.576040463 510.228377096 960.673110285 809.359794802 829.686476457 771.861546417 790.714240996 930.725007126 837.603487914 965.409007179 1203.11219402 736.816755813 391.358335901 994.437050894 492.945451113 901.66362382 1003.23810495 799.123817593 695.381434511 812.592391299 613.649456362
inception_5a/3x3_param_0 1884.09801976 1721.97848079 1707.14156365 1207.34643866 1184.96713091 1162.70140882 1544.18934616 2200.82627003 1075.59238493 1402.29037679 1879.90439224 1759.9716945 1058.06427732 1754.21991921 1385.65115767 1691.75534332 2095.31177078 1320.8546301 1843.25337261 1885.13632139 1323.0779723 1631.36607604 1511.39523235 1557.78446241 1246.00984752 1390.07363529 987.33476349 1303.69956262 1574.23181726 1803.35357583 1547.71913381 1355.11877096 1890.01073046 1688.99012318 1672.28322303 1761.27266548 1503.11961068 1778.37889572 1152.32073434 1574.95486497 1836.02627965 2299.90218618 1773.78479115 1139.76010361 1543.25642238 1427.33453065 815.585545841 1639.87502754 1556.02242157 1621.72824013 1664.40569913 1630.1371583 1731.14884031 1669.5132148 1239.43567484 1629.46194116 1890.58070452 1246.22620323 1167.27476009 1538.13508416 2361.25624504 1411.5169966 1467.75176457 1614.66174825 1658.1237523 1802.58064863 1464.11374522 1404.27220667 1184.084968 2156.52174952 1593.59306172 1487.44528588 1776.76320785 1949.10224157 1445.6519222 1338.15008045 2086.90720615 1491.69256188 1252.52444063 1429.2610291 1706.04018795 1698.93690741 1430.00335704 1229.29357416 1536.46386113 1462.79033227 1974.83378849 2158.96881812 2281.95207629 2189.22299438 1536.91105002 1972.54482881 1433.25487149 1046.58204745 1106.0359846 1578.94272552 1525.72541071 858.210749372 2025.34326516 1343.4611846 1323.49546414 1105.17595201 1254.35919751 1643.50055382 1683.64135592 1530.24142023 1853.1872413 1603.11671372 2074.93288448 1444.83018965 1482.04382387 1737.59385079 1712.23510274 2211.96934713 1521.99037625 1458.5134834 1606.94757959 2086.34155245 1618.41297681 1292.69328636 1065.79218916 2042.45636053 1833.26019459 1412.54387615 1245.74385576 1746.03880534 1320.957809 1824.12426986 1261.95257031 1812.44205947 1965.63283244 1629.942 1311.11611337 2378.31719749 1129.11332824 1361.52312999 1825.86287667 1850.32405279 1433.6423044 1338.6752213 1302.7961129 1284.19728916 1816.80402822 1770.01627647 2008.1375005 1307.69822041 2338.20807734 1849.59302978 2417.58954416 1528.01123971 974.739484081 2179.20783498 1764.86219184 2056.15847871 1397.07048966 1717.8245177 1910.69364171 1782.71416471 955.038401554 1733.41612356 1348.10330861 1661.21394049 1245.92687796 1216.79759365 1613.45953926 1015.84874784 1014.85383544 1623.07879911 2091.66588053 1461.26960195 1522.50315283 1714.48688118 1595.79451483 1730.88568569 1844.04163167 1457.32325948 1645.29583122 2242.70914911 1592.09955169 1377.47391009 1500.49088305 1273.58128922 1318.36042419 1244.62413065 1612.32850744 1726.22617691 1286.46455211 1228.86260161 1292.77005166 1514.52618609 2063.3159538 1516.05843926 1402.9138387 1616.81969407 1662.65671913 1139.09852575 1761.61067959 1593.89004328 1544.89611535 1793.35882439 1846.21887337 1276.51209087 1374.64620693 1967.05870427 1991.23812265 2169.76877933 1450.48511797 1351.63349953 1511.49601582 1523.00443616 1415.19040753 1481.84012873 1599.50952026 1404.31547539 1891.63708146 1925.44986606 1214.22692289 1899.04226597 1651.18497718 1893.43195347 1325.82536424 1289.47989203 2027.7328358 975.152912435 1039.12657059 1410.09232265 1684.25854559 1169.62378775 2653.79909337 1124.78302521 1244.90537335 1885.50999808 1871.68057931 2108.56557101 1365.20747005 1331.95114641 1499.63664836 1569.29808481 1607.98445376 1878.65420715 1482.04266416 1454.60657071 1470.13467678 1494.04219918 867.20341459 1234.11639637 2097.17805991 2047.58682058 1964.06259503 1457.1907032 1853.20235218 1478.17060515 1563.4930444 1868.63155688 1160.08464013 1807.56719301 1685.84801798 2055.2285489 1869.45069708 1053.03130185 2019.33433769 1708.03091112 1571.40897737 1922.32431377 1534.3431247 2223.79577398 1369.07441786 2342.50859216 1895.12867215 1499.06638038 1429.98968098 2038.37907116 1456.38417476 1447.8101959 1032.45137812 1554.19676409 2072.9193988 2009.80509892 1943.71497709 1932.16796217 1320.46550002 1334.92819943 1558.66291822 1525.62886542 1740.55637022 1668.74617642 1705.81584978 1384.05575571 1911.12701574 2108.05655015 1484.495385 2144.49864098 2466.70976517 1352.67649936 1870.36208321 1839.96504535 1414.19487566 2096.71926789 1365.33092739 1159.31276199 1622.15265334 1858.64394028 1883.2401957 1700.04930463 2025.58490536 2295.14310751 1619.11674511 2390.35601565 1368.90509815 1337.00140017 1899.45978687 1694.55170069 2267.96057079 1594.26094131 2015.77548111 1745.00082829 1972.188799 1543.97142788 1855.23125899 1366.07838097
inception_5a/5x5_reduce_param_0 652.59332306 342.125686774 821.209088464 267.603533506 291.930180848 886.009591097 423.162392422 617.914472305 835.047934965 703.516078019 716.576281706 885.98794645 545.551800988 552.688706101 602.919392705 563.90137803 712.717098879 959.116551305 745.792371638 824.709882361 949.652536615 475.139792408 711.560462211 730.602420115 908.153637633 1050.0303851 737.327469198 542.316866514 670.578472346 832.37060323 472.59784345 447.250433458
inception_5a/5x5_param_0 2033.78331055 1712.95141313 1283.82355689 1419.03583642 1058.64182383 1414.5319245 1087.26111984 1146.51555364 1367.58649873 1180.43688526 1382.88719228 970.835134402 1499.61804583 1603.12229225 1863.38539601 1540.4599474 1339.22044997 989.155019185 574.576988486 829.974841013 1918.78610107 1468.44113301 1618.55727784 1670.54074116 746.585741646 1092.18940179 883.983732209 1171.87738279 1491.38507202 1416.5444116 1177.52498171 1575.40290288 1179.98793793 1123.74541576 1581.91984887 987.681910554 1295.93682548 1197.36360067 908.925443021 931.232460829 1194.64836601 1418.51517687 890.691785601 1508.72134676 1512.55733598 1014.56703398 785.774464933 910.864163896 1704.76409157 1675.8601746 1594.30910513 969.439424153 703.552084308 1136.57202681 1831.5978096 1413.07620911 1613.5520943 1763.00305527 569.220340396 1051.43024244 1067.7545292 1652.77142119 1084.04920282 1478.04768644 1370.74467842 1116.77388286 798.442777847 1375.22169154 1206.86072906 1138.34906733 1250.53795698 773.110772539 632.187270115 1303.46020136 873.830355537 1221.10815617 959.112881556 1052.43854528 1217.29490033 1738.13638073 1328.01551082 1380.36357087 1186.49659469 1245.18828953 1345.71183983 1161.86545833 1187.61887621 1333.70823272 1476.55059225 1148.76690405 1557.4491243 723.993034302 1910.0057456 1884.41920219 1609.91775859 826.64163717 1382.69357688 959.175702906 1702.18702011 2042.52256287 718.347778799 1584.1010708 737.349476625 1683.96087393 895.774013551 1343.62162034 1619.33654826 1175.84153311 1153.66895386 1987.23084876 2077.61252453 1775.25047113 1134.31344757 864.960120291 607.727064145 762.915901102 1481.98442311 719.726024602 1356.35557454 988.773338887 986.700483682 1353.31925332 1159.57459463 1016.85616769 1440.20500368 728.001566905 1239.59205752 1015.88737401
inception_5a/pool_proj_param_0 774.767896954 867.359095331 558.46480227 409.602204736 656.636686964 663.719524134 928.692109116 747.935607948 718.204494857 436.468926853 533.913251199 850.22104184 355.915136871 826.496221294 1025.722689 708.423860416 796.57274443 801.898413398 896.079158537 625.0639967 762.738929343 799.26283334 658.127416475 854.414079604 548.647920416 688.102766532 928.911855874 858.282655186 500.28532214 604.308591249 729.755213023 735.171705136 645.228052088 492.314738055 541.480368092 618.05374052 905.829410224 654.746728754 867.219033095 879.418526445 393.152598823 617.57579465 825.901943288 771.137821876 630.168429728 584.053374099 1018.96264875 812.013136151 524.705220699 817.553395108 854.234669868 717.16683503 391.357653015 510.562762614 595.326207993 872.67042282 973.003507131 719.896913857 853.622418548 556.144371062 563.468357693 623.19939754 839.266142417 774.968745834 893.117700293 742.920577699 631.759754709 743.155209434 906.496984716 519.519674825 510.001525787 956.318985076 739.142926003 587.80338068 729.789393528 736.834209864 574.818181487 609.712572054 901.514171557 585.194966877 831.829060757 529.706543411 966.80398536 795.772239595 563.418741728 1099.44912615 380.800511855 657.557149389 671.636208607 648.573981523 608.419861263 640.215675742 773.687385052 671.024443567 745.814038847 730.755017324 566.742508379 765.247871395 688.199112356 811.845521585 790.449062525 579.095963184 763.524594765 846.997982985 958.609959917 974.504877026 774.541529652 834.225103064 811.100023535 889.138520349 945.891599916 794.319564939 812.685526989 1091.0915194 873.641446242 701.463385422 920.762338095 861.504286989 604.020059858 794.111595506 741.888263754 846.311086405 1039.01756254 765.118512126 915.216914817 900.867910699 782.304568603 786.766772746
inception_5b/1x1_param_0 921.894254847 1203.83085767 897.88687574 1287.09139004 561.482632222 966.960950566 1004.67463554 1207.84717466 1079.80663021 814.609179169 1274.06782132 1032.05086954 1045.23896401 1381.62663691 1239.6273054 1153.34040192 921.743105387 1340.27640924 914.081718196 551.927922943 853.409500045 937.760677657 1236.4348411 1514.79577263 716.571702902 918.739106715 970.496300982 861.531196346 983.202130672 1372.02895695 930.608645349 1085.97527562 1057.25733404 1249.90450684 356.912443144 791.484677312 1073.10972013 572.82628901 1464.58611931 1164.16674328 997.262150863 1057.18192652 1102.05260078 1019.12098366 993.156336818 844.000731225 1105.87575207 1325.36837387 1455.32961602 1184.38748982 1185.11188266 748.480852971 1030.79273283 1040.91341476 899.749771759 563.265665259 1156.29855444 1012.82410654 466.246148207 1086.64278945 967.521988275 983.650470207 1136.11265541 1016.74887072 1168.48429736 1166.41067213 1495.84798097 1181.82494503 765.210357513 1209.19591197 1016.98399527 1095.36646245 1130.11891857 563.225464365 944.27392769 916.173390031 768.120043675 905.007975446 1049.03798714 795.636366488 1178.39470518 1019.77067769 642.78121333 1024.99684792 634.559545246 1110.16835332 750.776269735 659.99418964 739.465885962 1167.61673879 933.209676015 1291.60846929 1096.91128512 1062.65321343 1272.0736991 857.645688584 722.01197397 796.906273098 1147.37388346 1144.52332818 986.481664064 1474.23750204 1315.51114403 1110.14181827 1066.98336652 770.282322242 973.542443972 888.911782854 919.152973779 1393.84035696 1023.84414282 652.054900733 1256.74522402 707.55578668 1266.95986786 1006.42133416 1423.26589306 412.700058204 1123.89137947 1134.63842203 874.560784397 1022.51397068 1119.22758559 491.157074472 1146.91932261 1070.98088587 1097.31632602 842.47065408 524.086083714 1029.45260073 836.376202898 989.69901503 1147.57611202 785.937428954 1137.92388505 1038.40492089 1043.89043715 1178.95985036 918.196502379 1156.53532872 939.206925082 1219.32343519 1292.15089502 1083.78349625 1059.8948239 1125.39419187 985.481424746 1334.53857037 972.285667317 608.559705298 968.676845161 704.145731652 1162.09588244 764.673611286 1060.83360075 986.286452929 1096.53116062 871.496098689 815.573760935 1058.72842141 692.242367594 902.731640242 748.183401822 1185.85861168 781.820672007 1188.98507286 1451.83309012 1106.49921935 775.11802334 948.858110359 982.123186555 670.717896722 714.017150166 710.994641862 1166.15300355 1422.40637561 1054.27385209 686.586464295 1353.25618594 846.837660693 439.705724319 1322.64668332 1180.69182752 862.427741538 839.939411171 938.450331476 1294.60817677 1223.41025052 1135.91989675 1104.66943689 529.007149905 578.031408982 803.41986225 579.288515301 650.035524867 1321.73339474 1064.58624814 957.43476021 985.806744615 1157.26399004 885.315003555 1304.31546685 900.35923494 1329.89813159 1229.20820643 1252.57174904 1151.26678786 569.225206606 1061.68476337 1208.9405168 775.840060255 1089.56561111 791.361947368 655.924441624 973.308301566 689.197884217 872.412621632 727.306761019 945.568482447 747.160917013 1347.94435911 1138.58934646 835.474333072 832.102343554 949.062246305 1123.68133707 983.731534948 854.965282865 440.401623076 979.095175787 746.557751623 991.891499771 994.663941662 1090.62462449 1016.62643791 862.846663353 1019.57256008 616.426465032 1121.78754281 1305.63762323 1246.94048243 997.480993344 1125.33349107 1101.38189592 974.918440908 1384.22985604 1240.98348066 995.720606978 957.724819121 933.495055705 1393.26854734 1011.80051202 1284.64036238 1578.14616862 971.856047878 1027.83443266 891.804214261 735.398230901 723.20446188 623.059030768 585.138598778 1265.87125828 996.836412794 787.614463385 894.603960186 553.16009162 1365.23535261 1081.24707496 815.743074824 1203.78919967 1313.42566819 664.601915977 584.211351877 589.093503762 766.910343441 1209.11339844 1138.80226071 874.745243379 1212.01756814 1224.15056254 755.222776489 1182.63875343 1097.06434073 939.791544394 853.224361851 1301.46976521 1170.3912999 1158.1451047 1167.8397685 814.565501992 1151.79904581 818.285510194 1005.5092045 669.789512043 1018.55165852 760.272426979 1041.115526 363.987196682 1085.29324088 648.023001143 1066.33731205 963.719807012 1047.7893845 829.920045214 1072.52438215 896.292412466 961.282165263 906.936758516 1046.99372301 974.731792083 1308.50240396 1075.05193138 779.836395525 1186.10574969 1025.48591291 958.484042427 1067.9328746 978.931210844 400.504662547 1294.60129407 736.26203344 1120.96027185 1062.47271965 1192.10038353 1027.4041185 401.246432963 1334.85690372 629.137132037 597.226363791 939.946598295 884.349895942 1182.41298869 1222.91618283 1240.48468939 1296.876466 628.228006834 1168.72352473 1375.18419108 958.287362559 1203.88535749 1017.19974306 644.177393892 740.882643546 787.739746835 990.234405348 906.397397928 582.640069626 981.662330279 543.96618418 1048.81058879 1434.92362499 875.169390071 855.759867445 889.956663247 656.007038192 1559.25890017 813.113357456 1136.48950349 1257.04559896 1076.96226341 796.238081456 1193.99640337 1040.32190071 776.633853345 1015.48019124 1296.8152937 860.117902848 1360.68918856 1058.83871083 860.829055832 988.221880582 710.485864393 1137.73780154 1247.51569113 1345.27575726 989.148705179 970.456739779 1290.06856636 1121.11310774 1056.71188849 1275.22896431 569.049695486 1000.45800714 1183.4028252
inception_5b/3x3_reduce_param_0 1094.63757617 889.860119857 677.378445557 901.092596109 792.159342257 670.101269523 802.657093979 694.770579015 665.391162678 1019.05274558 869.938052571 807.302808776 746.57305432 1004.80350555 947.971688179 748.882231358 585.055171426 760.550656717 1029.62602935 931.323332066 951.46892681 792.282098725 822.815413522 911.773125069 669.929872322 795.465049782 957.449172935 670.622636475 845.814460458 817.537396938 773.238358887 685.88104183 937.275358392 801.556849158 615.02890096 684.069258151 737.787282652 664.675826689 648.616578105 453.448499157 1103.52618695 692.47555673 928.665394352 727.626477779 658.144695796 747.781591018 974.027764073 642.29196041 1094.80954581 714.795815067 1033.7047932 930.619416483 560.696762898 1026.95764451 864.393416074 1105.18899345 647.138797444 840.70571877 678.379834411 973.656887858 660.422402191 955.059377602 833.291770032 714.879153595 834.23367693 682.078754777 795.536107185 650.933185837 473.864407846 677.194642814 425.265791715 817.285665065 786.232370687 912.953930501 694.47047666 706.012346812 988.27092512 544.291725383 802.102555657 875.792612426 557.035163866 603.762426281 787.123759571 841.147628721 699.015520955 619.976913371 788.564510115 584.067182737 829.439074201 807.232233424 834.009589496 876.119596728 897.280281644 677.590628944 811.340852947 643.907334075 707.667940102 708.2325367 938.293085025 628.526971091 778.57054959 612.844567848 908.929901974 608.240404246 677.315085585 715.218764072 845.748908755 888.461155273 923.747764339 820.16507259 674.364084769 781.767245438 867.781232389 421.243030319 773.482075323 870.672214783 622.375868819 785.104262928 778.157684101 675.460946574 770.314695578 1052.50105978 865.380364227 700.504247454 904.095662342 603.900051683 599.978904077 819.589239976 675.249559688 550.821921442 844.571299012 809.824371794 772.196386703 556.616800976 1008.61079017 925.416177383 958.802781271 923.123434406 538.855768129 742.749458679 568.826833104 815.748462173 631.961420424 699.148152876 764.081785228 860.11000389 672.254604738 512.781518358 669.663311734 930.568001804 855.235358398 637.490339127 857.478808632 925.50179642 902.902061356 681.823985495 515.164430333 843.418914741 728.095788371 675.429203341 545.935994342 372.704808957 790.521426277 852.811145148 490.527877494 775.491257142 1149.65745335 679.973484082 670.210084293 852.661580873 703.687373123 1087.59771614 975.07303221 864.117263607 795.393337 643.170968497 723.740658965 687.946470326 850.233170765 698.525054064 697.424715214 753.373386309 742.434942666 776.989706203 493.506274716 632.019531531 935.367220959 760.371185063 985.588093233 663.867900439 801.45403718 859.791649147
inception_5b/3x3_param_0 1862.0118393 2207.12896204 2042.61740734 2163.06781926 2011.33614591 2425.33938955 1336.23031858 1974.8218912 1925.15324752 1459.95294892 1708.51934277 1947.2147846 1739.4812305 1994.98253342 2053.01903682 1703.81768078 1894.14268967 2088.76916901 2260.73515794 2265.08305023 1536.88860125 3357.31814322 2111.70295316 1660.26560663 2342.74957452 1142.01213682 2172.66133717 1915.6336882 1930.33850196 2475.20715632 2045.33356964 1684.45444399 1865.92247057 1500.95424778 1533.42453968 1399.83861664 1992.74356411 2063.86294198 2430.64082562 2112.69164241 1655.30010391 1874.64390067 1684.59411392 1922.22026009 2171.36137384 1991.0053049 2313.45302696 2162.10108568 1911.97269298 1855.39099263 1969.73796796 1574.25507942 1899.34824659 1919.07816795 2122.348491 1520.81699467 1987.32885299 1704.36266732 1759.05014056 1927.13758886 2162.12110574 1682.55314409 2032.47912925 2076.39899494 1722.70262014 2179.84964357 1935.09801655 1590.43460415 2404.90582829 1944.35418038 1902.04963329 2162.32173813 2044.5014346 1429.50051379 2409.31954144 2090.98734329 2177.79776985 2222.06250438 2035.20093913 2352.37888675 2258.41141052 1785.4830593 1944.58087368 1846.65009739 2253.3195477 1867.63324701 1838.29286289 1995.65777574 2113.92543132 2001.53722705 1893.17518448 1878.02849646 2408.52854365 1903.85646108 1940.89469446 1684.75045851 3261.58998511 2035.07665373 1498.46203243 2360.90679678 2371.70930342 1940.8407722 2329.3155198 1677.64349711 2109.34339757 2439.71213728 1629.88386682 1847.22304076 1690.15170091 1953.99718507 1658.53160576 2073.54009787 2016.63568647 2467.7209186 1810.18990774 2016.16173151 2280.49291228 2129.3811584 2034.43809296 1983.05024586 1823.79950335 2077.384136 2085.12469395 1577.13514898 1740.85056434 1969.12587045 2182.42066282 1358.91721405 2430.23710423 1804.28891569 1865.59326893 1826.8555895 2009.56507647 1734.76938891 1245.09151427 1968.31639295 1754.74705081 1775.32627792 1639.25414585 2053.61463698 1875.41591009 1633.3796823 1796.27201716 1917.51345144 2239.32150245 2169.28679083 2027.28812925 1672.95647329 2284.8787698 2191.12703385 2248.12427689 2320.46681134 2092.17703057 2167.30834164 1531.17338697 1887.08306479 1595.1761038 1991.16880658 2134.71649694 1333.15017376 2063.23441133 2103.48302325 1884.55795687 1943.61967582 1897.90258392 2128.32098324 1409.73313486 2423.13558336 1972.86879066 1830.04492065 1758.86463884 2954.01725898 2359.08111261 2194.30874527 2018.93730566 1566.60418466 2200.12817641 1828.3422719 2327.38103943 2576.01040218 2064.96654428 2142.55004693 1821.04754104 1981.96238473 1461.69125716 1577.50369105 1908.51774982 2079.78484975 1660.76706442 2199.45904743 1755.79720097 2096.35168267 2046.24608995 2079.68220889 2074.62402829 1566.25928232 1872.81490363 2123.85143601 2225.61834356 1483.44066199 1816.58330163 1713.28077624 2253.41978661 1942.01912551 1853.57798714 1963.97886519 2060.322842 1893.54763793 1928.02323086 1714.35859048 1417.18827423 1529.92415079 1579.29909003 1754.12713061 2256.85219825 2149.68682309 1720.11793594 1642.65020963 2320.05622583 2163.93885243 2169.89445461 2041.11280594 2339.07359292 1907.81262851 1806.69049379 1410.97450832 1492.31236419 2167.344166 2248.32102291 2137.92781769 2205.00304491 1943.9226776 2082.72474939 1366.12896293 1885.51604652 1634.46412347 2091.8767542 2378.95433092 1878.5442688 1780.38237287 1681.50697673 1861.51953773 2377.7177176 1754.45572585 2053.30096393 1856.5088877 1834.01999732 1606.46855311 1770.82719725 2064.87198931 2343.02667697 2296.9887495 1712.98618569 1975.71389928 2011.90471596 1757.28274944 1966.59142749 2278.11575633 1942.46417159 1796.962249 1915.93987067 2090.55112597 1819.27265132 2085.3975214 1697.99340174 2309.3644987 2047.81977472 1853.87150752 2075.3133358 1678.67295816 1412.86948138 1806.34759412 2120.52222641 1712.54147879 1530.49203245 1944.79719102 1440.8284194 1367.38858784 1401.5184542 1460.50072362 2208.44665276 1924.11645353 2070.32262592 1776.89100637 2622.27942462 2085.45059011 1838.72872232 1722.8208444 1652.59467866 2170.5698978 1880.0366768 2580.87664782 1543.43766217 2095.28189389 1810.62273439 1989.33717002 2241.99219877 2147.23558311 1815.21657288 1252.98865929 1507.03891177 1935.47572175 1886.40141442 2554.59348125 1652.84129539 1488.97288959 2805.36266357 2175.40585575 2335.91879618 1713.90059073 2376.44031156 2359.08519377 2132.0277562 2061.08703416 2335.92423809 1811.23897038 1816.39921021 1447.75535203 1725.23955379 1369.00888396 1995.24197234 1769.81908312 2012.63352519 1350.84716602 2454.18646051 1956.3377994 1526.27746924 1387.7004095 2257.55999817 2369.09679722 1298.30044959 1852.41791951 1466.88995381 1857.87170221 1960.28580047 1788.2703241 1920.01350953 1745.94634368 2680.17664999 1964.25927508 1667.94670994 2109.5590257 1668.89224019 1985.94795489 2110.02188744 1703.58864859 2048.46159516 1983.47529245 1841.00298113 1704.54741831 2222.03484153 1722.99533753 2461.58872706 2329.32888867 2217.81081307 1986.13909154 1662.52779773 1670.46346911 2140.91108469 1548.09233235 1957.12981217 1607.75619632 1886.68976092 2192.78316403 1339.60502739 2174.57064791 1808.97655913 2107.48966724 2227.46617027 1555.0415271 2354.85719342 1961.61610459 2008.61479057 1961.60549473 1811.45531998 1742.10827579 1532.41915425 2136.79429249 1934.51537855 2051.40982623 1617.73638083 2327.91915894 2503.73363819 1917.47354657
inception_5b/5x5_reduce_param_0 817.248439784 519.434881811 693.040450711 1092.11739573 822.369141972 1094.80188125 962.831300215 775.935063022 738.057348653 771.479995376 687.571183023 913.628525603 1004.24207312 811.372212214 1074.61241236 911.728355663 667.598309876 777.344325521 972.154024832 910.795539265 599.576195712 713.252416178 623.394722329 895.664532252 581.69860339 670.73637137 1014.47392482 745.991404862 904.851168209 653.977549151 888.06039476 569.35225174 1002.22777435 532.053241121 940.876854663 677.832270502 972.504447904 1010.35468502 786.342269137 873.084151954 874.973972816 712.020215338 846.588250907 500.777341721 989.131141185 774.383045689 1037.16312233 677.402780659
