conv2/3x3_reduce_param_0 115.001241494
conv2/3x3_param_0 164.772547138
inception_3a/1x1_param_0 116.860034164
inception_3a/3x3_reduce_param_0 79.1881406724
inception_3a/3x3_param_0 231.357912988
inception_3a/5x5_reduce_param_0 166.105403449
inception_3a/pool_proj_param_0 141.278502738
inception_3b/1x1_param_0 182.756980439
inception_3b/3x3_reduce_param_0 188.983437856
inception_3b/3x3_param_0 210.638443224
inception_3b/5x5_reduce_param_0 191.872441547
inception_3b/pool_proj_param_0 228.95841076
inception_4a/1x1_param_0 230.266832058
inception_4a/3x3_reduce_param_0 213.669944661
inception_4a/3x3_param_0 195.305015429
inception_4a/5x5_reduce_param_0 249.757731161
inception_4a/pool_proj_param_0 188.650596899
inception_4b/1x1_param_0 193.974176486
inception_4b/3x3_reduce_param_0 162.319440983
inception_4b/3x3_param_0 221.563688996
inception_4b/5x5_reduce_param_0 263.254995677
inception_4b/pool_proj_param_0 346.335338297
inception_4c/1x1_param_0 165.722279791
inception_4c/3x3_reduce_param_0 167.280460819
inception_4c/3x3_param_0 314.666309474
inception_4c/5x5_reduce_param_0 307.302805062
inception_4c/pool_proj_param_0 292.606042179
inception_4d/1x1_param_0 168.708545564
inception_4d/3x3_reduce_param_0 241.418758023
inception_4d/3x3_param_0 403.851433463
inception_4d/5x5_reduce_param_0 283.655791452
inception_4d/pool_proj_param_0 315.300139389
inception_4e/1x1_param_0 170.752777459
inception_4e/3x3_reduce_param_0 331.358737323
inception_4e/3x3_param_0 321.119723175
inception_4e/5x5_reduce_param_0 288.571297664
inception_4e/pool_proj_param_0 239.612791756
inception_5a/1x1_param_0 199.742036849
inception_5a/3x3_reduce_param_0 332.047338615
inception_5a/3x3_param_0 815.585545841
inception_5a/5x5_reduce_param_0 267.603533506
inception_5a/pool_proj_param_0 355.915136871
inception_5b/1x1_param_0 356.912443144
inception_5b/3x3_reduce_param_0 372.704808957
inception_5b/3x3_param_0 1142.01213682
inception_5b/5x5_reduce_param_0 500.777341721
inception_5b/pool_proj_param_0 379.110336575
conv2/3x3_reduce 0.915692808466
conv2/3x3 0.374387932296
inception_3a/1x1 0.915694621405
inception_3a/3x3_reduce 0.915694621405
inception_3a/3x3 0.351444458242
inception_3a/5x5_reduce 0.915694621405
inception_3a/pool_proj 0.915694621405
inception_3b/1x1 0.187413273886
inception_3b/3x3_reduce 0.187413273886
inception_3b/3x3 0.26855407598
inception_3b/5x5_reduce 0.187413273886
inception_3b/pool_proj 0.178968517419
inception_4a/1x1 0.23007774904
inception_4a/3x3_reduce 0.23007774904
inception_4a/3x3 0.180299177675
inception_4a/5x5_reduce 0.23007774904
inception_4a/pool_proj 0.210159959915
inception_4b/1x1 0.222936949475
inception_4b/3x3_reduce 0.222936949475
inception_4b/3x3 0.317825212541
inception_4b/5x5_reduce 0.222936949475
inception_4b/pool_proj 0.17117225639
inception_4c/1x1 0.336304619769
inception_4c/3x3_reduce 0.336304619769
inception_4c/3x3 0.329287581247
inception_4c/5x5_reduce 0.336304619769
inception_4c/pool_proj 0.248558637563
inception_4d/1x1 0.316643235071
inception_4d/3x3_reduce 0.316643235071
inception_4d/3x3 0.363013449959
inception_4d/5x5_reduce 0.316643235071
inception_4d/pool_proj 0.264712104589
inception_4e/1x1 0.403461089168
inception_4e/3x3_reduce 0.403461089168
inception_4e/3x3 0.819119193444
inception_4e/5x5_reduce 0.403461089168
inception_4e/pool_proj 0.3234631927
inception_5a/1x1 0.636233639466
inception_5a/3x3_reduce 0.636233639466
inception_5a/3x3 0.846125123846
inception_5a/5x5_reduce 0.636233639466
inception_5a/pool_proj 0.515883878636
inception_5b/1x1 0.791271305431
inception_5b/3x3_reduce 0.791271305431
inception_5b/3x3 1.35745862003
inception_5b/5x5_reduce 0.791271305431
inception_5b/pool_proj 0.70616444446
