conv1_param_0 156.639840536
conv2_1/dw_param_0 63.6101305164
conv2_1/sep_param_0 100.345310403
conv2_2/dw_param_0 255.897909209
conv2_2/sep_param_0 172.178812333
conv3_1/dw_param_0 98.04308453
conv3_1/sep_param_0 128.391132187
conv3_2/dw_param_0 430.423700928
conv3_2/sep_param_0 120.463218716
conv4_1/dw_param_0 154.132992202
conv4_1/sep_param_0 206.227559089
conv4_2/dw_param_0 478.306385215
conv4_2/sep_param_0 197.963457842
conv5_1/dw_param_0 197.52550451
conv5_1/sep_param_0 199.589322533
conv5_2/dw_param_0 194.821766281
conv5_2/sep_param_0 233.45947638
conv5_3/dw_param_0 229.165904235
conv5_3/sep_param_0 223.146231084
conv5_4/dw_param_0 224.154830587
conv5_4/sep_param_0 162.72600108
conv5_5/dw_param_0 228.974207031
conv5_5/sep_param_0 204.163206657
conv5_6/dw_param_0 567.534506444
conv5_6/sep_param_0 286.221061478
conv6/dw_param_0 680.700669437
conv6/sep_param_0 317.761344308
fc7_param_0 211.145021716
conv1 49.5103538356
conv2_1/dw 46.9956658261
conv2_1/sep 26.536637551
conv2_2/dw 24.7914253557
conv2_2/sep 29.5732802909
conv3_1/dw 55.4453623729
conv3_1/sep 44.3137166641
conv3_2/dw 39.5474696815
conv3_2/sep 45.5485031709
conv4_1/dw 80.2415639645
conv4_1/sep 47.4920450297
conv4_2/dw 82.9089304758
conv4_2/sep 65.4835419251
conv5_1/dw 98.6863612081
conv5_1/sep 67.0164959914
conv5_2/dw 101.085554035
conv5_2/sep 52.4615020378
conv5_3/dw 94.2292461562
conv5_3/sep 31.8757668598
conv5_4/dw 55.5841687883
conv5_4/sep 36.4540621459
conv5_5/dw 38.8150267493
conv5_5/sep 36.5687495715
conv5_6/dw 33.7919065607
conv5_6/sep 66.479603027
conv6/dw 71.4574951191
conv6/sep 96.1840077077
fc7 16.2881208442
