conv1_param_0 0.0 258.46886404 189.633531614 300.429631547 231.643242435 156.639840536 224.087525439 529.57794813 0.0 0.0 0.0 254.055135175 341.486973105 0.0 0.0 227.739674468 184.612769408 231.293092632 185.717905751 719.326991232 387.337399634 261.037033407 0.0 194.828553494 230.748842767 0.0 0.0 0.0 204.530021724 0.0 234.004395628 176.938096766
conv2_1/dw_param_0 0.0 72.1291432409 149.919382216 247.459610328 174.235629611 150.13176085 63.6101305164 119.918502265 0.0 0.0 0.0 135.378873665 91.7824651437 0.0 0.0 168.873320426 169.168022632 201.568614006 189.509074697 204.264122386 365.864018575 193.888303858 0.0 171.289626192 138.189660082 0.0 0.0 0.0 142.681533662 0.0 316.949893002 139.107203821
conv2_1/sep_param_0 158.457633516 194.803847463 0.0 141.78512382 152.504403769 222.733769607 213.130767389 181.558729176 227.23189389 223.636764694 230.327244008 239.932313325 261.21269063 259.255208648 202.315183639 282.339862785 265.052220927 164.867365777 187.577244934 344.4796613 0.0 0.0 0.0 100.345310403 0.0 211.477540591 427.790504352 0.0 0.0 361.413287067 212.98992002 224.482242915 190.519515025 0.0 189.635354396 118.685725248 164.590330828 206.227499208 182.217674163 183.675097001 161.27266829 189.950681973 145.77428145 142.932955811 452.353017718 198.354855178 0.0 119.774729076 451.456195988 0.0 254.436435446 245.446736825 150.312880957 0.0 173.225109118 141.771303025 277.828292411 148.348484137 137.695112908 252.785584088 216.909618076 166.960443024 156.339128755 241.320488316
conv2_2/dw_param_0 532.225148018 362.789836739 0.0 354.656744009 476.643207117 357.446052894 342.330413966 342.355908638 329.233026576 326.08016418 445.073837291 575.536253211 523.241806076 363.721168885 407.948692092 440.047082231 444.488991906 765.897664526 396.299719381 523.063806743 0.0 0.0 0.0 475.732604565 0.0 386.344972544 496.619603747 0.0 0.0 558.177980748 350.906105109 355.089923289 501.953064809 0.0 328.815968553 424.278407198 406.471325993 437.9321272 313.476557668 344.940862175 316.267070088 521.271130506 255.897909209 549.433257837 508.117661781 658.414828519 0.0 326.38095621 431.332458808 0.0 403.314530911 394.589660401 323.462216655 0.0 541.841966458 411.173303515 369.845542955 357.724416872 364.36237111 365.442055347 495.067332857 514.383243088 271.295931948 342.438551776
conv2_2/sep_param_0 239.118248313 394.231298377 210.542740729 382.48395572 561.52628429 444.558500411 246.719193716 327.317063849 353.354763413 579.310447282 268.068012853 355.620111344 172.178812333 250.953978169 306.022674076 536.978239997 447.937711471 356.265298883 404.529653726 414.502995639 311.538625365 518.398078135 303.966724824 478.959288246 288.353908661 440.982097924 214.121982132 363.788299308 178.37084314 302.914813338 0.0 364.657388671 444.693777384 187.542210029 516.072710397 244.119661467 396.560675582 397.001680642 245.434579505 444.50962425 508.840119798 423.410752796 258.54452769 354.383220379 284.465836066 423.995572009 488.619329953 315.489357134 263.299580003 473.488687317 771.193852763 399.213759427 307.934478239 292.877026247 191.461942078 279.007256236 340.054541028 410.930132252 215.371260542 233.214218111 207.645954921 345.159708497 0.0 219.036136176 318.345158799 441.154935871 360.062476659 192.790002493 281.626132162 405.677416505 240.219453061 341.509359102 369.062903496 442.237125723 288.642836421 281.28923098 0.0 218.228875484 403.812934749 385.137680295 339.728220158 505.942661034 383.035195016 196.923124243 452.694440992 425.263881959 0.0 226.553161681 223.153592823 266.239495867 478.009740987 237.917165504 330.935945753 246.676777293 261.177870026 553.802224559 389.354312268 594.978394715 264.20711037 377.404078509 414.446799611 258.224909618 482.621244036 242.256659622 270.083124685 483.347546979 430.443439444 0.0 255.620887068 337.475717447 178.98900641 629.918691895 507.253808023 311.786051059 262.668804386 282.966456418 0.0 207.776032019 350.336261782 287.889145651 573.692463857 440.029724582 294.945756556 532.102569097 479.037950271 178.397516056 256.885263466 215.14737475
conv3_1/dw_param_0 307.751722369 273.557398253 381.571041447 177.479181181 273.682259542 415.604750094 214.141306906 343.107683104 462.515794833 536.694267745 227.801738781 462.44828634 330.726879359 364.561740946 98.04308453 292.31883469 287.770341944 340.529211835 396.819462961 351.082542211 312.328248126 262.088909092 413.583766571 257.193065139 315.398408107 282.951632242 370.131892116 222.054779739 197.070234928 524.880751035 0.0 320.8735517 272.120333861 298.538979557 207.333981467 271.544058168 590.07178405 262.665663444 226.495194579 156.591893375 413.321740625 148.722307874 280.512107424 173.584592233 356.114146047 512.247382019 174.920499706 536.289827193 280.49602532 377.035870678 363.586920296 337.371438705 350.797030113 445.910365737 216.994180068 595.440211599 933.840156561 920.795364792 344.308628358 197.938060726 553.193554264 420.999410105 0.0 285.654531201 359.777213357 296.126583969 281.854369421 182.640631833 345.176539277 387.91897075 143.433156998 373.82867375 186.532676606 514.007192147 311.579353496 308.461051101 0.0 490.452452819 215.181596177 401.008292191 515.062500604 217.056716147 605.304654436 449.000815941 135.823949948 305.627108083 0.0 315.059312357 311.237640549 800.548186932 570.477899838 382.330116575 141.529757028 835.214955191 286.153119861 507.81566683 884.16466651 294.692206765 469.511883196 447.307473468 342.2395771 247.262439502 399.006117283 280.720603015 318.27877414 305.934289154 155.233803463 0.0 535.029937179 377.773039707 249.361989141 601.122946298 327.904985866 225.832075011 165.260204886 422.508767273 0.0 369.751293158 273.149701532 402.70410863 282.519446374 187.462167588 241.25283429 286.528941965 224.404908773 194.85102058 376.469088928 652.362647261
conv3_1/sep_param_0 302.596193082 257.428572395 360.018733692 253.74349203 512.499071133 275.094510695 216.546694042 363.718902657 595.161788645 290.894330738 194.103243082 249.625531435 396.434506313 448.528274489 369.688294214 299.108710394 400.605528272 427.088911276 369.355148456 380.535581095 280.405715458 290.821532794 393.931733928 444.130758354 385.053324312 0.0 208.505845573 462.053167506 336.802343051 323.973984543 298.774788964 425.025000738 311.404511954 151.113095403 381.885493127 302.69226992 520.044816906 128.391132187 0.0 231.988593865 430.223461716 303.584843886 176.655922031 309.25342049 466.308697965 0.0 247.983611041 245.961528902 471.983275623 285.135887375 282.47936937 0.0 306.667229711 243.050122335 637.134060218 0.0 348.075361919 420.600339586 411.518709782 232.785376398 466.142309818 326.927564827 367.566575332 333.348028951 579.738117897 341.591648753 394.821297345 0.0 224.874864539 486.162300643 380.295995651 521.809788698 239.477760005 406.040727437 364.863173213 399.027450916 281.554215276 534.281355444 163.751770373 257.585173429 326.764141781 346.11736051 494.651280142 546.472091011 525.413035491 271.993004566 0.0 254.20600467 504.275914561 321.055466018 388.771979454 594.078894565 272.06640714 233.191348865 284.736746859 0.0 154.017054516 0.0 309.594476632 294.552248893 264.552048568 130.68152303 434.831258655 242.985984129 341.766077249 292.653767341 497.372312994 512.434916369 348.378188423 402.273551797 546.730380779 511.393343926 0.0 556.597280605 147.567446056 295.380707457 199.866483926 389.450101845 0.0 395.400737447 258.651017925 407.874543399 384.766949979 377.130266635 233.713787416 450.057523206 317.716970608 295.711062006
conv3_2/dw_param_0 675.697910637 433.92794989 631.813706998 672.327946869 540.568948433 606.640059847 639.343762284 532.342230536 590.692014939 655.469523812 666.332182493 586.286982856 586.665570452 668.721995997 791.972592709 552.108193912 586.871312733 738.075564618 645.300256861 543.352846196 904.058260602 774.673813481 693.467039789 509.238827318 598.899425353 0.0 752.508654336 600.894212607 558.503082052 705.728635457 596.681181188 512.591788043 534.022277386 460.152640552 777.4509021 982.202867819 601.582167901 540.733469098 0.0 618.38419342 711.094004828 647.090253436 430.423700928 632.69571732 534.087968838 0.0 626.496355948 643.581218582 580.119585355 660.281393311 638.005111032 0.0 660.419894613 657.983779129 992.070228322 0.0 522.554530781 537.535322589 568.810243145 492.995977978 506.137539201 522.027987471 783.462591953 540.348578432 582.356255439 630.559222544 590.856554177 0.0 584.395500193 622.738078739 615.939947554 577.656127282 633.280168415 796.270739082 645.963605804 681.989190054 681.257453519 558.887927859 618.351262332 551.24569833 635.80553785 634.628342264 825.24546815 564.389850046 621.918263981 470.50163953 0.0 597.976165921 741.490281346 593.064966331 622.522339134 667.932946092 638.033959402 518.977136102 677.515811053 0.0 452.470019094 0.0 533.423834776 641.613424487 709.467596904 465.962028594 515.745395806 585.77490663 541.573475511 612.804689479 600.918234811 873.234167504 549.488518305 622.296479992 598.542801707 634.402067584 0.0 486.380093242 540.524791493 547.880356374 607.207408495 728.123779644 0.0 599.249985516 563.070223685 594.934744174 515.071496444 666.197803902 729.882640727 723.579796234 635.849984083 588.723082223
conv3_2/sep_param_0 299.381319629 352.458352284 342.50364344 858.017562186 464.181721138 215.503483576 353.779831788 556.467942763 427.736358053 764.504669512 630.48370237 0.0 501.995283751 379.105817211 307.824260573 587.689567238 473.994859417 354.86578396 625.588182946 174.869191723 523.706787269 316.628461985 215.833353289 406.513435584 570.452355144 380.51393639 383.439403818 0.0 477.572715925 593.564573214 300.691987734 461.4502106 0.0 429.58262989 409.229154959 288.391161562 309.171885163 0.0 334.494560182 456.0498081 578.395991443 403.142986857 597.01137462 339.508306711 367.988472827 311.719819634 492.30057624 795.646542363 631.282968174 0.0 333.000953114 248.761180997 474.786802718 316.944683301 514.173806487 672.130124151 288.54110957 0.0 354.147610313 0.0 285.584963482 0.0 242.85155349 349.000287134 447.820688993 461.80435892 278.874551724 678.532623732 187.304345655 543.20220314 421.742720695 0.0 361.085427619 470.55878925 353.599852367 658.775045094 538.026304425 324.465039671 499.391011059 274.486363066 0.0 201.122688434 770.10316937 731.190858958 0.0 487.065204294 450.531293561 444.978842737 628.940699044 822.077076969 519.112079582 545.567760415 408.211885603 273.789291334 432.624686476 470.747221855 268.829666129 284.360067597 752.728108129 236.330451686 373.077568453 597.455579885 279.066619734 426.358516064 412.641912552 323.065422029 357.101227677 456.497013989 415.460341128 380.150320478 283.045676529 0.0 120.463218716 328.287233437 488.08201824 717.236180614 379.990762331 475.978150241 381.235653182 183.961321185 690.199671082 537.401983642 375.374048443 528.048493972 285.207527036 356.131020453 0.0 454.90638163 720.336090016 366.750041418 308.410598396 462.595826707 540.942204891 424.461691487 557.941123602 665.992382385 351.195962618 346.944167755 459.92840922 203.472246897 415.633692581 544.572522467 0.0 215.455237128 260.42953228 668.759513854 577.293024094 455.359667121 166.994347666 296.339224009 140.724435876 280.97564228 404.756233649 391.745556449 279.855278993 593.896663909 436.37327979 324.23544715 578.449222685 551.69212529 227.088595086 328.439577135 322.137417266 502.594149314 323.069144882 355.74969836 222.696708422 562.08648342 0.0 295.472706992 349.559595449 298.734051436 829.058166385 524.209252522 432.61418969 457.516338601 327.824668566 296.025848243 516.435361427 0.0 0.0 619.918380327 378.067205692 637.929324848 721.553586503 320.970418071 162.118167634 498.079798422 411.531625618 0.0 421.484097861 614.130148102 259.649410621 356.605198383 264.792807679 596.661631821 0.0 357.969622991 418.152729397 729.421262444 268.974149803 311.599174726 537.956211123 318.325468769 369.563674743 426.277439414 328.820332569 866.558694004 957.726110577 281.304698528 284.290427139 139.652199891 598.716959639 587.425105076 711.553214591 499.879864969 464.441906192 215.188550432 378.734720566 216.583101304 653.968215559 265.716875265 514.318615764 422.754641244 738.98795927 444.033112221 407.787699938 391.463385001 332.819082049 421.419491705 237.090758407 375.688268016 565.471142236 399.679018219 594.531974762 390.57462378 348.50597052 296.293276477 607.451928174 495.108458912 455.171583809 346.575828625 0.0 850.169306954 288.921530386 764.912781556 674.367446384 422.921878187 530.6873596 271.55104885 319.758329644 244.154684079 331.374300583 391.252085894 498.637085059 303.800840023
conv4_1/dw_param_0 392.371915228 625.240951794 154.132992202 317.850531936 234.37363645 639.073857693 261.257386673 349.84068349 394.052306693 421.807217243 441.156214627 0.0 295.717136109 1103.35682471 410.681074159 402.860273213 546.21576047 442.751093679 393.413965443 170.541621651 452.353689966 529.446422287 418.113014781 269.824931168 549.823790742 488.8643413 570.348901529 0.0 447.781491194 722.662318338 437.850818407 769.373221798 0.0 298.040812039 1201.11544487 1111.97020386 168.398842369 0.0 360.769187997 656.4585565 364.919507036 703.980958507 496.559131305 676.764670621 354.527273493 322.42329146 329.181449931 529.22690855 416.095086628 0.0 397.317195296 551.343157616 1051.01779312 227.19920769 386.307007534 459.545710016 192.103990994 0.0 623.48241898 0.0 1189.18232562 0.0 283.691575849 207.605470705 404.65895417 232.677389574 399.138938502 395.484807003 272.088833473 438.374792548 354.316776068 0.0 226.222158896 387.626521419 371.688770077 428.327297596 387.694231048 1256.62227946 473.157215542 359.389320332 0.0 269.397242337 422.382253299 430.353630773 0.0 402.872498906 409.66678254 540.446300461 311.045540509 425.852898817 652.127743442 1084.95178505 472.39048819 869.292452872 301.668129248 312.946364457 219.45480287 244.036257491 269.670316725 211.766542478 807.435734977 332.254425627 290.493075571 416.918466241 433.997907113 402.493010797 381.927454616 467.528447408 351.119656182 546.795377262 472.007166814 0.0 940.513249336 331.020906283 997.882162026 289.057402893 340.954707423 251.280656189 1479.38165824 329.18836657 646.500348251 370.94497141 325.733334556 549.28864139 238.027465965 1168.61006779 0.0 339.6377302 314.078744243 213.943575778 612.483912572 305.98123248 284.268219938 474.518335835 1283.39157924 322.836411207 394.6561697 428.789490292 577.099216983 343.612587049 351.048270104 1303.96215357 0.0 316.759508424 1215.62306955 217.87077205 322.564892883 543.332755628 253.150883388 365.78751667 894.654858339 365.82472727 241.976365498 361.26024664 200.829540469 233.064424448 431.084707171 307.746721761 355.458119438 399.628943199 940.604695262 341.19501998 466.83726475 462.531809033 249.295439418 578.369693487 656.637546999 233.29810189 0.0 424.37592499 415.092034551 986.019789288 290.792717498 749.501880872 620.54776113 573.922788803 406.367097696 383.877038648 321.066036682 0.0 0.0 456.920992279 405.850506245 472.412482897 291.640006696 356.978369425 285.096571472 552.091885308 648.782526132 0.0 408.909590894 440.442999113 586.401706111 497.893343375 1603.80859697 239.778085472 0.0 316.942773907 499.157145004 419.665139861 210.852809014 305.863385262 494.578944607 320.073696495 453.65080746 411.732302734 437.700384545 535.406041072 371.305514228 457.116898814 554.698953847 660.467388301 428.234281451 1074.12999936 471.073345569 235.150031933 388.803158298 181.501907523 305.826288551 688.39850163 314.980880052 467.468236576 323.381974852 290.3502121 312.952937422 352.876239388 303.484827977 346.839517578 426.768679035 348.540289636 370.55712479 224.626627436 502.107014902 441.896212048 699.233504299 822.696037474 731.223919361 158.63233919 341.108388716 340.463970761 1013.70627513 292.046500318 0.0 222.440945798 418.341559037 488.295491788 366.642819612 605.042015394 461.741760859 423.606846637 373.912447858 488.070334876 388.751692835 281.097986238 246.026565985 394.218971539
conv4_1/sep_param_0 420.866191641 849.587257226 409.539024826 381.628654428 292.937666622 317.421312616 620.180512239 0.0 33983.1705871 682.376872852 0.0 465.769922988 637.453911394 354.501408426 547.951368852 624.380870302 505.407713855 405.048198917 491.097245812 543.500314864 531.922607704 360.122815588 600.530893976 322.175142419 522.538319525 590.25935985 343.692400827 428.85805932 827.927511973 492.011432587 618.17679507 544.464572251 531.626877504 357.074118003 491.536762776 448.977541287 415.569975799 703.497379433 433.940366424 575.882011978 329.893861573 375.141246582 444.762467981 228.620323059 469.483950845 583.826045737 515.198467781 713.507085698 777.595036136 505.065797262 385.087841765 225.36426379 385.181543303 265.660487869 794.74761403 0.0 521.87934831 569.010450231 560.502473022 443.468717879 401.850508177 785.483920521 0.0 556.141395267 361.782188661 898.135913937 561.047666394 364.832279794 559.846298784 608.717090394 407.843782923 442.944611718 724.558489167 497.782142064 769.617217817 347.693298785 277.370507925 427.17667723 1024.85837149 412.755381718 471.03325177 605.13124069 479.288591843 0.0 510.542271195 547.586392981 909.167937835 641.217690597 0.0 0.0 505.001395285 670.868838013 504.053370307 454.921678958 442.520519654 287.722136902 463.044245834 348.86591609 568.981466166 536.900403474 607.493970768 506.001595395 400.482643753 401.78886339 418.610401554 646.049834103 738.183280894 299.589225282 383.512423213 965.383965509 738.230724383 456.12761773 745.151018612 454.598323152 944.421673452 410.413739409 518.487453509 633.210769514 441.477188532 240.262034688 896.781498503 555.121198925 1250.88558184 794.074083791 657.680756175 346.705197088 668.837763935 490.454710706 449.550884472 599.606482383 315.286749155 496.799256121 510.547470354 392.641469592 552.416557695 346.646422286 495.336933526 0.0 0.0 371.609877953 710.09387278 642.270518148 268.596444672 407.735455559 387.237966253 475.575611596 1004.99556899 585.776839135 427.670250312 585.917060277 493.555887675 337.974060763 605.81128184 652.759062722 1068.32998396 351.107245415 524.448309033 0.0 835.372462197 424.982656184 573.809418935 442.711858448 531.004971163 728.713464657 580.036517118 323.66868652 856.198482178 345.155766641 616.339895081 466.967917886 0.0 550.870803322 513.724198544 0.0 532.91978596 347.549529084 0.0 500.037826467 387.572828984 343.9522462 690.507169617 579.66927284 230.515627943 446.9093423 549.964111124 883.728917481 571.913828546 670.765827344 706.791986774 599.982536441 301614.539689 238.869237453 288.907603473 443.391199314 363.227024132 0.0 459.871033187 357.577634406 671.196718527 589.24460574 415.748164339 529.565180878 234.197815494 598.327451941 482.349688546 0.0 685.054473353 445.605094108 472.46480711 771.889298867 695.701518926 652.963304137 785.168417878 281.042630056 444.423166669 362.102884357 780.482263102 0.0 457.809970653 429.418133233 603.087187967 494.628716074 409.609764012 917.914763469 246.344834093 589.791868207 514.603228028 450.68791347 206.227559089 0.0 341.311954532 337.017671033 490.03791866 789.819975931 754.919609382 457.651458882 0.0 560.050659106 358.922496592 662.747106614 365.426417916 278.510428195 285.125260902 530.777915874 317.970799961 677.011423799 635.8024074 604.269987367 782.968702476 489.939773944 644.502700607 415.752788328 392.012555697 331.589785441 452.200516908 176766.05459
conv4_2/dw_param_0 845.875404958 749.590278751 942.712453439 682.982265257 765.405937293 698.379496017 1047.63090236 0.0 55687.6764578 720.083093695 0.0 703.033369155 881.397147805 959.723633579 868.062030783 766.695233807 769.52187977 814.584342553 886.019999324 684.749390337 695.680962007 602.001990892 767.092984677 834.026973393 848.895226179 868.214482191 721.759205095 735.487775923 507.810825726 825.998075055 900.044419996 786.220620988 795.629756022 653.604864275 798.704590307 842.350752023 1039.8945184 912.006406754 890.727903346 723.348151792 537.932782842 939.996981095 652.478614142 905.267326245 608.71713387 858.333999161 822.500646877 930.54371898 901.342653426 691.277368326 992.056371092 803.747022831 861.733984974 634.897909413 797.599173467 0.0 1043.59210302 811.517454219 644.344828832 815.688892977 874.235321101 906.491971112 0.0 838.851305128 657.443072543 919.336296167 861.976271755 1208.02111352 867.263685707 704.33654141 609.788215214 751.35083512 873.922645344 766.563385331 903.887690374 699.733067107 564.676208783 666.557049276 896.361979887 751.415819429 653.461540667 719.745474285 738.514489538 0.0 772.882498782 951.481460915 607.621346417 1063.92841636 0.0 0.0 734.174142983 943.417453547 910.295913422 834.980605678 653.692392746 576.04786371 816.527722033 701.05319937 861.832713464 773.151589978 895.321670347 887.398622344 913.157779598 773.857248157 754.664527625 898.374957731 920.214858097 594.215123102 871.583082904 690.563229961 929.558945964 875.511647841 868.395300238 819.741381166 607.516098508 820.481292249 890.598991324 832.428162217 777.580705459 851.003004682 655.247540561 750.576327943 739.761517119 815.896993651 943.398030014 907.299103658 729.487940692 752.003307718 837.787920214 872.774354594 642.009453694 723.405250775 974.422651977 767.28752489 797.388588138 961.181560004 729.431875207 0.0 0.0 1095.86476215 764.656254102 727.757202322 792.775127616 1042.42329146 868.88195432 735.395438919 625.073165272 1041.01118637 721.604720507 639.349133924 959.781995414 759.09946927 719.983757416 660.156040129 733.435383133 836.481766818 844.823876244 0.0 793.839845241 744.153952474 688.701503086 732.201837544 690.746244725 863.003929518 771.980609422 877.879701344 903.732516851 879.39865443 846.821505593 706.427187236 0.0 768.376614836 767.227847114 0.0 834.942569021 816.437457725 0.0 731.639468031 749.801436942 750.061888456 731.381106949 725.486410833 616.866555494 852.171875673 817.072703893 478.306385215 882.093815385 925.797464656 820.540220531 755.094777097 506363.977523 565.14758644 695.889313206 947.15880754 811.961614571 0.0 755.82072591 846.344534909 881.804962026 1050.28769241 682.463807018 830.080250328 625.581295155 733.093075049 765.907300406 0.0 725.874627655 716.384744887 660.292493786 595.095755469 788.804405919 731.424478771 871.727322455 848.626689024 597.552720084 619.707924076 729.692484194 0.0 836.161463402 593.179756838 875.844632693 931.439669059 746.38828678 651.205888495 631.907817719 1171.27988933 800.026520534 744.194498681 1012.57622432 0.0 625.604530576 980.283931365 783.888028737 744.953996249 629.207638263 772.178966169 0.0 764.300228434 610.014908059 961.547764562 772.589011861 676.371688723 618.892602401 1001.59234793 648.698825575 780.88343315 706.770710617 940.324704743 593.441369398 702.2410482 679.946685601 745.579812614 1094.84857342 850.561546567 773.262351787 272096.760958
conv4_2/sep_param_0 733.393539551 741.188819517 605.263000283 624.261414941 570.075674394 474.544703827 973.821761037 982.87410674 810.640767228 251.49951806 594.881383755 509.823300592 459.274348289 403.791736801 347.507413195 1046.86473422 373.613080609 602.611520445 714.433907728 364.664004133 622.223425632 0.0 826.407906528 542.802970593 434.859923463 606.152048346 433.95225338 1010.62089392 480.912942313 1052.95246322 739.548916091 310.221387798 330.29950201 428.768436363 727.716252653 491.819331786 639.046640187 599.940766904 496.67841213 280.597589544 441.768768222 765.88135291 579.277884597 0.0 0.0 545.174041432 750.478247309 573.873671817 360.891888587 559.777059811 475.320195348 638.212695937 0.0 809.279484208 629.449978715 532.301501785 350.635650801 481.492781754 558.596973906 476.031267343 955.742029825 721.176018017 330.244161247 925.31249103 553.618652166 760.193018586 711.589216519 621.152253922 748.073404152 515.993599684 660.731594221 531.207785273 399.942493447 819.707794885 296.402316903 813.590720275 435.251136206 661.201285874 700.605998191 667.544242883 421.913042652 589.617682777 1031.27842334 497.68389355 197.963457842 810.47418112 829.239419052 462.91205762 0.0 865.792573272 606.871850083 616.711533089 254.809023802 854.721177792 1105.36300439 457.19316004 674.945181103 412.2560093 449.501615665 560.807113414 994.454223658 437.158959952 0.0 1114.8380918 832.413609122 671.48317602 721.241136245 784.301224945 837.51854464 498.98215208 347.068299291 0.0 630.487386998 0.0 611.207049098 839.466355996 502.029643622 0.0 769.947052794 615.047586374 0.0 304.409920502 434.411216163 567.678190554 688.248629269 389.710166764 864.480128063 605.199176094 452.856611178 654.159507044 312.493633147 470.635235711 482.258746756 757.25737397 497.102348368 949.689573191 952.589696263 394.113896482 625.590111554 919.19381592 402.194504919 0.0 526.213911842 379.516507012 773.706067748 740.347315207 244.514049675 0.0 536.292729319 554.776800651 285.335419028 634.026637846 315.738912996 829.365140554 557.426410295 615.783121417 629.812420099 1063.52720626 554.940256136 653.117520031 476.544811616 263.569310714 547.485931354 529.180313668 468.930748247 281.837499287 373.695086811 877.79398723 531.107583422 871.152342342 771.205715889 351.826460764 579.898267584 607.616321409 327.465161421 649.221480309 0.0 399.663761999 471.401590154 888.837249039 559.857331535 653.667776127 689.665569529 485.393570827 460.909486515 510.566708165 572.115305038 0.0 895.59855516 828.06031799 781.038362203 307.291149084 498.9874106 587.151860362 804.872826738 501.667947772 563.513250535 511.30348327 768.786306502 400.850920386 469.288207328 832.334185835 868.202896127 649.80531578 649.780842425 606.913509888 391.343025443 687.303759232 594.178502178 930.863256308 1008.44848489 734.394358964 478.877530818 1094.76363039 472.574835749 706.069900278 811.592335966 830.368241502 637.919775251 436.625762523 0.0 597.749652586 0.0 528.475590383 814.544560407 584.419143036 500.29789131 1013.77066381 610.020147467 351.719541695 938.901493416 587.90823505 0.0 0.0 334.632827606 701.473719836 1070.66982778 527.189357572 545.113927367 640.388130479 554.087663493 440.557654529 635.895527757 880.785769154 616.203937525 423.347909886 754.758024217 363.62740787 782.811496827 757.207049855 0.0 448.187636226 712.370094321 549.276357458 445.574203241 0.0 0.0 406.292748039 750.471969435 626.976821761 369.21789309 327.711070662 503.885712151 639.957672276 1194.66477677 698.640776782 384.307078231 338.164294469 458.971123701 747.349081855 601.249233379 510.070872634 305.551022615 554.992148553 0.0 538.356946734 499.197549917 389.115541783 1074.41753957 550.699914812 621.415204036 761.356914232 717.882118364 708.369455096 935.629167549 544.913735764 672.44873375 803.155782425 397.635029922 483.414331024 685.612504129 504.467599591 653.667324924 520.071822271 708.698900002 1104.31403638 639.115407196 860.509821149 551.834330029 661.80924067 826.275149337 823.826135203 981.876641376 626.389302113 862.556570365 313.942828601 514.39187371 549.03701898 537.291708713 483.47076641 702.648686693 410.104834043 764.752791992 330.492315577 0.0 699.265975432 659.872521759 688.550775619 685.370079506 396.88772416 425.095636154 564.943422175 0.0 443.388569695 524.676084722 487.586609636 893.544585306 523.591928078 405.596987775 54311.1725446 443.240116032 0.0 867.676189615 655.884412996 781.643137532 703.221139476 470.352284564 667.132648455 725.792661586 0.0 814.534362479 469.84178792 716.15629954 552.227962913 703.019393355 448.606938701 0.0 329.502566136 777.094059937 680.495336001 399.030402684 501.075174689 820.146604372 414.800152471 602.244165221 704.331477418 957.184972731 599.455585573 574.367116982 506.231696941 0.0 382.115161992 984.43806738 665.059223553 780.177692284 473.256056474 844.812822306 874.111138381 378.94039501 421.96660202 641.47849765 602.657924141 507.523127402 403.36457937 0.0 269.111701922 351.208379658 624.869823677 903.787621791 661.10501724 641.25691393 746.913210731 620.279359799 461.739909696 492.532955711 352.904030501 551.991765874 943.087779665 532.510231834 430.886989525 417.27253423 0.0 637.233717179 931.721522497 367.921085853 736.450029854 612.947967327 600.946072466 899.607505137 472.02698213 776.322802405 628.210688321 732.904645548 332.323632986 0.0 844.8787315 642.11857565 670.897249391 447.743617487 300.992448795 658.483045009 524.904898874 0.0 573.495972392 698.247441571 676.078525394 997.06509975 510.640950958 737.522392262 485.108118655 1455.25780096 0.0 453.287062041 237.81880532 460.340537327 495.876324298 500.847852204 677.13223178 639.773586832 681.798459038 784.956608962 587.632596012 544.845772379 435.109857811 553.080472551 640.008900684 662.512906012 379.106930179 1001.85136797 724.389812812 0.0 668.476476057 741.007995625 525.105246724 335.394000106 382.902655017 935.439290417 781.275060737 728.045409504 456.707681066 601.968698118 410.396664601 619.564936865 1012.14200109 400.439591773 465.125247371 596.428474916 577.354422183 574.458558738 897.563294671 812.262171911 559.731878023 525.517353711 760.554050192 760.1502358 750.178678558 705.568844993 0.0 530.846944472 398.363555052 600.498736834 283.365601299 0.0 971.145875064 870.568427332 397.586764041 524.323576335 456.889786259 587.115053275 745.459168504 0.0 727.176570494 696.844848651 847.027697666 896.361414254 495.933225296 532.210690803 291.176138142 801.674994895 413.882902591 478.987821108 341.264695563 748.105053898 1065.2037546 867.230328183 1039.17547647 329.346995002 867.96027893 879.775922282 256.774234102 387.583333621 449.650355961 382.606140606 610.231632712 615.293132061 285.010270946 434.801444164 506.354467257 741.242452118 581.613931341 275.435971348 373.052126379
conv5_1/dw_param_0 431.074764652 536.091578366 483.946300679 358.505616745 523.606049503 430.484617904 563.602349548 511.694326303 760.22983869 523.432238521 261.384431891 477.288901493 858.50423887 513.151791694 1334.30174779 706.211133191 348.518369089 652.484158811 484.482857437 277.555808747 521.487889767 0.0 428.842220473 311.180094699 296.761825572 458.126338809 282.797019856 443.085542161 407.286721474 639.447134242 237.637673404 413.429888366 406.888657843 467.408553921 455.503692098 463.296911062 413.731854528 711.164257854 390.124236626 434.431233528 421.736376469 1498.62789625 330.181854697 0.0 0.0 686.654890089 1740.77518429 351.386685557 244.192067535 821.310699913 1389.798337 650.500305336 0.0 398.885369336 311.274811206 1722.1166137 424.640437239 281.227470589 340.846741246 416.767069731 566.272117023 467.473108256 295.962524954 635.212394162 240.095207542 484.147315129 258.423205017 607.241326542 607.216233745 348.326019877 314.524870558 434.586696592 488.459820708 997.903893907 1643.1273013 616.150034553 226.745988539 590.021824816 304.583002156 237.225250301 391.116742957 886.52642918 348.421056918 396.486587519 1367.94373901 383.102997614 324.911328159 324.191269381 0.0 491.608778237 459.5748513 290.913692747 359.135658632 335.84917585 482.38539776 390.92840988 405.454009215 346.563088743 404.808640198 437.051669456 558.680020373 333.282278069 0.0 581.83914273 785.440921986 453.283879794 1552.64998905 285.81663631 1634.52446467 230.652623821 333.325657183 0.0 547.151887347 0.0 467.030610282 305.906617574 452.236076835 0.0 648.616084486 361.58688971 0.0 518.131428247 448.895389698 486.104015268 348.825564988 376.156351483 406.557493261 299.544791139 512.16540775 338.834428985 268.425970207 880.762012473 341.401287585 431.188956804 519.129944543 336.129105243 462.767079457 329.124424165 488.393650466 450.004484191 546.568149938 0.0 377.851957387 679.159514986 722.677392437 322.463108868 424.169660982 0.0 218.650314993 470.074962467 216.616591823 1200.99239652 754.727947732 664.336729499 370.201924586 443.609612644 363.476176236 369.481004829 268.058856524 418.066007022 577.093355545 1133.73787545 269.783592226 513.851466819 317.41086237 585.50701582 527.183226979 904.997404623 662.121687605 576.689281676 268.050442696 349.746965966 698.882996656 364.621694284 523.801286268 439.310950061 0.0 247.484501572 332.58881013 638.518944989 1812.75893769 927.282982241 630.379757614 532.570326934 335.682504893 349.233531989 567.02465826 0.0 378.64032725 250.350278073 1055.90314681 383.300378091 231.63661937 378.864592457 368.226605834 422.369861433 751.702520455 290.006949284 387.729223626 1327.03900419 356.397085404 462.099163097 490.774863613 694.194041424 779.592367028 458.219787413 531.578532869 402.955851438 494.414890273 834.942732612 473.343792022 513.879784763 415.068099638 451.191721492 460.62222228 571.693357616 264.255114866 423.572488685 476.13120641 486.621752134 0.0 317.794354249 0.0 470.610443757 369.15264538 304.230106753 301.24409775 415.795950514 533.025339829 374.090058921 370.454203092 565.196045603 0.0 0.0 616.582280873 586.447503068 457.930698082 299.613258905 402.351642037 446.349258075 384.635292036 311.662665201 330.437627624 726.442655117 372.157659391 197.52550451 392.539258551 312.190275054 362.010109476 446.368240012 0.0 274.700035738 233.140445166 562.855216123 352.771017664 0.0 0.0 289.377313971 493.188713843 308.527111048 931.999571772 305.259216614 503.097493941 265.489087375 421.310123217 1957.13093572 331.625292411 272.877978242 252.536849504 378.921323601 1142.92250953 414.608696735 385.205707037 457.151666854 0.0 489.0091878 339.773429039 697.811067577 460.104249673 460.925688801 1398.87018415 259.14569893 501.315559864 571.869697734 431.451417871 407.318410222 390.773939325 327.489270136 226.396716147 309.436998602 556.299011056 720.377065727 640.115805123 306.451723752 510.484628786 473.150596094 453.39094355 604.672935916 296.499843206 1527.6090517 556.618509528 615.241964244 504.220662785 418.693277298 417.964316112 276.95857482 1271.95618459 367.14656146 379.860929994 387.374511045 605.893583916 489.67882824 364.339879331 328.574935161 0.0 718.130363169 567.851305332 292.871893503 343.22645782 494.230308727 319.18364494 326.857577997 0.0 401.181498635 544.459076736 466.504312475 554.449745548 957.204215603 333.742400108 79703.6370397 409.518559503 0.0 750.402391194 435.410122933 325.649349139 475.305775036 327.010178309 416.806814429 504.109479936 0.0 779.778959115 610.753022207 445.303916236 421.862796108 329.792428433 333.334417797 0.0 669.897541073 549.597406863 404.057943938 432.163353076 365.796151366 384.801833072 278.68958244 330.55371373 621.882868086 410.105110313 409.388691745 475.448956613 493.744427839 0.0 340.503063432 517.507713014 524.309512946 353.138017512 384.752150896 476.980063359 534.984497686 360.065549408 220.150257186 550.753152598 645.091649696 1293.03934148 418.0217982 0.0 1148.92548103 306.418450111 1644.81176585 662.555602052 394.624227821 559.2575239 1925.93674469 782.314047272 385.457726638 487.437084729 349.358935094 394.538587709 371.219411579 422.156425255 324.826503275 347.414205035 0.0 231.414198777 706.106402461 410.558458014 256.794225612 405.820050292 406.276556672 562.248451872 404.923843874 473.557668646 418.397049885 381.206221799 254.682474057 0.0 379.785638774 460.931272622 393.471904387 441.033944215 662.961463284 453.961016186 356.436255783 0.0 362.910701618 421.662221617 535.202933095 573.300001117 556.88968419 481.061423255 277.440140586 692.111555755 0.0 302.370877687 342.322686557 357.727299697 297.839170828 637.575989308 491.104490134 303.543584201 555.689154575 1303.89691982 331.3925197 414.421810577 519.488420407 248.429690774 394.289514812 566.629395523 293.678385029 313.053013892 359.151397946 0.0 725.050987959 427.636388742 341.634451759 305.211991771 419.800369735 729.580174052 624.695780055 503.440734723 255.935009736 628.023024297 446.350193108 911.687784139 638.716477229 544.095297977 303.990988871 985.235924265 681.618573546 418.802114387 462.882039082 355.734730913 439.783865676 534.034189664 626.550057801 432.028276507 622.637536307 471.986673566 0.0 442.885226724 563.826693741 350.583669287 390.67928833 0.0 481.977786381 444.943021174 431.073848916 580.414464309 343.518271693 389.521156052 1432.95172537 0.0 363.207767955 395.406791022 582.004986238 674.408055207 258.547100248 311.481104774 332.003619042 432.3099166 276.705130906 424.780248007 338.057524819 585.255485277 823.693808108 416.612321086 497.998832779 587.680814184 716.168335183 420.306839044 286.628040134 315.565168594 536.658243212 324.309523106 363.692144669 489.484158721 444.390168677 417.590862927 314.183387318 368.910407261 334.998694174 368.776162874 315.368391263
conv5_1/sep_param_0 511.79354416 763.665868966 511.067063528 1069.07298865 0.0 604.236571785 558.197100328 879.94532602 709.963916135 878.231050899 501.513027307 423.906620261 1067.00961505 399.916182836 485.800502967 504.807570266 766.878048601 344.821009759 538.564838359 1051.07793533 488.956108594 944.980532648 316.644295709 484.444799334 831.20171795 697.524602751 395.3607885 450.486286078 654.001386146 668.497658877 508.111572923 718.238630837 724.796641868 927.378129707 892.541645517 922.334026586 712.64630038 0.0 686.381766209 823.098702881 563.343068138 328.716236685 448.38249287 371.213946605 735.873684436 658.581503117 1022.44650407 380.435940741 836.939052838 511.375731326 348.57718167 1023.36751688 451.519050065 745.413268785 520.156918616 691.778088506 945.991444724 634.656271683 685.114002552 493.391711475 469.873803969 717.288032592 0.0 447.88738337 579.839798751 680.669084158 574.080089279 656.738591505 609.344570345 687.943804908 589.527509114 438.165106538 316.463654763 544.904956352 572.471268414 602.235143467 579.763436172 492.969515664 856.62575102 986.081621414 931.485479 847.171249782 424.273295933 573.017390422 388.199342594 388.150688434 583.93668717 1036.35068305 641.75333699 784.380696827 286.49076256 438.22845996 664.306023196 839.082215297 273.474975325 633.128686724 906.919097608 581.029759313 977.379416861 392.498475796 780.099426771 337.533936379 850.08671381 596.805357927 653.207621417 695.099625072 638.997050867 567.719748139 540.202712186 1112.21319069 727.660210653 253.029400343 1013.18098115 486.424896698 477.603492567 374.27490617 663.27081832 893.187992617 1116.40158558 737.165420172 641.509157857 663.591983882 564.338016448 748.15844429 0.0 629.198812508 666.043647812 976.655108218 410.14505505 847.530048056 1011.7686819 398.17431861 938.312092308 496.91963742 0.0 415.28272293 501.205949106 412.59436918 566.58321385 941.062503485 591.627397206 588.045826976 750.678599673 0.0 609.712135873 327.500897946 650.586706249 675.060333553 806.424516866 393.938398108 472.303629115 616.183132533 704.8214501 544.650267563 750.401003725 551.600004608 590.240351644 700.740617156 478.998535268 269.796077984 1014.41524223 842.19792639 1069.56362004 686.801191124 679.103126345 874.131847993 880.169057051 870.501916767 421.786258919 0.0 611.770416954 683.727531855 0.0 947.115863543 542.527759236 517.051819079 427.210423205 908.707492347 487.826900389 553.202674614 1082.01715939 622.207935587 733.809094494 779.140593735 374.614092037 823.575132064 810.605301237 392.291547208 291210.437449 1154.0249597 729.373134318 979.855552335 642.073829227 720.636727486 722.531151199 327.478020638 484.582244266 944.708193369 710.755039267 696.412387847 477.161706427 948.447040953 762.548394182 349.107789879 463.722114921 715.222485316 729.830076876 1049.10087312 709.955459068 0.0 419.495182278 0.0 447.180878421 824.7991915 615.988471247 908.495843997 340.277662668 752.200691213 480.194689771 934.358901137 788.10249999 773.787059942 668.750645617 823.592322451 761.340659433 552.07203732 572.518184222 857.837931243 0.0 952.270499067 847.530722299 595.945080192 659.995671802 0.0 874.802436975 663.626344644 462.428012544 797.87238368 513.128682216 632.501139943 358.200290971 751.70139337 905.652011905 732.655467288 957.179275269 877.594323806 920.403275981 0.0 354.341258855 889.437582601 887.142574107 0.0 553.242462964 472.079796244 663.535825906 511.301182712 656.973638962 364.031318524 538.034727717 805.207866351 544.306429263 454.969665827 491.377099825 721.084127948 687.953467145 420.077302507 1106.14759358 996.768445008 741.438031895 0.0 522.240480635 0.0 687.63808536 909.709727817 359.730654786 0.0 735.322854833 288.44904071 424.149818174 818.14804549 888.211343388 246.252190051 1202.84442294 530.118059451 767390.453522 866.373796043 562.238511559 668.16062336 744.193264036 456.789093864 0.0 906.540566845 850.375520657 646.110124343 483.438132097 714.015475259 931.226559391 0.0 301.13891448 0.0 989.451064358 330.491162176 809224.556042 724.019357868 513.050564114 954.462348641 477.833827716 781.317246223 692.120998185 1038.82487502 455.882904753 554.693358096 656.908772752 847.998990698 363.934351613 928.979187411 562.34776302 931.085455903 813.02842233 1080.7312791 650.059273682 537.133676103 753.019936573 476.853139546 779.961714747 506.095522243 652.932189579 1066.78851327 0.0 282.329462396 719.090780676 558.700932348 746.531136889 303.401769328 638.803031779 0.0 697.764792376 823.259863527 1121.85686943 654.942955323 595.078138017 783.436377562 765.168794229 635.94553843 859.725040531 744.01408898 599.052442304 665.803835165 462.823571935 1050.17917707 462.3498446 429.322826135 768.353270509 685.040982975 916.672293011 517.864423202 727.459040052 483.019980423 573.879699885 346.396485485 603.311658219 843.718826709 830.709787264 762.333133064 516.116900476 199.589322533 707.20997413 350.663696065 675.036433783 946.78381061 0.0 689.984769345 810.640458815 1025.87096884 429.628928113 376.442616879 276.439578991 622.04858282 225.519118104 730.25380313 739.114786188 697.74097161 1101.22962535 922.929803597 457.831907416 1001.82899277 263.197469893 611.897220129 940.993720729 445.626296201 512.259389465 0.0 1010.84659843 341.706279746 663.956440825 638.130362449 774.385015784 937.991963678 467.483467323 799.47838461 653.3016537 938.983418996 659.870631432 1241.82935243 440.985201056 994.97804571 959.789453271 917.976555199 756.001609785 390.96108337 621.41842096 404.120746901 636.928223455 519.719735143 830.386040266 846.900940772 373.711013883 340.827276977 550.155956749 370.367496896 0.0 745.876110622 462.242870613 861.989348656 411.672719341 917.830344697 776.252802555 901.242003918 1103.52261488 911.85438448 372.620141433 557.776662391 949.365019433 483.014067598 496.273403033 0.0 399.373366392 912.741765906 0.0 0.0 485.813240976 939.6170663 543.517506271 426.565292301 447.213212721 890.911050492 773.170597507 808.006943522 678.232726994 446.739225911 793.575743852 437.134340803 588.288595175 600.741312034 351.436934645 881.206593045 329.088052913 501.685429563 738.535159949 327.815917771 592.216664983 0.0 763.185681509 1123.39318445 797.933487705 812.556057122 705.268564694 565.628197809 668.793362245 473.157635831 658.532194059 984.994985703 1068.31880223 523.35143402 822.291941123 506.93320895 962.493138355 388.53487891 1098.00514397 977.333800891 181340.108701 826.04186605 0.0 1304.26117526 505.309368424 726.763471642 550.222622831 214264.519242 1210.16341203 961.960824831 1014.85746075 1120.21880241 759.741973763 890.797726878 633.458087265 568.088360443 716.320319985 473.499209485 645.435330003 411.844476073 630.696595286 518.929137295 803.746492249 405.036187299 793.439216267 430.993061492 890.705282869 736.91238103 847.102877545 363.494809761 574.659701385 829.242162246
conv5_2/dw_param_0 544.677939594 1279.84374985 356.148045283 599.838289355 0.0 256.533760058 1468.14795851 1221.29293589 698.968054055 458.875836632 732.339308513 863.023591819 644.618961216 471.472624931 575.629156216 507.326093833 608.901701052 1591.79208824 528.151537663 1521.94009598 401.549964994 617.440007047 482.537193604 838.823482262 413.993355181 521.523533871 1339.19593459 917.069596385 432.925664488 1789.45867569 333.345890727 549.413458874 722.030140525 345.824034738 646.497552961 1174.10765243 1374.77625603 0.0 1062.17922532 460.292504667 506.294488234 339.631666768 627.36574301 484.841591169 479.861006259 515.875103981 596.323021275 455.382878237 773.492534778 790.367769918 333.559979561 493.760732433 463.312727536 1349.25385085 492.686136501 1145.2672443 715.113204911 307.909602857 501.792650304 456.590239301 271.393171439 442.536328027 0.0 440.493625917 498.15770395 1263.82509952 1649.94104249 518.250584724 427.680594395 498.295524814 535.901057676 558.9113111 554.356413257 651.826649265 628.830024499 403.732975791 507.364328493 846.90447531 849.380663762 886.348490691 843.331703103 461.222317058 443.918721888 807.072700622 553.241780625 281.199652933 359.277786213 979.737506827 584.827544259 1088.58310317 589.27120934 787.213184146 1252.41879196 282.00910958 306.772203358 541.223920592 567.315925615 920.741051058 547.051163713 492.463344042 633.156813558 367.586613553 519.489496991 1328.37980687 578.81873523 708.493822394 463.32854509 523.382126506 2048.31267076 1326.42519746 505.80087833 361.53618087 575.759426404 1243.14039584 658.063236823 434.986120173 983.26395022 457.662124498 777.775633743 1106.80909659 949.55138857 489.641243446 765.566887958 533.519802703 0.0 780.604429707 710.477217206 650.14382165 197.515964705 601.774754839 651.555020486 1627.57452312 480.313599854 424.037931051 0.0 311.101673888 394.429472365 502.545191842 293.617073477 767.361098814 516.989875029 578.390299892 762.970948412 0.0 721.511560633 1128.6595914 983.369004563 446.055057603 882.869223915 363.886648806 352.113738988 454.478085955 611.977229357 437.050638503 412.711889154 599.128285177 433.768763084 1018.20601382 988.82220873 575.788443852 962.875137294 470.627127363 1065.68491043 1012.44535297 1242.74278752 1222.07764732 640.88552203 595.058610457 381.61679553 0.0 567.688966959 1461.28726524 0.0 538.757632746 437.102326603 481.308207436 863.667611995 899.16655568 948.844800195 476.974511031 601.766554426 583.042277894 483.388284148 721.651034498 333.629627449 273.87723712 590.829192869 514.877673003 208246.045987 696.01939715 1116.77951677 757.460891538 477.427985101 588.003836764 578.389514859 412.294738667 1370.74258406 535.428408843 896.768099529 402.122167429 223.217508447 717.826371575 572.608153333 269.466796668 639.033942671 770.180416215 278.000185924 1173.65324262 531.340651558 0.0 478.926129795 0.0 1670.6707446 557.529605212 693.525782712 507.80525857 1532.7748104 481.653270822 629.970141628 472.367657756 670.414161123 694.8976954 571.581250062 869.263903943 1249.65984496 524.9203844 686.01613503 508.387414282 0.0 876.804695811 1424.14072797 529.700419978 873.941912181 0.0 1004.33130153 515.019113322 1089.91450755 816.185542887 342.767731605 422.921584378 272.240912356 803.570983696 510.932869794 1346.83159062 729.53408568 730.773250563 997.72492619 0.0 954.338373227 668.91309234 977.601841687 0.0 1123.29694434 631.5697306 685.431427549 450.866012027 797.897630908 414.893846146 512.360520657 628.11934202 632.524892252 924.770124117 526.536110965 955.225292077 499.184392751 592.494150921 813.965473711 475.922281079 451.51106079 0.0 495.917758013 0.0 1094.66689015 519.990370433 297.70981017 0.0 900.172753475 841.739449499 398.893210318 521.999883385 764.677864945 615.272432943 769.499299509 1296.91080395 582346.219367 659.361914313 651.30845355 504.816600164 1186.61371669 455.982026996 0.0 501.167693916 798.588440817 1141.86066376 564.678229059 444.15816252 1189.84340849 0.0 416.188512689 0.0 408.075381199 372.091043717 720586.281743 730.814043681 546.754792109 606.455566384 407.542708126 989.522288624 477.502131968 450.646448867 514.443321951 581.413960265 393.429293083 1821.75130203 420.269864235 535.807094437 981.888745111 581.952489364 511.830703144 449.397091551 499.353500526 467.045658962 727.453762297 937.800094519 375.664290041 247.226204158 894.732719301 641.199793229 0.0 324.227774993 426.731413271 1426.33378081 523.748078107 394.783184329 904.601080916 0.0 763.798844447 1528.10329207 632.185769543 717.419295666 576.413962827 1194.02099281 369.596047848 521.598316163 379.746515377 610.015170027 568.133992506 509.228178084 542.947270034 544.354752573 424.563311939 385.22210807 551.807033608 413.346476885 799.704031959 458.562676464 259.473731819 540.620519705 1248.35641473 364.8121035 860.190389066 541.351598189 516.565323 354.540074705 841.715424842 309.686744817 194.821766281 308.176076239 599.149976147 815.89839957 0.0 481.889218963 646.476270316 594.264634807 1588.55429619 844.620764459 1135.71153963 438.947175184 602.854995732 600.128796765 1692.58620525 450.445001406 445.769218313 602.953473226 560.644462113 832.834390676 725.355636468 447.801818607 883.452545511 998.371007547 543.047699015 0.0 841.759401814 382.14435694 1603.02821626 701.671575751 384.204379451 705.93492179 562.107984847 263.467056485 475.017764233 1760.73887841 521.571726575 592.547331094 677.413010538 441.232862234 1259.37421844 342.850187536 675.738465552 651.167428708 1655.63934725 444.760007748 600.428722341 460.142156654 676.563154648 346.752620654 661.814276968 451.96023814 591.902481256 345.467618933 0.0 527.513797494 541.68981875 553.935762416 432.465181503 764.886077658 614.924798275 603.958380655 568.172473037 683.803673167 600.925056281 538.232683069 871.13506815 917.138084133 504.692004148 0.0 1548.27991322 512.009688914 0.0 0.0 457.798560432 757.756536728 228.408208735 451.659602269 451.530962741 850.461649363 772.501478369 700.892521613 518.318442072 811.907547151 492.273051187 287.534328313 411.87194179 736.371956744 454.64017868 312.092532146 1297.16592869 1441.7269356 723.573960313 437.78195229 661.7095583 0.0 822.830030135 538.769348524 937.651524691 756.151182581 344.13392999 651.876554711 622.412548117 1346.04116004 303.678108733 473.123332224 583.483067931 435.685366469 629.606123416 690.719206163 294.399345628 407.525988286 303.293066663 339.676010612 276693.276279 743.230061048 0.0 639.35397807 633.955047555 422.287699994 1379.68058325 194618.231112 867.505560373 281.593955746 500.05020717 905.032577591 1325.30644206 442.936646759 516.111524758 442.501220265 461.039236469 958.118767112 570.07003102 795.497272778 776.807349296 591.485168777 463.825029192 490.930232912 691.176122949 445.639158235 397.690952861 500.070627869 484.603680584 631.710962051 535.329264882 397.695221018
conv5_2/sep_param_0 816.352139542 699.871948488 1061.51517519 948.449996255 0.0 699.400309456 461.027864222 515.318304168 759.619005177 626.773069607 630.330478607 642.014580048 0.0 1072.31468292 804.339437995 530.735443117 760.654035547 718.64469827 705.304225292 728.683995103 1292.54958427 490.406904389 805.117957719 481.8101081 433.541669278 691.639257348 628.781636928 0.0 516.447628607 647.974521452 765.396588972 652.105589554 581.046594372 764.048700741 0.0 912.225064215 780.668065846 662.99029189 829.29356016 507.344395013 805.076737293 0.0 392.579181795 594.376822805 609.824080294 871.824251858 514.37607182 761.316312538 831.705756531 322.016264591 964.118921518 402.317302906 936.725984846 936.762431838 853.950252248 1118.26211036 853.08549687 347.427687377 801.294143109 452.268810347 527.257292777 912.136710074 685.232485974 742.823840121 0.0 0.0 669.622851396 923.872831827 540.837919815 533.172758575 0.0 931.355594094 311.594959656 678.458569836 625.488829773 1065.20089227 558.912007496 523.47715141 0.0 0.0 687.097636208 679.675347943 895.212017493 578.292501212 334.451086303 754.615883807 520.366588326 589.457787202 605.490469955 819.930020048 833.904322223 682.499658103 720.936030443 834.665374213 639.347934889 749.567996037 0.0 660.185648031 881.504992194 712.612634313 840.724875716 708330.398286 292.029028478 787.886774574 1011.26699145 796.75049729 470.835746285 316.146210838 0.0 508.921245708 735.901832159 724.75374434 1113.3159091 512.932181312 454.716003855 0.0 778.371383988 401.187617204 0.0 548.041816645 975.047152039 782.359145899 799.400472841 510.799144491 661.973422346 783.961647919 739.437400785 57300.4063202 1096.79172248 612.155820724 748.544289864 952.762102746 0.0 432.279394433 626.22453375 960.89947893 846.697838527 893.414950409 780.486194141 836.812092913 688.338122347 676.240313253 532.375316844 851.552281563 605.322581672 883.594419899 496.432909999 570.742148586 583.435056833 730.460842367 108413.694734 929.260870656 623.366453056 405.9460006 733.580389462 874.526145306 725.654547996 785.687901938 735.281303087 1170.0993387 705.413972829 841.164647307 853.196773142 741.581445241 572.080243765 572.751108111 656.432416579 687.956299231 0.0 584.908056654 650.054513864 498.664859586 631.406622993 356.234325474 502.053124586 469.131409791 853.057917141 670.18631592 607.270964672 550.975396244 577.052211598 556.55766246 845.161747017 874.413632062 629.708882653 662.589907079 652.023224222 857.681333723 326.506691896 854.292637948 664.128727813 705.250181343 620.78049123 546.630969218 791.288254203 494.741844197 742.216859596 882.527861652 706.793627963 693.360413802 690.961285028 892.570622233 0.0 783.787104245 564.83806372 432.718081984 896.532550593 773.429010234 422.156467076 655.892892802 1034.66994932 779.548157222 838.336262242 685.938892967 738.754094132 610.035604247 680.310381136 884.355860536 1008.72718088 1230.46163366 233.45947638 861.879253536 348.215640387 886.476082858 856.347569076 644.575961839 321.572622566 624.546683493 828.29562838 862.703600948 1107.24658248 999.950456446 526.133967695 0.0 724.255802217 781.112091373 918.405569641 310.945903719 515.822557285 693.963479496 501.918478952 696.365160015 798.932871581 392.109441395 485.680742977 748.985226683 552.512676383 877.343991656 1019.98034652 683.239160802 582.212244646 635.199233125 471.783667017 870.47488864 397.170813225 267.761557086 1018.97312572 959.160158713 989.757516412 696.340012386 1072.75711744 845.591659674 841.439862871 528.625683311 572.371963019 543.976217994 793.295720872 1128.91104918 751.526139633 950.272168063 711.333301729 818.332022996 909.237190407 949.832879043 640.875642769 707.469155026 773.55677186 823.085030585 1024.13449109 660.811614519 492.373953503 883.730750156 773.212192888 988.323183535 894.662183642 847.770483953 694.753928175 0.0 381.581257427 0.0 568.514481773 740.641012833 664.472430457 910.038143582 250.004362714 673.286150569 666.833141917 438505.734973 751.755563572 857.287934132 904.903335173 901.832305917 453.798440793 606.001501987 957.695439431 14996.4090326 804.325395015 633.535122298 464.987606515 939.125684869 1019.66172787 898.169041125 566.308991095 704.054523996 935.444115977 836.213968797 628.018813096 1001.94665039 812.751866254 494.770507708 513.532532436 578.769169735 713.016598576 809.585133802 374.086151041 653.025291973 1238.07100845 0.0 524.954171235 774.764798033 373.466162345 757.147248207 1027.33637655 635.073473311 524.742275224 608.21987309 802.60939819 0.0 868.274982391 696.495649612 332.248778377 580.039833075 717.593924635 5023.72109437 475.878169124 463.439802218 923.37576615 404.496093683 534.690788199 390.491519339 896.704601389 1148.80011797 1003.60799069 867.02009365 886.673166919 453494.158582 829.037682639 763.756339271 513.252595598 580.27137266 721.229295692 724.480946178 727.195121968 881.778322211 1004.16658455 719.245708067 924.602281947 872.75853535 341.93088899 858.705518336 954.133243295 496.140395176 789.221414146 520.458836806 874.899692234 596.583572442 0.0 1063.15381654 614.203925782 685.255956172 764.281791607 626.246758613 294.672257037 686.090632953 565.466039862 701.949258812 670.813870413 672.548175454 713.519868749 672.483434184 373.865439204 492.010126044 924.338853523 908.288359689 307.802604461 693.348399279 903.180209701 916.318284928 924.991231017 0.0 625.181925058 697.10013566 815.25663298 1139.01944071 285.975816481 839.665755163 744.139853306 701.899138252 610.98674032 742.207422783 348.062284126 0.0 701.606362217 835.580488645 981.799501222 604.740639721 620.76317397 718.268411682 902.477371476 525.16371437 684.124277974 369.623393116 939.836003149 862.310903686 832.356458595 0.0 320.447845379 647.813713455 772.387924474 937.283398263 766.757656983 789.722567374 843.35398417 1025.21545428 592.245595366 826.287485866 595.003150865 522.358749449 724.213830226 513.667847731 824.072351222 597.612259723 673.900876113 692.917505602 936.743384328 600.550062963 1097.96971008 692.718305458 689.554474461 733.136965482 672.1475635 780.619801532 551.855125711 615.067782101 715.162529987 1230.4070103 651.818623228 748.511814091 768.115682408 526.197505231 877.733689968 1021.66497011 828.054444989 821.423103231 683.850693959 700.775417976 670.489106591 730.906424656 643.085215777 573.090560314 1083.26190492 450.66665595 820.722035224 495.7770962 763.651910253 929.044503264 584.09143949 923.419585715 714.929885695 354.191380627 650.819357931 660.745014967 554.76499224 782.069183568 574.757903015 946.39240099 411.551259243 642.115382726 524.102101088 858.976230978 0.0 627.389988674 547.666197599 713.339275968 502.094709617 587.04327251 1041.36918203 750.969502508 839.935272316 687.80967224 740.874979507 588.438106272 605.794229889 1094.57051844 807.870153474 772.913689177 645.196400422 703.662042448 1011.4461695 1040.06018732 580.795991492 884.410371483
conv5_3/dw_param_0 919.443110951 1903.42531505 980.048225844 499.982326205 0.0 844.119933047 669.178793186 621.211382446 897.641568174 534.461542533 591.362990716 1020.0863121 0.0 841.369754671 644.834629637 527.328475559 840.098788096 355.960683228 1503.97211304 566.87968343 573.117960484 941.575782215 1241.2758252 278.396636725 1163.62363167 490.511051717 429.490799245 0.0 303.553011526 524.891580112 428.693556357 415.683439297 1122.66098989 274.212222271 0.0 1863.23120761 528.350343301 1727.93144414 521.605051771 519.852560139 391.91593413 0.0 405.48965759 580.642584665 541.64823235 919.56999195 923.847294881 1157.8504905 649.735418028 951.125005133 591.298659245 359.547392505 642.165457242 913.556741952 799.966597262 835.232389373 561.369575334 308.871468934 1382.51201357 1712.15598918 722.951286779 521.161033797 793.982723932 834.619928562 0.0 0.0 594.62957706 961.918048053 601.004128841 250.129564305 0.0 671.86276345 915.840925612 865.857398508 1360.88299177 518.617124646 565.061931868 1112.32096891 0.0 0.0 773.126972759 868.138691939 815.381894402 414.689712916 983.466250886 1259.64718043 341.203762022 1231.83137715 557.988793119 479.287513717 690.07661424 724.483779069 513.292965346 590.116031384 616.496737412 422.743108199 0.0 495.070898762 546.578525342 974.463874183 539.504782846 678809.334102 1568.20847755 1386.40704901 1396.7164166 749.157453386 444.491170962 693.363685435 0.0 929.8743578 852.069725782 278.72343196 283.836278368 356.072249677 400.584364473 0.0 1043.4776846 435.565174516 0.0 274.938908571 1145.48012337 593.817795445 1311.59814384 950.176184528 929.988202013 462.677443549 480.667051148 46619.8161511 736.376092231 830.521659538 1219.53768918 1562.92090602 0.0 1300.12459637 506.764895405 746.042991968 454.61631572 549.376379504 1835.54445864 404.210406181 544.241189026 515.209492767 1505.68494307 557.676295237 723.091011132 563.460236764 1554.67957596 1120.33918302 1502.50762032 790.500456288 268243.316164 1654.06569296 543.060986238 409.075829129 508.532562561 1523.85144978 798.327527051 1276.16698978 1245.18001211 1644.09547832 967.030070905 725.387245213 760.98513187 1207.24947068 229.165904235 606.132520076 956.0381418 475.420366436 0.0 866.31091877 1649.25746155 543.541458208 434.907366256 779.155124428 410.259919776 839.218541683 595.832466074 279.360739806 795.46720285 453.130461708 692.423348314 1726.26656041 388.878164074 521.987830569 566.121585183 942.712036344 505.635775563 599.976665548 303.949705441 592.57472817 1578.07764586 320.666070797 882.076561009 490.603720744 705.754641117 411.879784123 1706.86275355 1727.27326172 1659.2151454 561.923200413 734.23422904 821.911940311 0.0 1667.08898521 557.061814864 254.823849465 676.909098851 577.110471279 336.41226364 321.652284469 513.826063879 551.195894357 645.484359313 1541.15062601 1354.31051592 453.304613419 763.540942954 660.756438398 626.905154512 609.360559288 1445.03902652 681.821367309 608.65775174 1403.11974208 522.187109171 661.035282307 1190.50256607 653.582158828 1082.67011854 690.687300024 497.667968155 869.802216015 675.82955774 0.0 540.831502001 588.034223284 1071.66741342 703.379984316 432.609358705 505.941279455 502.812024928 1094.68587126 735.152490806 503.747104444 1587.51940374 1564.87343242 732.529147315 725.963599715 1183.7918906 576.36675718 1327.93005438 771.083543177 748.154897829 433.135867585 396.558719715 297.213906255 1655.36633386 900.091376298 1738.61292408 600.871802088 966.720751959 477.803021382 507.082445569 409.427946318 488.432387552 509.896564682 1600.40442406 540.478619553 774.585314187 963.279649202 905.855501242 1670.07737968 843.599404133 423.685983756 688.147935696 745.096623515 933.649061495 2079.56498993 1582.90541014 581.70181927 566.247248549 793.105704457 567.166650052 710.462470093 786.269435312 557.796302081 700.578988464 0.0 989.2704075 0.0 412.138390033 786.855970931 1412.4813715 462.171682369 431.184244854 837.265298676 512.046540894 246350.364084 470.799437879 615.413800989 474.11235363 1301.55294308 664.894545241 396.131143609 537.785231584 11036.3727209 524.839636936 455.312230376 479.036065527 678.121723389 1737.82698022 1760.36865596 1133.1814941 639.060631995 1666.10950549 1550.10620764 453.427269907 571.179841088 1926.48896886 524.068133817 356.978429233 989.962153239 820.402313191 768.608957801 262.417846971 247.542725244 499.775628699 0.0 499.526587514 742.507902692 948.628403982 552.394251768 667.452756801 1921.21260637 353.266709426 437.304758546 261.598948549 0.0 1671.92318608 850.996886704 297.889243193 561.94172526 1513.73144438 4072.66835799 447.354947481 373.385728794 1365.82684061 1574.58707637 489.709721859 603.131274776 566.030484981 720.713510648 410.033765958 778.885540142 590.257234141 382043.136566 586.23931572 533.689985215 1404.04144667 626.257664557 460.70045458 449.841405784 472.100820596 292.811119396 583.651129049 723.881856804 1592.71200747 248.888977769 728.574237317 785.333518606 1535.00551941 401.900686673 703.486346572 423.225054164 990.562410834 1166.26734041 0.0 835.516022129 1606.09770448 306.434865673 557.874180861 502.442270013 407.346249002 954.867630883 598.79090859 550.645335416 1944.9412074 924.885331407 579.373693137 433.550182107 378.421368 739.109786628 620.316469619 1287.96938672 389.765950342 494.210419535 414.393036615 2071.89139207 615.129620342 0.0 694.081200121 826.749168796 1568.96542591 567.315434697 651.303277247 503.234852929 562.162338891 824.049802516 1938.80871906 482.416907069 1232.93844809 0.0 742.866183993 883.854106646 562.349358517 729.646381632 850.140982651 534.323392696 273.272841466 592.62359601 791.296629405 583.103069937 1263.44046603 595.464465352 317.22292276 0.0 267.244027414 1803.68484243 517.808324496 314.698214672 504.551518824 1462.78480894 705.855643068 510.922486504 1233.16456175 1207.90751687 1588.36556264 629.324440255 548.043331997 723.451304909 1250.21950111 868.249507595 392.277138626 254.593157849 474.584499151 535.933812739 1839.13839643 565.780983781 473.485635975 242.976036594 459.801218522 440.721043679 1223.24036698 1609.69579244 1724.21324521 505.090820304 538.292002888 275.105166305 248.735770961 728.606750082 931.448219906 793.067402151 449.602678153 484.48864103 1684.60360366 1311.66041598 691.02330198 825.959891816 794.586161873 603.511978184 471.785912981 797.080820298 1164.16841298 393.266525168 1901.73662875 1574.15854592 591.310433155 526.363437824 348.214274601 272.885160097 539.892097162 1215.57174944 686.892190377 664.927847885 1818.45420508 674.541549143 242.930659565 644.36007665 1041.02167661 720.923955982 0.0 1358.40671047 1395.8869428 846.123554832 771.147310968 1480.13301984 921.104060084 368.101697829 1525.96634927 451.245900848 839.193090729 1729.33913931 1222.08474427 1587.06710835 614.105411984 407.133680537 658.005572201 472.763837791 846.766229521 1402.18771224 871.311403944 1200.65917551
conv5_3/sep_param_0 586.993865193 704.620241195 981.119111999 687.961297087 608.350983796 239.934528825 446.758990429 665.883267956 0.0 948.111206385 605.210951396 452.448497058 856.297064699 691.265369817 737.970180131 872.355382926 952.164324825 880.042274283 5841.2561651 747.165109069 670.687706058 719.502550264 0.0 747.532358472 676.771173135 1011.71847844 503.934096868 706.114826577 0.0 441.489720689 0.0 0.0 661.968846362 872.317079157 675.975624406 723.40684722 0.0 864.133384448 886.004985764 609.46531415 556.639049325 1009.69515871 569.324982261 1023.52740817 719.758603415 827.020648187 564.580711123 802.50140443 734.910907196 716.467430455 852.087700343 907.475891771 775.532538045 436.452610253 707.859605556 627.141755552 474.573770139 1061.48007424 808.812308244 461.051108098 234.261106397 883.526362134 558.723897037 717.076929044 628.861018726 513.983664598 970.607045296 837.007520357 711.878492895 786.40778758 508.38368429 494.575041387 638.478716604 720.94395834 774.759867982 0.0 426.871193454 928.452136132 751.3591811 768.657827988 499.904611346 988.704057528 1078.21572308 644.99557265 666.051923885 674.751477924 0.0 735.135750427 551.621996518 855.642853414 682.234361861 650.144168813 958.189537656 968.039034931 963.786720934 693.823035607 900.149080325 950.535215691 567.387873229 955.408614301 49350.2352689 675.396446168 743.253913042 628.695967906 775.213695486 900.892383493 813.855801436 973.642650418 345.624863763 392.81664688 572.906149426 942.712870534 800.631136066 939.691139048 869.349556355 447.106044097 759.933615949 903.96956372 900.93295222 570.644664762 895.614366188 0.0 903.231035496 462.661017415 480.53718243 900.58109728 0.0 1026.09278956 741.267530601 624.395004914 339.43285747 885.578095236 673.880308566 709.584669927 501.780774015 741.322270766 431.805932526 461.459005218 504.915651236 784.936222329 766.352811483 572.65551483 686.459937401 569.77196809 0.0 870.002345573 874.893944323 727.432465779 603.834717784 585.499896335 0.0 685.886230369 585.931279436 0.0 822.309633357 588.340698132 1106.63980293 526.715212307 751.709415637 787.929312892 453.176866589 625.929823922 0.0 794.67840163 789.388297049 821.822383609 928.547827183 583.97161633 626.092597485 699.423153095 0.0 837.65255215 718.927005274 790.859739368 746.915829024 559.403031839 559.567278032 718.360796438 628.091059221 826.777399481 774.668602938 528.234977209 752.689817452 631.030524199 681.196360325 801.190494714 861.080490496 410.033016343 472.736566031 866.516668815 656.756101626 943.963414717 621.341812858 1103.0038384 959.785346031 1066.43331299 916.04134018 388.966618652 703.659544338 918.493162782 970.183987892 640.342855125 706.378884086 983508.434232 766.621442722 774.232644452 997.298209495 406.195890222 822.26607851 299.175004563 995.155913049 734.026373126 659.081676838 398.497774716 981.551761992 937.101607179 737.062972565 0.0 893.889556077 0.0 785.222527383 800.439845007 752.964985308 889.790721912 731.152030916 1042.16931287 732.936411414 739.046464714 637.326876032 1013.94035629 505.10860134 0.0 909.310431144 705.874467229 758.03683816 259.50931634 953.030900168 785.99541378 525.172548744 428.773311372 801.231544105 734.515056143 856.898599868 990.715439273 740.282623675 0.0 803.310893139 1097.44985168 459.954521047 813.278391754 830.057856693 598.768444349 659.272453103 779.602065334 1131.07098515 701.37015853 720.582197003 0.0 934.458477531 678.724504447 596.639034684 866.852455502 740.792810364 851.576360524 673.763427756 640.718242169 802.966082257 530.054824325 906.356431982 658.860907854 629.778632902 786.61979967 559.773236171 565.022260794 578.66696034 262.09667878 801.219492472 848.742552488 830.182856115 715.271105125 900.193385308 575.353411325 875.994878157 536.215023916 693.729230878 555.364497284 1090.03264512 644.412402126 603.938865086 0.0 909.591571693 592.521378307 746.693993848 936.919062631 591.520924743 622.069513365 604.205430077 734.214241429 863.80854295 700.354755714 884.92993907 512.642815146 686.151557659 0.0 543.923067296 532.892995862 561.58707555 708.327420345 874.664269321 950.35068557 710.574065876 0.0 0.0 0.0 969.715067471 771.705624548 657.267494909 964.231269541 1013.80901151 389.915664682 1046.042102 967.114784223 621.77942626 675.754163807 649.031731013 434.382521921 673.80668065 884.861675424 471.696247749 863.746300069 755.170112834 424.952354702 7140.72800427 960.846830578 617.318005745 542.807049898 814.462205811 710.834770281 998.737429455 751.474189027 925.959302588 572.862981991 1078.37629472 638.886640467 832.793375664 0.0 500.781343454 928.683811184 858.484436063 946.584228005 819.048531948 834.600231535 844.98762563 824.782509415 945.064465737 863.260920909 725.177024751 713.221378635 875.767954458 888.135908935 946.342486161 891.284374889 417.718617065 1105.28459235 683.57798659 792.728082848 812.26317827 535.156724947 866.737765227 898.778070042 830.592076031 0.0 884.877293364 717.067457042 900.047081356 664.615701721 776.540518969 676.633088741 723.62439806 915.926553719 792.577105389 599.519722196 698.249329346 662.080384712 794.538457501 1033.7146352 0.0 595.656818058 924.130683837 426.630290038 0.0 329.780611816 302.728072527 0.0 921.753871651 494.465030344 783.998931466 941.968630687 666.271601248 696.85516138 809.655659697 0.0 907.065713641 978.919854538 703.123848356 685.552447122 415.893788226 955.446315442 749.930683272 863.824652274 748.646863441 693.570255636 647.49897764 710.736665138 525.538449168 668.878076957 1086.08570975 597.242853103 718.705541929 918.388844715 513.608816487 460.92464185 384.088129997 398.150881294 990.936717462 687.550271779 808.002423962 853.403689227 666.648446395 434.437035365 1051.00910936 786.787472477 567.283149236 371.504718943 917.880657997 748.048060021 918.048837362 821.643407953 857.430586039 418.621216725 925.560593314 0.0 1087.56947345 508.088188219 281.074421045 595.714981144 605.799784586 0.0 490.288134474 479.184143949 1010.479745 674.055919076 888.014500262 585.23969142 677.711482073 745.448019047 759.231400165 1130.80971213 768.761411736 818.878000632 854.562545672 763.550109191 223.146231084 392.122358296 894.195200834 1127.17548 1059.3841162 0.0 1125.08785719 0.0 571.077730609 615.656970852 503.669345985 1009.60557269 787.174721819 970.625836759 806.104474903 607.601939946 593.479593891 635.828827471 717.61060068 791.038916049 517.459671442 782.759732025 727.498905102 1072.46230047 699.92632088 755.853973086 829.378618741 956.537508979 683.865125207 1047.53329968 419.099863857 0.0 732.486399822 883.662671389 947.540632959 433.447829777 1023.15264566 802.478131765 673.920325854 685.209237739 620.376026165 649.48344534 495.992679434 690.371476375 976.259080151 725.743527909 0.0 491.611613923 862.54583316 359.792765936
conv5_4/dw_param_0 375.10376754 729.92714779 561.305356226 1027.1047963 1310.40571947 346.670307722 265.652339849 1785.95504615 0.0 575.011700712 660.107466423 835.582700506 755.804773666 1487.31147606 860.378041872 320.9281406 742.259198938 664.811043936 4214.80319939 613.29818026 466.870253649 650.870053653 0.0 1392.89010554 697.217725186 1746.43558957 1270.37574303 527.57159444 0.0 967.207854301 0.0 0.0 732.091646383 586.213630299 626.408868361 583.075384849 0.0 992.329314296 1592.43777968 389.596545991 1279.32485571 658.977209654 1359.52210585 1413.83124966 571.132799903 1441.1479449 233.970657069 480.597500864 465.934058514 715.963844389 314.043354124 1433.46833148 609.090384844 680.298380197 1188.12855443 725.079362465 1574.90509871 592.431879228 1165.99115112 349.388581175 520.32592422 483.519588986 1774.92291235 518.746829085 561.386917382 514.66366908 966.706497346 998.710394898 479.213943066 1054.96249478 665.130381097 637.089005688 425.624833227 619.790349646 813.873365667 0.0 1547.17182046 1449.77526204 836.965928908 977.568314531 543.409523461 889.497363494 863.783066931 1378.67125079 408.561654667 465.57670406 0.0 1547.88961612 695.892495108 1520.96165146 1240.25642502 249.346697942 789.242535588 712.745529506 682.66694007 704.014977 535.633573141 1638.97595043 224.154830587 448.132539315 41816.056141 1536.63284244 741.430162862 1405.617096 1432.31235837 1622.51798085 545.95564838 748.121470797 259.15031646 413.293520048 638.825727506 240.637089713 1026.52472577 845.414677584 577.996912404 397.135650203 1624.47371789 570.919432062 676.12164695 714.005485799 486.364272433 0.0 1879.03401787 1752.22244202 623.93780729 1723.32543866 0.0 640.299414125 518.837493402 626.983371322 603.182411597 613.08341788 620.767785783 1628.5129399 1551.39414044 470.707599496 232.521280866 950.40282582 403.415480433 1163.6234728 1525.26723647 577.60781762 445.213009659 540.209902618 0.0 506.952567351 753.20267726 585.553960488 1433.93392126 571.426082048 0.0 1597.53074541 893.178912959 0.0 353.89814667 564.409023789 1645.44051871 527.433033603 1277.86370764 1110.91612151 242.783647003 495.366299454 0.0 1428.12152066 555.810373683 744.105939524 705.448772264 1720.28198588 330.226298485 631.132814223 0.0 1415.80916702 2046.49913221 1213.55471769 852.865762408 1297.61118158 531.744891248 817.077717155 1119.81477782 1043.19880302 1741.17011312 435.343934768 493.255676029 902.47995168 607.268541592 1906.2709114 1144.4910527 514.037263428 2007.41288885 1192.40367894 1488.11092878 538.496680119 407.601959628 520.955181535 603.051385515 852.755425684 588.224362456 1085.95403554 726.626351252 1534.32185575 308.602920545 1761.34255114 718.489363392 723954.977973 702.115627125 599.326342011 674.701907784 1594.83521954 278.465420866 260.730304762 342.29832413 1471.61471672 676.082386801 361.804089289 773.269367537 985.680649131 557.869543307 0.0 734.360884708 0.0 816.089258991 686.871984689 543.957956034 363.165826279 964.282543844 445.529295653 820.260110252 1481.39865943 609.755757026 626.820964122 385.356015018 0.0 593.710574562 404.283880541 759.563492759 832.311751705 947.095971687 626.035387185 965.706982443 308.224289742 1432.54913456 1579.92575105 1541.75141658 613.703718121 472.049465902 0.0 633.299320484 1466.60787175 666.462915073 735.729548471 733.025547017 1687.11497796 493.260928734 1186.50650538 737.459086797 555.152078694 894.77142002 0.0 798.994063249 1472.17979789 978.184055699 682.454954129 434.179069848 1490.79341952 591.978498023 670.108645679 509.911909496 552.440655849 683.373927521 637.90888906 592.53122362 682.164193387 569.458692354 510.704993914 1133.7968468 373.291039641 1888.14975773 2020.20069634 360.326285146 519.694128964 1936.37146558 1365.33125547 1240.00479077 544.344809091 451.41200771 721.935831188 836.454265096 586.506626016 406.811088017 0.0 439.320732651 773.375110296 680.39097759 518.696505279 451.75411861 557.007896564 1171.94167783 657.02869161 1616.35484294 1586.13819895 1830.54823453 1459.84579376 610.462459516 0.0 907.856267958 701.143169568 314.356679783 1334.91481783 432.696113281 899.522242707 832.52834034 0.0 0.0 0.0 1046.86762743 1515.61332878 1832.40547923 1786.32693721 907.698762243 451.708770728 461.547769682 687.656116823 981.458058479 764.97560142 1765.44364499 738.14664744 241.74539398 648.978998632 1911.8309443 913.521882475 1290.58839693 1220.76140774 13541.3175774 1467.28782972 716.131086178 1645.67658386 618.52712986 835.101282523 526.043462954 1254.76178112 776.822147112 723.9171495 1599.84639959 934.467186352 740.139519369 0.0 472.890902731 1530.59716563 1604.45169204 1701.91373419 1334.79909915 711.585473574 1469.46069242 1261.93295095 593.615630373 459.673552724 1012.95652054 951.353267474 578.780292736 532.964375452 1286.9808015 1175.23974843 1803.11359806 564.538303015 759.155049121 1461.16550999 1563.2091449 693.011710779 380.517571985 1960.73001199 682.062488381 0.0 1354.10771533 631.577686941 1199.337674 710.343508742 352.644758523 1089.7797435 460.150007111 1079.42466338 845.974899353 1002.4591778 729.740654475 1254.04737285 1221.95394589 685.982563791 0.0 716.71771122 694.341706366 605.321850804 0.0 498.562470927 346.561425863 0.0 1085.09178151 972.95119014 618.604706703 1058.71362583 588.438065644 1211.34100565 527.265708438 0.0 537.613343328 684.252362377 728.909220424 700.172654294 431.021309668 1486.7025627 1884.71902959 425.460846868 424.042741278 533.039241259 723.829354526 502.550999857 725.20867964 1541.18016671 709.797591369 1177.77004147 1334.82408098 523.962972772 2039.6016337 392.275477554 1205.45188935 670.386054301 1659.82812998 1674.62617878 982.874446783 634.656177163 581.705114591 1379.80935285 833.442928772 831.436870721 1411.88013467 393.667206163 414.862542905 584.530410297 674.080175975 710.522943074 1775.26248885 421.666852924 1310.01587453 0.0 1804.54009552 1848.49787835 1686.22642153 1092.18471306 650.460737408 0.0 934.315471169 424.540260171 636.002960761 712.890221109 976.661263731 349.166372432 481.945571326 518.823596431 513.462364933 857.817986485 1229.26857428 1013.53244244 538.769178233 740.500086102 353.310027909 1456.78620683 540.522186185 1576.71471055 1977.67126315 0.0 472.586155887 0.0 594.200291912 556.314806599 984.75780598 1754.221544 477.379689681 567.650854351 726.581688318 241.912820137 777.003660917 1579.16609283 930.286744185 398.79809389 409.861150649 515.465442395 923.651558519 1720.45822252 242.515160652 565.551329129 817.513165607 643.50905786 536.652633823 753.429596076 442.204772755 0.0 685.296013487 498.823572158 572.565453907 674.975702833 1946.32165045 780.921998655 745.339019702 793.556163147 387.008707443 1106.00038931 322.553979148 719.65674365 1252.5647538 1277.66955504 0.0 1261.37526874 929.43770628 1004.83276649
conv5_4/sep_param_0 498.003837799 786.37636929 811.496669063 894.521708994 923.815751191 617.739400693 1180.16546582 655.191526785 344.915790667 0.0 1045.5840961 911.284216145 0.0 385.870805839 658.292572735 858.173504824 830.728167475 464.160385043 853.349344816 853.415225487 992.506698131 742.16612339 634.058382326 771.764743041 748.718878995 720.491798162 827.485239868 771.475246706 837.829758123 696.345531054 676.708625206 907.747874183 759.40640951 605.066585166 796.026281079 756.797238215 631.664424063 511.096178778 737.392602234 510.24823237 428.6277129 650.895305057 720.354842066 831.252710478 897.837217088 695.944205087 645.320240603 624.937314565 846.653428152 339.272065137 589.535991033 753.67971132 551.710981688 957.387115258 850.594652771 895.789171713 889.190097247 853.070297913 1088.10209857 636029.314068 581.328538372 851.000625458 693.594921378 962.604890332 938.687023694 436.600935 1195.58701507 989.158463223 815.885121639 741.885616012 856.617399488 804.745606054 467.3010713 681.214273325 585.813438353 423.306024975 609.667299833 959.079315444 920.542651494 1120.12973005 946.394187513 396.36640091 1068.88494547 387.882390453 998.764816603 631.203160776 665.302083454 1093.93640689 922.969882605 667.577759204 822.334387894 1022.96149965 862.808316577 1075.27416589 475.409758711 706.22640658 828.412286957 876.549134345 463.330862402 1127.65532708 470.697824926 1007.75295442 880.202962863 984.264124011 674.9259394 739.582287393 872.003097245 449.397091551 925.995117756 672.692349154 946.873008546 624.765340069 660.754543003 1120.49685816 1003.43004291 895.762998314 827.919147666 1048.27182319 774.862848653 731.924724687 727.568151515 0.0 865.723624652 566.277610202 606.929241841 850.757419973 941.950620133 844.054309365 1136.35820322 0.0 720.571535583 589.772522792 972.476373692 797.636272481 1213.53095863 983.564538005 403.057117052 557.83259169 867.17438508 1077.60852096 1049.90879515 777.731558771 712.419518103 759.447484465 905.798699845 914.27371338 905.234057974 790.119011433 782.557196157 974.7942234 422.528205462 857.318633919 784.531528355 891.024775553 314.513983409 657.335068267 996.132468809 655.548577081 888.776908055 968.580299994 923.654261219 349.163311235 990.885219127 829.641652114 666.200251399 830.397448056 941.864428867 880.564180938 720.4706637 658.832284447 0.0 883.833575391 0.0 928.032481692 595.706278857 648.963679677 817.862973148 783.370489243 644.334891346 428.398862727 596.851080685 492.508990683 992.553510303 773.401287323 491.81484763 596.615729263 839.00432259 668.8282113 750.668285294 855.257586314 656.535319788 657.86082011 737.68817388 377.63775721 891.246441216 826.365038198 484.890194447 687.05122018 638.978367032 643.755345609 781.811635591 882.639456416 802.431514935 889.170708826 0.0 671.439533243 974.793108485 920.619117188 727.519398182 0.0 1049.19631409 842.848902177 1130.43864489 654.051725552 534.953403118 716.684382579 726.624740565 673.375093082 1191.63094283 0.0 638.181155352 882.297175732 982.019529718 506.480487534 708.360623852 366.963061655 548.674657923 1009.56515056 848.224243905 929.315687569 879.963223951 500.817715077 983.396690006 0.0 717.19175927 604.710218329 1012.79762789 710.304495253 785.116774852 532.103333171 848.568895884 541.748663399 582.529759691 837.076410149 632.100951916 970.605497796 814.029067631 375.118824299 289.355916073 926.827795833 783.059847374 605.081061648 371.842534141 784.451087283 432.020874491 367.35361407 888.042350994 773.452453436 917.377773085 821.775790143 973.652216152 918.935837818 744.488200673 690.61342344 857.038795298 670.883413066 718.986986938 459.451075897 900.887050787 892.926441389 728.410596433 900.821635043 654.882666032 553.178868979 576.193787878 1024.76441125 754.026842949 950.211460991 676.50993493 935.36403866 941.356761958 748.690202649 843.746474096 0.0 599.780669032 759.218549933 868.727674552 832.36336827 0.0 846.515096147 805.63158942 783.365953078 969.839207772 672.961539655 965.99014178 765.813704976 780.550168431 782.666285136 738.407188385 741.50918327 903.429894929 877.672858697 636.383348801 408.156248644 745.690187258 884.319890663 792.827930588 597.453318265 409.144679935 711.862022733 257.287741364 668.731073358 923.253633564 0.0 735.503389831 769.309677623 866.596669956 914.098580732 858.515308085 684.462883051 722.895976255 693.690948218 529.733343328 792.348316116 774.810016572 696.146629791 395.384705541 724.045314287 774.441589936 454.334757154 953.905673667 410.712026625 664.572221561 907.832575761 762.436656035 0.0 605.914647538 468.413651072 928.181051172 820.057589753 571.495282167 628.234814105 1031.24604221 774.066201951 700.847162362 680.122487433 885.452969206 976.750807243 408.920930837 537.573397678 522.896322503 1068.03813035 474.58566193 821.068029522 645.39339459 0.0 746.098962251 773.432168666 811.817218802 650.238214067 0.0 670.768202938 380.877669852 717.29050767 615.559502016 723.83740766 722.303238303 941.254878435 702.388162651 581.402696146 0.0 585.695242165 776.895294833 892.98145268 635.606862815 0.0 841.483894135 882.686442506 358.732355778 907.624234393 771.254428311 827.334306779 886.695675306 820.595048812 933.99622098 968.325874053 526.039858996 698.805580326 687.711770658 905.098125772 804.95469787 707.96297518 847.307353482 711.162774327 699.480039092 685.331942324 1054.00461654 683.229028055 0.0 714.179773191 0.0 731.693235095 629.003640812 1005.90581682 865.370610995 162.72600108 728.678014258 820.725433658 754.673548802 965.182367254 668.512550574 298.244813783 829.929177344 579.210369049 830.933076882 817.718746204 814.837762704 916.289223474 836.481110039 930.809578219 410.898037542 1006.4468862 466.598758251 491.883992187 676.177541529 794.540679627 650.962916887 863.822463472 1043.79941055 482.356076503 764.333814531 533.133903606 990.69183135 950.446492381 623.3835511 758.156394948 947.187649567 779.809781081 378.561752533 901.750342197 899.785297949 767.407115593 886.494708487 255.841280185 727.426443375 894.15683137 772.047602876 461.590464753 442.556687567 831.863728897 916.585736826 800.195074705 0.0 790.553616641 1020.71627268 572.275228181 663.942113472 733.9206249 903.33021491 701.551555257 529.030069857 747.6562981 722.245150253 0.0 0.0 608.553882611 631.281565409 682.654582454 740.677572454 852.975530121 654.695729104 0.0 922.653143526 852.683248659 883.575549535 787.445855916 786.292502733 0.0 1167.07024433 739.427328849 874.294779903 922.383636971 715.057407372 798.676522741 955.054989679 785.504118428 1023.93252167 782.251650261 623.421717317 694.031292551 0.0 890.036868727 586.507231432 873.157498377 669.361634278 0.0 858.66243469 493.402965457 825.505566199 867.759850721 776.865765005 639.831894714 602.516391778 592.393418995 0.0 469.448781501 990.539500938 693.743573848 658.446009993 499.120663409 923.162630288 809.402992355
conv5_5/dw_param_0 1529.79769174 832.005273086 1319.84028228 906.61723142 1381.20849188 1849.27738882 1404.74946688 1358.33959599 827.418321278 0.0 1923.45076515 1616.19806198 0.0 805.905606411 1569.65690205 1561.94360632 1161.80321435 1476.12696891 1799.05530841 1614.25683819 1137.37363381 1254.29938603 1217.17772772 1863.22855994 1753.77303556 1524.37625087 1063.57883414 1142.05582667 1443.24475556 1596.05600149 966.950528515 1395.33515464 1344.16113483 941.302074795 1425.29486514 1170.99038066 778.556823021 977.968660071 1145.70224535 1771.98584004 617.790223493 1003.14812609 1068.40451251 1232.40243975 1287.24214369 649.651719036 1106.11522107 674.773327422 1469.41116286 464.693971144 1559.55492177 1002.92690816 1025.72713307 1748.52462843 1101.3431839 949.780801309 1376.58385534 1775.14435251 1772.23805576 901191.949642 1431.04398464 1666.00675213 1586.04890966 1227.1725618 2040.40731366 617.028311775 1479.91802861 668.716591674 1658.44140253 935.608111931 1570.94004298 1084.21682694 720.139130717 1210.62684892 975.947853111 1448.94243196 878.066015472 1188.19613598 555.591348113 1488.27931678 650.548965096 484.965684007 2007.06826703 832.850993139 769.019660616 1579.57934996 1344.00205381 1658.07455885 1788.12081255 1379.24441947 991.778961544 2073.57011468 1323.63513204 1003.81402101 1794.67959755 950.050672412 1712.45545536 1337.41586889 590.07599196 787.007537993 1411.54914069 782.861111188 607.52597207 978.387416048 958.535785337 1643.64888797 1878.08167498 1706.05897083 1876.32837277 914.688572706 1253.87201078 762.366682884 656.660768798 1101.88347683 979.353942741 1628.92627959 1057.68893754 1769.59768351 1430.6385025 1049.40753411 976.620974507 0.0 991.471025956 1747.96752894 1812.54246935 1193.43822791 1587.20942058 1869.66149024 1651.40573445 0.0 936.444697157 738.063356626 914.596403737 1910.76517879 591.81625115 1363.16759219 1119.8403059 614.117093909 1060.00904788 1135.29392039 1967.93416903 1667.52067358 2063.80147098 1628.6945283 1237.17367433 1429.1579723 1384.90959238 1636.86333237 1808.12419307 1950.38660757 906.751112104 1179.05061423 1463.92010333 1358.528616 359.566899627 1122.89387751 1867.5016791 672.792234699 1549.70202728 1976.86987764 1568.87935912 619.520801656 986.340670494 1212.88394678 1463.65663146 1436.44276173 1513.23355896 1828.18186738 1812.36825277 1027.95145915 0.0 1469.47386708 0.0 1674.21892309 963.393108484 1440.63467788 1312.59177153 1480.35488739 1166.03310559 1667.29705491 1524.05677554 1088.18170389 1922.41883896 848.513982797 1012.08743389 1645.96627718 1211.87099446 1184.10841059 1037.40734249 1100.60049722 1684.21178304 1743.38242703 1181.03107632 1144.94176778 1698.91946632 1693.69736707 1225.27830121 1111.17494558 1235.65702806 1025.40917081 1880.12335609 1068.52198473 828.166850999 1929.79958091 0.0 1742.82164934 520.194222509 1329.92500555 1583.51728397 0.0 1408.97920287 648.950733254 815.808586697 1474.56130394 887.892199786 1677.79145293 1492.09029405 490.452509266 389.226393551 0.0 910.291829956 1169.53671622 1498.24484455 1501.62912878 1010.65528847 839.10394193 886.529564488 1789.34690715 1271.02300997 1763.63364547 1013.01659976 1242.20202454 1895.25762911 0.0 1066.70519817 1516.76114563 1623.16674213 1883.36733165 1232.80014488 1933.74024344 737.073745118 1904.14229862 1550.17471934 1790.0914173 1256.65646434 1211.36390426 1068.66802383 840.004479327 654.782392992 1347.87070709 1498.13910514 1066.41710036 563.185790221 988.204349487 1233.06786237 1188.74203931 1269.50860805 1072.97604016 1042.15134467 1250.27855728 1314.75075114 1725.39095956 601.614823392 1252.71443223 544.354335357 1441.20497007 1347.16113976 1478.84849917 1405.97917581 653.897870925 1391.27357155 735.171705136 1009.02394951 1701.49038233 854.828251332 1367.01234218 1070.97752139 990.247291288 1022.83222646 1199.51195599 1009.86169458 1928.25965589 993.620405461 0.0 1127.90842726 1369.91195656 1297.65583235 1513.90003366 0.0 1590.47897536 1861.36423513 1463.89583884 1052.65796359 1449.10047038 1912.22257353 1078.52087739 850.882700581 1923.87409484 596.534466896 244.492866388 887.248503993 1597.37100829 1542.75442741 572.550299065 494.185889826 689.930366688 1620.12858035 440.269581291 1694.56248218 1299.35177105 472.430184887 1308.73196482 1374.8104077 0.0 1274.81018663 1021.50823123 1138.29311814 1830.56946587 1326.98352758 1070.01298881 1039.86406797 1164.16563016 1427.23497804 1605.92096834 1635.2222384 1286.39542654 1223.25783603 1487.32328565 1068.13999324 601.539750783 1698.8789976 1747.43120577 673.358760369 1608.9365535 1356.29837519 0.0 1371.32583645 1253.4131283 1471.7003534 1090.89027554 228.974207031 1593.65325375 1419.09821366 624.278927932 1175.05195372 1414.12131428 1451.73590199 1216.12227965 860.173460053 1313.91162681 1079.08887079 1017.34259357 702.200142585 1752.56545996 1876.86222387 0.0 1144.73224067 1680.64436627 1270.58899452 1092.28969427 0.0 1688.60244893 1192.02827247 602.240420309 1074.79190415 990.24809667 1163.9874779 2015.080365 914.66157774 1721.65046044 0.0 1806.00061494 1641.45055118 678.637439512 1442.82671293 0.0 662.202353691 1366.37700015 601.673603715 1247.22350313 980.677815839 1884.64296983 1108.3504238 774.024514638 1255.06675316 1644.22187398 1646.55074143 1269.8885257 1707.67670332 803.993288693 1137.69709914 892.094614414 1386.40073429 940.870103288 1533.02556381 749.832969201 1824.68898308 1355.25280172 0.0 1260.43024068 0.0 703.07651787 1411.12717607 1658.20053216 1520.10618809 765.689726261 1646.27928599 1828.49760481 1556.46088803 1536.59890469 933.807926803 305.913007947 1010.91578032 444.519732479 1341.63386546 1974.61714291 1060.74817668 1822.0151579 1615.09501891 1772.60278088 1990.44732219 1961.8265197 1364.48106602 1055.1722546 849.066394205 1852.24279677 607.220819515 1645.98010492 592.251233621 1117.74470467 906.339275579 1295.27348915 1182.15107182 493.236321918 969.476035207 1759.19301444 459.809603101 1790.67738868 501.696474431 1281.8286846 643.774163968 854.397891099 1243.39965342 1490.62850314 1220.48179128 1943.72871898 1231.09224049 1109.27228701 618.078571627 959.413786303 1608.75023392 1097.11419187 0.0 994.752753192 937.145811786 1539.81537158 696.428947555 1497.34699543 703.82143529 1425.21263711 973.562683789 912.843925024 1620.69036736 0.0 0.0 1453.03690206 965.727554335 785.639159792 1363.25927969 1628.00853275 1054.35236699 0.0 625.536711858 1314.73624992 1222.23748002 1666.30511388 1502.62642855 0.0 1892.53199067 2041.090687 1044.91904047 1878.54302663 1580.19158439 1547.92138367 1719.00079861 1281.97088033 1613.09995831 1584.73921052 1430.45397374 980.62252659 0.0 1459.37384818 451.777777825 1301.70372385 1057.83977676 0.0 1652.96775706 1168.09298007 1302.05243255 1752.43609183 1275.40472114 1115.3914178 862.434897685 1094.43115742 0.0 1618.14073442 1319.53029582 1197.29303802 1394.62221304 940.019997258 1528.13480063 738.447878533
conv5_5/sep_param_0 1137.46805058 346.498558158 844.347646919 751.140723271 551.234645848 522.400916669 783.047041206 754.224556082 782.437362694 592.239957217 956.17865009 840.861902356 713.213380937 772.742208182 611.514203987 0.0 934.975858085 709.749712801 639.379351083 796.585401206 844.904779773 1017.83325322 408076.374931 694.180641013 575.054338989 1231.18098254 1093.940198 790.711013198 1045.07164129 837.089646837 872.132571773 867.833100562 765.437489565 956.205791183 567.254756172 914.68739471 704.00799858 0.0 768.082939874 726.544525013 859.341981242 648.592835867 0.0 747.10452533 881.284135517 676.259147042 893.768162725 642.180844024 0.0 0.0 707.953330775 681.190153608 921.105553311 637.46430527 671.698192888 1109.97078085 932.756105831 900.720530708 541.363186347 896.878794607 678.260416102 0.0 1015.80237609 884.538324239 930.045946497 1047.84258754 1056.62300054 604.99760587 792.476805004 862.43769036 731.665848079 0.0 831.581434055 922.422171054 720.700834205 716.536881806 883.398976654 557.975495975 890.824821356 986.947971852 991.839786727 805.680635203 760.842402508 1066.09595172 742.935925936 643.65441629 663.983493795 0.0 316.649801416 1157.85151293 631.026739777 589.968076004 568.579033568 760.18813663 831.633446965 0.0 732.810309596 878.06013542 936.552848902 863.623766464 835.630381252 938.285337712 1131.68539963 0.0 714.530819812 1226.44182754 895.803012222 841.568314122 964.01368717 1060.73497481 718.298255535 912.56028214 922.26805404 865.628662391 825.091996105 817.162952029 767.179849159 927.619768903 828.193086142 917.093871852 722.546097315 538.109054326 709.925594811 750.944557254 882.669530594 556.654318829 756.208612792 997.698413588 758.373014858 1017.28934626 850.892809574 818.91804983 943.466015876 976.309181205 952.614291518 877.577516093 816.927815863 967.658421741 786.169419607 814.177051354 902.858924005 550.434200133 0.0 946.095091439 933.153172731 537.475254254 944.517753928 961.233702989 592.225553676 772.61163374 853.773004334 886.87449153 975.40357138 895.987593214 867.850332418 1014.22040675 753.763831049 958.286931568 927.688831804 0.0 463.598920151 848.103205016 755.899089355 822.493106232 993.008916757 679.319748786 410.095598929 403.804746108 950.172159152 0.0 781.473852229 769.909007234 1012.83337439 815.238775053 945.059645206 775.483283731 802.125806542 875.767144548 717.558581231 877.433502194 927.260182037 0.0 620.387451132 571.746627947 0.0 800.974696839 939.76076772 937.414735695 517.881226862 727.298754632 500.843849408 928.598209467 922.520617291 687.666880671 777.768110125 449.276984424 759.968445729 404.960245708 740.972111997 614.63149467 955.797550246 1057.73186129 704.191169793 809.295775595 0.0 1038.88223688 984.040816303 501.147065651 892.556320586 881.146190446 477.423545579 437.487839766 863.750151689 978.951675348 835.36902326 646.346790231 316.393917926 636.456201539 841.211223643 830.365976259 849.313711789 748.290869585 914.578246972 946.182584001 905.777425223 655.561384699 793.912609328 720.020556699 702.354995751 968.918457529 867.489931547 938.670895893 959.195457712 785.33699211 827.672958877 1089.09723749 688.530305365 915.573121283 1072.59052054 804.38733963 1026.46643333 701.55409617 751.889066438 971.423818436 871.804186505 895.248972958 918.9437643 740.126664548 864.656937632 0.0 1060.9614985 708.955635173 781.257586251 428.640862727 528.905675814 915.942795339 889.213939671 752.423618833 587.89683955 889.657530484 1001.46500629 503.17947255 857.151881207 430.929865249 742.531190825 729.773208941 586.739036161 999.486200816 541.155740543 612.233346776 1015.05955281 952.67424112 772.337109069 875.368041398 677.848497485 916.513684863 938.960246675 732.499494253 747.189279811 789.830149961 491.633279645 482.479337144 515.603213224 729.596974649 448.438736639 0.0 657.020536956 605.504708618 834.685401296 833.209816846 850.898246443 906.529478074 763.274192449 623.891357087 1047.2940698 857.947687173 839.70041777 1002.93316325 812.033096718 913.854134832 518.876029806 874.381426663 941.936462031 914.034271141 831.865839931 939.823048532 0.0 625.269299596 514.063028323 679.635782411 921.177333451 846.776409199 1034.27480939 0.0 947.586460055 863.958803234 776.610358424 935.742370574 796.478575755 850.471663487 783.077906222 368.282614527 0.0 674.248422944 668.697755929 654.03511219 980.956952454 983.536275609 586.553287078 846.33806351 899.181639144 650.33571057 799.400922721 334.013198239 975.472229318 853.318672332 0.0 785.086544412 370.74020572 857.796661298 692.053726489 909.68623007 762.405555271 832.062456629 874.232989548 723.294683391 799.742978014 853.909526621 445.195521146 953.336851009 992.075424882 834.133006368 991.951530602 952.437468179 968.088185857 975.823708341 1052.04913416 897.822367853 0.0 0.0 908.531289432 847.87556995 932.703127864 668.107722207 886.89368765 1010.06168198 723.915489314 970.259865791 843.700284763 944.116815438 789.295526882 888.646892279 715.417124329 825.651273537 894.397328108 807.358406068 683.3405048 601.284270694 967.765772049 242.502491598 877.53007844 0.0 686.599849675 784.422207619 751.70139337 953.043795176 974.711169208 1005.02590775 742.234053311 643.921588194 836.886867236 1098.83272621 724.924871649 789.482844168 749.256111226 957.854304942 903.859891322 688.028608626 767.474008682 496.776843139 1058.3614159 872.7444147 996.932726077 960.542861284 784.119604467 585.22851969 779.328466096 0.0 546.720806241 1005.15107448 621.481542831 1007.25107112 854.9844948 556.553919018 880.207144458 842.230967321 0.0 848.412032268 589.418326202 300.710490357 669.206536137 414.434465937 651.245596896 945.365322231 914.5890428 0.0 880.829098815 763.217734452 661.424139627 900.525240845 860.464558191 691.923884706 889.68130511 881.52733013 945.455301891 773.233658698 906.277402266 1059.14056225 442.838650571 959.662685462 830.821781526 866.810049181 856.614299992 821.835855494 778.318854249 0.0 867.838844438 0.0 798.467013916 781.577765506 0.0 809.632662444 815.015577989 784.796436143 623.815325223 0.0 827.006444048 796.988171081 928.06138332 849.519087209 682.135092722 759.46765139 945.375389034 732.798842218 827.340330195 870.036716035 774.107612514 807.79090384 671.255555358 911.686321291 504.474347934 932.996470677 870.267077081 1167.53692317 1034.18564018 853.221884773 885.376071046 0.0 903.361428381 830.112023877 916.25425366 1048.55974526 847.879196978 864.763356418 819.492939361 750.37781393 786.291342075 755.152916764 788.83010466 978.206622168 835.656108175 869.784817796 758.603735419 846.273018839 930.784876178 642.196521881 798.569285383 821.150697 1031.99582156 730.422029218 722.844597786 739.654880373 905.746814624 880.442741488 774.577711373 0.0 661.09250489 607.242537971 204.163206657 846.834799849 995.179966616 895.065730128
