conv1_param_0 609.779009651 405.42843421 479.206452523 789.642741012 1312.93713617 592.243331862 706.172864842 1483.80946369 432.351628426 446.85615237 517.838244391 906.362986284 412.956614103 390.571509409 448.628238501 712.983255384 640.408821667 419.130284565 459.023528682 1047.22110616 1691.12493022 519.017779295 0.0 687.449782432 660.299399799 918.749307717 2142.16621795 785.059208842 534.276532469 441.369459633 647.989350344 741.655141147 390.872902575 874.632853269 483.097243688 940.62722213 764.160911926 706.661595204 431.804357366 470.3819299 4495.57796721 815.142012731 463.191965393 50637.8597105 397.871445915 1148.77038794 2093.48788108 689.10504729 785.89452569 662.420373896 905.267422399 818.168544439 1174.17995712 476.390797124 784.33796335 812.856046955 407.319617139 542.595732766 464.700660136 463.400241367 1638.80340639 851.191600526 1077.40411571 429.024286704
res2a_branch1_param_0 1637.11989858 2279.3228398 484.286352449 4261.4514834 1022.87954918 337.530701467 647.102044833 628.790822108 8377.68289544 588.033898712 687.258811656 818.474186949 503.316935759 1158.9492316 672.202378776 636.777941436 889.221268922 549.818399327 807.677913865 549.349396519 696.579842203 476.144932028 612.16509819 1166.99274048 537.227529556 730.294162814 645.391928415 476.004680725 1087.21888659 575.661154445 606.024210604 694.050621698 486.374264403 4838.27631562 752.533371383 747.01330803 549.291119483 1024.33690953 606.089932984 972.932752796 718.463682659 418.451610382 765.637174704 1835.55276035 614.053379715 410.244477014 491.797479393 563.677123533 606.111225782 2805.39013528 899.230592739 554.872478153 416.65004015 451.516036114 873.175926366 2915.54038335 513.035925409 556.906313871 850.15497496 432.302197944 591.471787059 2393.68084768 395.905654817 653.106359201
res2a_branch2a_param_0 1524.59562695 859.841438889 577.145800114 2059.15280257 605.215850745 1431.83723661 1034.36355461 1139.46029522 1136.91141527 576.557381317 482.066386361 922.254082245 878.081123044 633.221354803 852.62336636 631.984944762 1410.46558198 913.845414038 1620.99275674 877.522759944 908.501460849 908.048462205 1024.83286189 1509.39454437 2239.83114539 1162.08756372 669.36626047 1421.5797869 1245.89837395 1717.26362319 832.339388125 1405.20388288 1188.10039772 1067.69727864 620.832539254 2193.63962201 2819.81538252 1223.361256 692.25631178 1081.15366872 1290.3255967 1203.16815745 1188.80753499 620.392238001 708.825741072 1686.20390268 885.50108334 2372.84387883 638.338793839 823.451875727 1284.96255176 1366.22192527 1752.14229175 2351.3406621 529.137143505 787.07105948 1207.03190521 1510.78157433 2608.30381439 478.86380864 1059.46477699 1563.83142092 766.676957122 2038.53264936
res2a_branch2b_param_0 944.205616139 1363.32306483 868.02781616 1161.05633193 1453.56078133 1750.47772568 1743.72306255 892.680470417 1247.06655767 885.97238138 1352.38770065 1284.9007548 1724.67677393 3307.12563871 1020.34863498 930.589948877 1191.83915786 680.018894428 727.727872197 824.662561944 1025.49214408 878.078499536 949.241835969 1151.67445553 1297.87033716 1347.25952483 1766.19419602 789.732226654 1421.06116874 1330.34298873 1758.56015237 1050.97573655 1141.47374841 1076.03657791 1141.13942323 1247.6038034 824.167419937 1354.96613318 1374.17067845 808.772627379 1440.20536873 681.434424248 1098.67174123 3727.32249423 971.176971138 1731.77408735 893.488755262 2172.36506216 1124.65597406 1374.38174988 1279.85893303 766.157367428 899.714058417 897.774986001 1315.35258019 1339.37903245 1100.79872866 1036.47287114 1577.54982567 1384.86391082 967.396793348 1083.98447008 1115.41287617 1346.20508321
res2b_branch2a_param_0 979.425071358 1089.62550955 841.105209778 1131.95805228 1442.23854078 1067.69948562 1307.54253731 1016.31475851 950.003335948 1820.97789517 1099.82574161 982.695390139 793.770125506 915.611285143 927.152854548 966.570770633 1987.41806146 965.655665959 1422.67075933 780.333913201 918.980128791 959.367132083 742.414118056 1060.05189647 1026.23932287 837.972516142 1022.14540487 1191.73541618 940.529129135 726.389842641 922.825874258 803.339968871 1013.19760289 970.927594639 790.626952999 710.485982849 577.146933522 908.939886309 733.162886008 1009.25479734 812.655615863 613.355955306 2113.42613529 870.322086822 851.466612345 845.086073325 677.840626492 913.701887809 796.180881272 1721.04449081 942.793585377 1141.60845083 709.571318579 1020.29140827 1062.64420385 753.547637244 1325.18918936 1229.98572968 1313.28713462 881.383931162 1386.92606734 791.672520469 1394.93332899 772.849348605
res2b_branch2b_param_0 895.16632106 1180.644641 972.920979918 1089.00434857 1264.25816255 1410.89158865 1073.9471424 794.050335603 1507.4643346 1234.3148765 1201.50023941 1079.01591787 1641.55946677 1816.34908032 956.213837257 919.775615487 1293.40471936 1768.41078763 1014.25190853 1446.2155192 782.08619201 1416.58949944 799.733597596 425.926449099 1316.17230612 923.088840805 1075.84220684 1418.15923693 1405.75596976 2104.68723604 1614.48373407 1302.03154653 982.758619147 1216.4380968 1002.14610726 1575.12907165 1252.31941748 1631.41713249 1202.48099179 1065.9779457 1064.66584112 1457.90011016 1357.82238753 1674.28420883 2537.76524641 1364.18775116 1467.27507313 1619.63073792 1293.926555 983.072051439 800.792797134 1649.03488526 919.574059864 905.715724845 916.88086394 1277.9847117 1503.49852862 1229.50079314 1181.34497524 1262.63879096 1525.86581237 1188.07613433 1353.99348519 1632.71694655
res3a_branch1_param_0 921.896847552 346.973038141 763.04062265 1847.87526381 1420.91179255 1079.08402062 2614.2087522 1010.19301541 1398.24881922 1953.81755927 473.679000357 4168.44176262 1410.27805252 425.607744531 462.171732493 2493.891911 964.703854084 2835.35790821 466.41490772 1497.7815716 1295.22890375 607.367081342 1380.57766734 1706.71406928 1700.55337014 976.411524114 2220.74978559 1690.40227914 1988.25747656 330.430145957 885.546810413 2349.08015301 1420.09841552 884.301998576 5393.91740185 1070.09836656 2487.72152478 1082.51685909 1967.56095091 1631.55486031 528.645553493 1261.4251151 1171.7500221 2498.229572 2028.1565013 1553.37047149 1405.53967247 2592.85712367 1212.51200949 3489.12261407 1345.72055162 5003.49643003 784.712255977 1572.91513716 1458.66824922 675.709910527 1952.12304376 509.577004651 527.736042124 1060.40912473 3563.6516523 2212.68359328 1007.57353386 1290.77300725 505.49104676 2232.44684845 587.172126453 2163.12409119 1898.15302749 2992.51215103 669.755141692 1980.35399592 560.728671907 1156.63522978 2088.1010786 1898.54731941 3270.14049096 1002.44738696 336.518687336 1176.76076108 1398.83057933 1063.94654567 1308.65861714 2513.91062766 1320.95647822 1518.19231275 1849.75380126 861.235633956 1824.04892309 2019.1353238 816.723963217 2074.55534996 468.289237787 1336.32512296 243.063209134 2122.66035526 1417.15822921 1273.7450751 2642.4953529 1443.1102274 1242.64023189 1695.27874768 1313.50724363 3008.67796224 1596.60106562 1074.190785 1691.4061747 2586.02140164 453.376713696 1983.30797496 3212.2172009 1653.36954952 1667.89170948 2021.69055926 1388.39701669 1429.87884251 2034.53315944 565.358986284 1263.86380065 2321.44601234 628.35695327 2426.36836444 1177.5865625 1955.93934008 2541.66962987 2709.96414796 1352.41012616 229.116841171
res3a_branch2a_param_0 1601.59372038 1319.01751352 1683.19147529 1012.79173056 1825.91118602 663.95178566 1742.74217859 1083.42962995 1135.61317743 1981.27518994 1024.26187798 1782.8126129 1461.63560729 893.047325456 1191.60786785 1579.57569057 1570.0712705 1025.25911274 770.945439049 1335.94535789 1670.48835255 1095.87998024 1225.12383599 1526.98092838 1227.72896583 1627.61353099 1435.83063321 1154.38829958 1336.9714081 887.051348761 952.840712699 1081.77256279 934.4930064 922.230331167 1307.57212628 1086.89617755 1486.91174746 885.49961132 619.566918594 1950.36139016 1502.15514726 1035.23914452 965.666607182 1725.86403364 1370.3425674 1214.89701574 1442.31200556 1100.64022308 1662.36501234 1500.15915918 1768.88131649 918.696423424 999.132347592 1669.26617535 1448.39455326 1091.27327524 1346.41871097 1393.54317158 1282.299449 1375.88272325 1501.99339871 1435.37734843 1176.97892732 1460.85194589 727.252705814 908.296974743 1007.32511926 1107.51679573 774.45460879 1138.142098 1582.61221364 1491.42565446 1653.92189188 1169.82671071 1381.45699736 1816.95237113 1492.4589667 1359.22138099 1220.76044604 965.051439097 1146.42525754 1275.65584547 845.735564647 1502.5334466 1695.10729445 1021.942136 1762.94798897 1428.06935469 869.150879234 538.17799804 1458.93567208 1616.60241342 1180.11480815 1009.86791681 1305.36326086 1069.11295215 1017.90339478 1108.06388471 1094.75146662 1627.76880397 1135.9774298 1074.16012056 1281.75639378 1310.50001803 1523.36798794 1167.80488449 916.036614269 1596.64353825 2026.76842681 1545.14790938 1175.07188077 1446.48735571 1306.40603126 1319.1972789 1499.00244351 1681.89139945 1303.05206444 1648.77026519 1602.60486022 1245.62724131 568.781241514 1098.7935557 1022.48643096 1468.18930951 1328.99894737 1239.67932449 1653.82930107 921.2370758
res3a_branch2b_param_0 1554.93215811 2017.65973152 686.764056631 655.707396651 761.727562294 1724.97103546 1563.81305676 1347.32011759 1444.19706652 1918.74506329 698.151121394 1187.37350591 1297.28074289 1446.02425173 1802.38509042 1127.90178491 1271.31697483 1744.7773788 1590.22094466 1567.35093757 1412.41255255 1656.21911588 883.615581313 1997.36438315 1214.52643908 555.969615245 1763.81084641 785.407264802 1300.6033406 2120.3104175 1600.21136215 1193.28383333 1810.0146055 1409.5573395 1289.07237042 1413.58092564 1006.61258997 1119.24419438 1880.15301136 984.631523664 2721.40683549 970.266051412 1249.33606728 1983.46282921 1645.28534991 2537.71102985 1319.29703358 2117.70202096 936.564890175 1077.98272688 1420.23756229 1335.36847797 1596.41265798 828.788410456 1212.26288479 619.358951322 1817.66052901 1106.72695827 1675.67335321 1139.06929573 1562.91144797 834.925555896 1117.93757589 1315.58536341 2113.34032207 1295.62594972 1530.88584079 1059.63805813 1576.97698414 1468.72809699 1053.27830189 1042.50464177 1289.65579392 1147.52883143 817.262153967 1212.60715057 1122.91784475 890.198531806 2028.66605113 1204.8409682 1288.24106124 1341.52521424 1126.15875001 882.5592077 1288.5628191 1492.97217161 836.756062016 508.421168649 637.210610375 1463.58009659 850.724216181 894.469042374 1638.45244262 1442.48239456 1856.34653556 1901.52978399 1326.10870595 1153.71330592 1955.47104929 1468.25595655 1127.91887605 1867.13244676 950.775074124 871.289491674 1124.39342833 2006.020002 766.753242192 1416.66166949 2192.74141646 1499.10382223 1364.64623397 1097.81399781 1177.14530804 1756.1041688 1549.5760811 1522.09325731 1303.65280001 1993.35644845 845.791965259 1975.4915658 1224.93067718 967.383836426 1337.87154585 1194.53208025 1361.52682756 1576.40762003 1412.4646343 1518.47524508
res3b_branch2a_param_0 1441.2591969 917.566710176 1429.40641238 1174.53513965 1338.53309729 818.959755516 1682.28446545 1849.73352766 1689.01338595 1377.47391009 2052.26254424 774.538573319 1041.76626054 1726.2003045 767.352186292 772.04277728 1274.5282318 1692.60923104 1641.68673769 1673.93859762 1934.18435584 1655.3256629 1836.93445902 1740.21004191 1554.39787563 1806.74507107 1149.53301583 1478.56539064 1311.57876701 983.316361136 1278.92391845 1411.76471929 1110.13878165 1576.11522243 1747.87074064 1892.8547941 1427.96455566 1267.32846188 1482.77867375 1805.87796969 1465.13586572 1762.72447699 1235.073818 1463.09644059 1654.84885249 1284.31572179 923.755974297 761.364259725 1491.92535179 1079.38160137 975.011903671 1317.81075167 1297.91846475 1729.2047571 771.071055972 1465.06862018 1132.76633535 1804.74128082 989.654999886 1004.86641276 2471.62885949 1285.62283281 1716.86787744 1316.5781288 1485.59614717 1268.72952859 1153.35889702 1310.50435045 1688.77526574 1598.9348711 2091.88047664 1123.47648247 1551.72588711 1976.00477144 2277.89838877 1675.95772048 1517.04881035 785.321795756 2061.4685326 1689.7112321 1888.36374312 1247.29140341 1093.77053667 1860.58547052 1228.29631875 1079.96507598 1984.89944077 1335.06129816 1563.81004393 1452.33271385 1757.72000472 1674.93849845 1710.84016516 1549.50860828 975.835998494 1588.8810963 2230.50771141 2300.54301348 1242.36318081 1081.85879759 894.914228335 2071.12671804 1691.88077704 1374.2272902 876.115093635 1428.04746047 2216.75951224 1365.80145091 1569.48852798 1508.64082772 2118.41630739 1918.96215145 1588.85043919 760.762128035 1232.02493763 1135.70979923 1873.79342605 1171.95344185 1363.95469619 1923.73600376 1703.44751369 1322.41703739 1286.03244511 1561.74096687 1048.70979824 1531.13941486 2061.12005605 1015.85080621
res3b_branch2b_param_0 3250.78302468 2076.34233916 2122.29167814 1596.823025 1804.10482523 1903.63193463 1745.6171738 1643.94103873 1291.09867169 1446.40843282 1364.62351008 1101.01594833 3086.3630708 1275.76086786 2164.16262784 2203.46156541 1619.88254576 2086.77358766 1293.73465905 1599.66788391 737.829181996 2525.66597259 720.429738237 1366.4464448 2223.58516753 1357.85364689 1653.49721482 1552.58719783 1675.05750018 3176.85368124 5324.96474427 1261.67076396 1810.32006085 1509.75323152 11312.4055454 2863.29613951 832.743170326 2179.83124518 1601.1308141 1718.33536975 3750.50872095 1616.23484071 5400.74489284 2532.12932514 1772.13800836 1748.84305357 1185.48508836 1762.20383737 2228.86203335 5178.59239147 2693.19587673 3405.19320681 4243.21847359 1399.22764732 2953.61595865 976.92400859 1597.11552527 6223.47498734 2435.05619143 2904.69834357 2070.93107738 1503.46007128 2345.71076187 1224.92152258 2066.19767441 1456.40545325 1528.01767753 2180.85170948 1614.72843721 2127.09754513 2250.48408723 2904.42340768 1347.20947868 2234.87463724 1362.43595165 2767.49714753 1365.84883848 1614.61020575 2354.4873586 1395.35605727 1407.93970465 2765.37683507 2536.00260122 1291.30309024 1218.76799927 3287.33993508 1459.58153663 1520.6064366 1229.66452513 2325.81386982 1892.99122005 1767.13442771 5551.90628988 1905.39427366 6864.74935148 1623.73017446 1728.90273653 3388.48425662 1492.62311205 3502.68202431 2461.22210219 2844.0582862 816.228221426 1516.63874236 1783.24083983 2428.14821437 1270.85319608 1775.17189776 3287.9493029 2466.59839792 1005.30639093 1364.97537821 1999.33605766 1425.13625697 2453.74591579 3573.85236308 2158.94311405 1501.51285896 1811.80093209 2337.87199046 4656.6428025 1855.4952079 1083.87618582 1285.73580659 1631.16703325 1953.6155757 3051.63792684 7334.48274822
res4a_branch1_param_0 3143.23377362 1398.34253366 1078.30957733 1268.2073394 989.177979889 1583.87174298 914.475404958 1209.30794941 2230.38834176 1461.27912254 1345.67571899 648.576498662 1630.937921 929.325010127 1659.32562366 3608.61106301 3867.89909537 4079.22279142 2239.8279079 4456.77620609 2054.85629226 2537.93603425 1778.65761883 7472.8198157 3066.50369981 798.882846679 2217.20471523 1080.74443523 1578.5379876 1950.37678833 1255.09493891 1398.62662133 1293.4411311 2625.70843181 3526.37083715 1781.35397124 1679.86077704 1673.90522788 1876.26331493 2538.54569245 3488.44854106 2792.41737451 2138.69915174 1458.16188768 2420.91652382 8667.19850368 2735.61261675 1280.28545827 6054.32790862 1335.74655434 5029.70873168 684.238738772 1910.53259578 2112.12213336 3219.93161727 3247.52593154 965.033627745 2833.8570306 991.708796787 2201.26509548 944.17465428 838.048898887 1280.29824784 1852.08279977 2392.44835674 1747.59710286 2445.65199293 1975.69168658 861.464840387 2499.50293481 1444.63732946 1474.72804277 2410.8991753 1260.60492495 1202.97506743 2659.12801968 2206.37417213 1004.00026576 2313.64253193 2480.32317558 1334.98559696 1705.76719975 2930.84131463 2189.24155164 3066.79583288 2293.76842208 1112.79754811 2113.19962967 2292.68429054 2100.93383599 2005.62606393 2276.78708346 1441.53490292 2748.14285057 1590.52884029 1305.99975007 6174.57866305 1748.85453698 689.012458179 3475.40203757 1874.88679955 1133.7761081 2191.77109243 1720.02472785 5045.11952355 1512.65545555 1799.37455054 799.680621127 1463.52844949 1042.10031072 3061.27597188 1139.5940657 1343.52016543 852.862177936 1779.14030216 2158.57006385 1812.59817175 1911.22494308 1701.99921159 1416.8857614 1041.24551881 1550.89826796 3622.42636252 2144.69291279 1229.00285829 1555.91973167 3925.3901448 2520.17041822 1631.48115273 1350.64165554 3667.69706604 3296.0287139 3108.26004375 2004.00803407 2919.52481236 1829.61513174 739.975011376 2354.4619916 1936.8995379 721.929410242 2396.11848645 1426.01231971 2756.29338324 2635.79491593 2215.48256468 2019.31017646 4099.94400068 2240.35279851 959.593641895 717.03536269 876.682216925 972.214684632 1969.70541937 2380.40246829 2228.80199783 2220.85307934 3161.94727624 2993.31669573 925.764379838 2383.8278261 1193.77689964 868.911718375 2529.68785127 2970.81272038 2641.22522383 2587.29533329 3107.59505965 2965.15832175 3288.24043343 1308.42235288 1340.08021274 1582.57459829 2972.86528368 2049.74829235 1421.49798696 2023.2736368 2408.92678619 1372.83639194 1065.49819035 2105.49471195 1331.32810903 1549.71259417 1631.62388912 1764.87151108 2531.77165941 1636.42207573 1437.61547765 3487.42400637 3040.45559178 1170.07492147 1759.87139192 3181.14524616 1472.52991843 3616.79432419 1706.98599314 1727.44970836 1746.20891031 1111.07615238 4512.18636351 2503.39369167 780.648044369 1083.54967197 3189.04772931 1223.29523377 1365.96474944 2413.2027308 2575.13361343 985.681561098 2603.91192927 2297.05359807 1842.54804073 942.889334855 3782.69234316 2612.53414495 1553.75348212 1797.50022103 1756.95599202 1971.3952696 2055.0122396 1011.19488211 1231.49541727 1502.28435935 1441.21471841 1724.37877504 2849.37034682 1758.24507091 3064.09317651 2179.20908869 3158.06477333 2648.39601524 1637.0263495 3204.688472 3003.44267467 3004.4050802 2055.21516762 972.648284307 3703.20152424 3072.69285431 2868.78659105 1482.43088292 1887.34257219 1917.83663424 2824.42911985 2045.98807587 3366.39724458 4107.81572891 1504.0197533 2775.05742106 3669.81604063 2769.08417499 3897.72180202 2907.37618193 1985.2522136 3142.68931947 1364.52300965 2474.99026173
res4a_branch2a_param_0 2235.95697971 1676.28075749 2440.58822386 1697.00954998 1083.97185533 1572.38699296 936.573329543 1546.54098014 1560.46994633 1999.29713006 2389.97662287 1644.78891116 1387.66188649 1298.95174569 1961.47953954 1651.40701437 2098.08875739 1809.35214676 1237.53906455 1970.09516265 1793.79874021 1428.68518011 1801.80705049 1640.67765011 1728.64306918 1973.01128538 1039.52866029 1321.79407057 2104.27398884 1689.21022466 1845.91177908 987.846186781 1725.85739343 1547.11227994 1765.26958929 1518.59118041 2114.75680401 770.41733356 2379.42821168 695.998935115 1708.16099531 1816.38062893 985.334907188 1549.67765355 1555.67733501 1574.09545663 1150.12575033 1387.15021925 890.335698626 2544.9420342 1644.95954307 687.285302858 1563.28871239 2017.9793318 1761.10598147 1879.02759667 2273.75231107 1857.58885746 1941.2196174 1568.51165996 1924.88389097 1676.43061642 1362.31486821 2080.54209153 1378.36166132 2030.56021736 2383.2448916 1349.06921786 2209.63056907 1299.99619099 1340.90057372 2190.43409365 2236.3499252 806.702891393 2210.13939437 1526.36944949 1580.29735674 1676.81849461 1859.54339738 1758.63236311 690.37891407 1901.47378454 1427.71362692 1038.47273859 1460.09826493 1894.16121213 1162.14540109 1728.14937291 1180.74842361 1228.66489675 2076.5790999 1888.33968564 1686.03594774 2183.90569219 1393.10412077 2222.90590001 1706.78293935 947.76665092 1379.90563862 1910.49940485 2400.79259832 2240.72387351 1635.95907504 1495.30852979 1983.80447104 1257.90414067 668.454193599 2501.87838547 1897.65600914 1396.43321872 1844.81818613 1634.37557887 1491.22928727 1823.56010115 2413.87681216 1680.09953615 2373.66184876 1492.57566824 1186.57208535 1336.25001164 1472.84329857 1518.88224662 1990.68512407 1511.17803071 782.455321007 2105.31579716 1096.97079383 1930.91206434 1190.35009383 1529.05117196 1931.93320538 1771.35460229 2095.53523063 733.719262922 1715.69330394 1698.41230733 2221.23841799 2345.56776959 2164.45515794 1366.99315712 1974.50689383 1468.14934948 964.721762465 1657.13979328 2275.62248058 1781.63325533 1770.53712959 2652.69599103 2070.97737357 1628.13355553 1822.71245562 1074.75151497 1305.29728711 1267.85718873 1458.91369527 1626.08492122 1816.69791786 1806.13112318 1063.94886999 1540.29374217 1411.08138396 2184.40105788 1479.64504251 1852.10171621 1541.97470661 1801.3578682 2138.29336414 2453.93366671 2081.08859739 2314.08807725 1147.69997165 1288.04228275 2224.36600403 2166.55176005 1236.98684105 924.831738383 1950.36272912 1249.88333568 1502.06010584 2140.70405511 1870.48789678 2225.36003481 2231.88970997 1611.40483664 2273.10889016 1167.39803163 1676.32493754 2340.97307229 1352.23739383 1292.56193395 1658.03891559 2016.43863536 1814.57908335 1896.35594904 1209.82791688 1588.98581331 1150.54223979 1108.3088423 1239.41296432 1266.20789693 1787.78679991 1808.65582017 2808.2057192 1404.60292136 1217.32950011 1308.39513573 1096.00519324 1029.8112751 1977.18631749 1798.50938402 1690.36623824 1868.54880157 2537.52081797 2032.14353335 1831.14840641 1132.90795064 1284.79160761 1689.45265372 2268.39684449 1069.14990094 1166.04068324 2270.34711089 1713.39168285 1405.76964996 1948.72922513 1268.85589273 1692.34119591 1002.14351487 2269.41687948 2129.07050745 1477.67431326 1603.3412426 1275.41598192 1957.20958807 2337.53535907 2339.98215065 1055.02890099 1798.01935943 1604.3502118 2231.82936513 1303.96364984 2005.19925602 1382.02912358 2806.53703952 1626.2054598 2376.59554246 1062.44046905 2392.3989962 1779.53852739 1455.86969845 1871.49850807 1203.49504026 1679.47976405 2095.09273624 1232.11559542 2082.11558018
res4a_branch2b_param_0 1744.2353364 1391.52605316 742.37654617 2149.04923883 1591.22594078 1491.55876994 1983.01125777 1602.49442354 2381.70643492 1600.33170111 925.293705388 2002.8824726 1643.84639144 2461.4570281 1395.39409482 2219.9015201 2409.39412323 2704.48594415 2178.57656723 2702.48011541 2123.09606147 1359.68303853 1049.33046447 1616.74531833 1247.68663116 1311.94551012 2141.92570497 1828.67591716 2380.62138701 2732.57591842 765.012405608 2791.52951072 1936.81854812 2752.71754152 2109.49467201 1515.95394558 1714.23842159 1458.22837593 820.134924047 1142.29591269 2241.16785245 1655.81835012 1601.11833123 1006.39994275 1363.65200739 1820.71414513 1950.20563683 591.254193374 3123.67511502 1108.07994772 1579.34854904 1613.35264071 2014.16484018 2115.642397 2329.16449401 2474.74735617 1598.90712435 1269.45906622 1032.90495862 1394.47925582 1331.54099345 1272.85232998 1369.23981988 1726.09105453 2708.09194546 2285.69850476 840.892266603 1828.40797136 895.31612123 2154.17958448 1990.50078198 705.310120435 1656.06979147 2344.33449934 1852.15041777 1563.73415315 1882.84724402 2008.25555957 1510.52827265 2111.62211919 1353.27187165 1646.98395148 1470.24905438 2212.90363092 1351.13573548 2096.38855141 1949.00395995 1101.87984416 2522.19602389 1481.56308501 1254.21318631 1712.59086015 1462.44733683 2946.84411989 1749.88740436 1369.34332644 1197.64223195 1278.831039 2173.85722621 1691.81142517 1728.54858435 913.340969276 2380.15716759 1110.14319199 2279.20458813 2810.45363984 2045.90777443 2672.39255217 1086.15636893 1266.65652508 1526.23223487 1630.44994547 2495.41837849 1887.83127498 1944.476393 1957.33611924 2428.93796285 2052.46418813 2256.54626004 2210.23597157 2023.82711039 2149.19068077 1694.94969597 701.023560401 1380.95414622 1195.91667112 2166.22755449 1550.55855325 1737.53805782 1338.36693879 2432.15380727 1735.41474583 1816.80112357 1305.58442151 1629.25059306 2803.91504289 1802.7310629 2120.28813123 1781.76119668 1318.33870582 1474.29411567 2242.99555589 1798.41602541 1073.29418426 2286.70778058 2162.53132423 2378.76974452 1169.75349621 1524.79787973 2732.57307105 2105.37040455 1324.45348518 1115.89890297 1660.49607784 2750.6173655 2511.80502595 1676.23344786 2625.10874935 1629.25666641 1891.7897085 909.792853555 1745.04370284 1972.86924734 776.724732622 2862.32610917 1367.83769984 1926.40231598 1893.02569752 1617.59437522 1416.06204549 2499.44466002 1310.26218201 2722.64350291 2343.2854832 966.187477306 1511.92717766 1603.18863453 2346.65113618 1841.36374062 2349.60244454 1940.00094418 1336.90157165 1736.46522735 1532.00569279 1969.41298554 2020.70362087 1636.79134478 2921.27652694 3190.82579627 2262.08838396 1545.87868858 2520.07093717 1261.49289006 2626.82198756 2409.3711352 1683.14643397 1780.98954413 1189.51111503 1582.33660513 1566.96047448 2228.37819826 1167.44536458 1830.26067693 2357.5169492 1460.53751519 2414.72383472 1158.88974216 548.281064025 2492.1381064 1972.34443211 1536.71249817 2073.62914186 2321.04598389 1234.13953867 1598.83693687 2083.55034852 1993.51847136 1530.79331542 961.949207411 2286.81346648 1758.0077007 1403.62083742 1185.62073035 1406.19653644 1736.44028534 2143.78310699 1992.63570751 1916.01417021 2104.94298237 1028.40624337 1647.13180097 2533.45669277 1577.66794844 1992.12057964 2528.56527332 1473.69020628 1738.72607058 1159.68196443 2767.99868531 1083.75441773 1862.65948717 1495.78116816 1986.48258203 1901.04350485 2314.7648113 2225.82105187 1596.27033502 1812.73541859 1321.5693314 2297.76283775 1261.58429511 1974.14924091 3502.40349927 2053.57084564 1120.24022606 1005.26204378
res4b_branch2a_param_0 2105.53983552 2794.79266259 2848.99649726 2306.70593208 2403.40214777 1126.9322451 2099.40496011 2516.78261551 1633.8770873 2001.31750296 3180.41548241 1604.52841479 2194.27541358 972.42333672 2404.99472791 2441.08697986 2317.41584713 2370.22491887 2171.05300975 2493.3755403 1191.4295459 2202.8894752 2075.90171843 2879.59081742 1771.63039122 2106.97804037 1275.21026557 2776.34447116 2583.5221323 1101.42829701 1390.778415 2072.72152904 1886.84054632 2034.66005001 1972.27414315 2082.4758997 1552.19444369 1694.30056449 1984.85668194 2402.99217919 1956.31669382 998.110627771 1931.89882881 1007.55316545 2417.55937044 2036.75098191 2198.63660796 2054.59919803 3151.08742672 2445.05912614 2248.51780337 1830.81975766 2090.90654857 1173.93525704 2329.92395895 2159.57003027 1478.99991115 2430.18686503 2293.94560872 1427.56416411 2648.21291781 1685.32180418 1391.70260619 2024.1248718 1665.00333437 1888.13804536 1157.15274701 1204.15529357 1491.21258866 1914.57142151 3224.06813541 1448.22079608 2783.22024089 1993.34992146 2349.37105985 2167.73459041 2137.56949967 1314.75257649 2428.46370615 2358.56063646 1687.83398487 2162.9023144 3111.06221987 2859.83157351 1684.59344798 541.042305574 1810.33159674 2833.3734965 2007.81982729 2044.09996076 3023.1619906 2004.1948866 1853.81263472 1496.32122318 1405.97627657 1919.43451488 1975.22235971 2035.97335527 1649.37970463 2166.11014856 1545.84392062 2107.98511915 2086.5730643 1734.91170059 1934.2120099 2509.31760446 1671.45250153 2099.94020801 3076.3728804 2022.41183962 2616.43560015 2800.55510418 2207.52627688 1265.96132448 2021.78647643 1872.81716707 2219.3353102 1953.27395577 1456.79666511 2353.72691142 2386.41229972 2004.4310351 1885.55421516 1782.98305839 2100.97241983 1748.87535104 1015.6660701 2095.30996784 2412.8503763 1836.80737859 2038.93364628 3020.24023255 2659.20103088 2477.26208199 1862.24760992 2095.5883013 1304.96092471 2102.7690425 2427.7876786 2326.59623803 2349.20382413 1705.60607699 1507.25732413 2721.34514023 1879.80031935 1438.56704922 1774.55132021 2339.65342142 2772.62376657 2191.17069165 2156.88481258 3044.54782084 2970.91084105 1667.61529326 1579.27392272 2581.46332649 1729.67290451 2264.28585314 2009.25950401 1251.5445618 2079.8716393 1649.35400974 1982.93443956 1618.40452547 2159.20182331 2326.53463265 753.770830763 1636.54682289 2725.74358122 2112.20575382 2173.28890397 2151.84005667 2043.28303489 2200.39557276 1972.17602083 2864.23770937 1324.95546711 2693.87305286 1862.62977056 2516.97196087 1787.52207901 1636.35531082 2242.36588198 2908.32712166 1987.31495109 2194.3425017 1740.01215114 1509.80872761 1888.13072521 1946.10743792 1890.33728627 2017.71872336 1118.53156205 2020.92690381 1540.97577384 2388.89189588 2003.88128636 2107.1868031 1803.37494419 1663.55859265 3392.50160533 1918.96171939 2500.77209301 1522.25868442 1877.54568237 1285.19458558 2127.31044679 2181.47843375 1705.87986721 1756.22774596 2355.85489539 2292.4550389 1550.83533615 2320.0682255 2404.67173479 2043.52370778 1868.6209048 2244.10114328 3405.91306572 2046.51104885 2220.09523656 1576.07354347 2233.26479056 2190.38103605 3138.28066461 1757.45595841 2278.13311099 2344.40559569 1542.80595275 1955.85921886 2343.18159953 1468.84048382 2017.29415463 1618.03766879 2069.42343186 1937.94156474 1713.360166 2321.13448087 3214.71281821 1867.30610074 2700.80907982 2035.62712367 1829.65480215 2387.1467119 2117.91094068 1947.00526808 1024.23873675 2223.20669835 2605.74039807 2597.06812286 1501.62502795 2794.17166689 2621.58272273 1409.02194684 1651.58990395 1491.38794273
res4b_branch2b_param_0 1612.85422238 3579.63473707 2032.7359289 3599.40909358 2660.40131209 2365.45278351 4526.86542312 3285.00854291 2608.84992393 1577.85341788 2079.29153042 3662.33458214 2446.13140784 3763.09157695 2223.30166605 1598.09000208 2174.37619582 2201.3013405 1683.1971264 2389.40273537 2424.7678839 1828.42189633 1563.37058217 2203.88391813 2118.87753331 4232.06324092 3488.23758973 2198.16481286 3555.27706553 2848.30025569 1901.76039226 2884.73775757 2466.13536793 2160.58940908 2822.21883918 3432.13658918 2365.26126063 2460.46502903 1822.7118709 1410.80435834 1885.13527897 1143.17568681 3233.67098043 1779.10130648 2428.70695369 1863.57750524 2517.00894135 1349.3099235 995.458468397 2601.19437581 2164.42107803 2720.59307397 2469.2505609 3313.76316957 1647.00702635 2019.87799858 872.542396466 975.021050154 2139.28026619 2255.12402027 2975.164471 1690.45625957 2471.97278019 3399.82937797 2533.02731946 2794.68498218 2691.36036175 3652.5868961 2733.73857878 3364.17449106 3248.15838288 809.943735936 2020.81693319 2507.36517999 3197.49632307 1944.30804966 2046.92649803 3187.11848588 3043.88997593 2619.63513327 2785.2963308 2477.80313476 1096.73632597 2363.49962278 2070.54015844 2450.55061329 3714.45556726 1090.30839907 1769.07738289 2499.20938945 2053.49056635 2325.27941929 2730.94491024 2602.33133045 2078.08287948 2328.02217061 1485.74583604 2331.45984171 4676.75295561 2184.41939352 3257.51355744 1745.98622439 3431.84049568 2100.80747738 2683.57547789 3521.51231367 1948.04439657 3232.02348432 2475.47837296 2854.56436625 1456.56213681 4047.58934388 3567.39267278 2033.35801891 1615.34909217 1822.25902478 3941.17605239 2494.49920741 3241.18412236 3683.31238157 2905.78919608 2621.77344713 1917.11339936 2966.36010914 2433.47636774 2813.00292982 2544.42861676 2308.47346071 2508.91096025 2139.85390623 1014.64530237 2512.91925132 3453.87384532 1643.32911544 1226.44694566 3204.03067557 2274.03593213 3215.44779337 2229.45396435 3129.30186025 2699.44210326 3615.09221706 3507.15311651 1964.52731222 2100.6552458 1658.12472007 1616.37354221 1593.10096874 2125.744148 2629.05234051 2984.40055165 2949.50712168 1828.31520902 1717.29459176 2246.4252735 2152.01759322 2106.98572335 1331.1674768 2764.71009704 2492.38352698 2312.39569771 1894.76044074 2274.13756759 2369.4233133 3073.88834016 1484.42195544 1629.0484853 2334.3660057 1596.64637981 2172.13751137 3024.64256745 4254.76957316 2859.34824885 2589.66105466 2198.61094322 2829.04436326 2994.11536204 2940.42658724 3835.83165697 3129.1921368 3170.65015673 2102.15198194 2727.01451494 1811.08174514 3253.0409295 2320.48750238 3163.76981777 2311.274617 1835.11959053 6166.04138849 2159.25789428 2003.60734934 2064.67740343 2402.22344179 2778.65896333 2386.56315572 3363.74131144 3242.36353771 2134.3871827 4095.01500071 3838.88070129 2712.4795557 1814.38535519 3071.4285635 3715.42146265 2565.6179627 2231.84207673 2684.74141644 1864.61023599 2335.46896548 866.90474177 3341.89078032 1554.89357765 2773.02678598 2741.89021148 3576.54177386 1994.19178958 1376.65734334 3116.21254445 3074.93803114 3543.55173715 1488.29581982 2112.00109827 4590.24851321 1944.22998729 2745.67521635 2216.93408316 1570.76241922 1936.01759829 1546.07022074 2064.79995324 2724.46577554 2141.8005573 2057.49683674 2455.1627934 3656.0276908 951.594176477 1726.34138851 2947.33836831 3364.76020777 2905.22138509 2603.11483062 1522.618752 3500.21139196 1760.6128471 1225.08923196 2330.81681594 1834.38355241 2126.99854179 1419.24082768 2032.15407205 2954.0280096 4266.70945044 2165.33789902 2107.6629577 1358.73436766
res5a_branch1_param_0 2523.28288332 2465.5409104 3747.53453333 2954.20463805 2910.82574144 1672.7238436 3483.27920394 3877.76475391 3163.42662861 3212.78056445 3448.74324587 3494.96667268 2477.70372898 2185.78185051 3703.93580148 2929.98261604 2971.38626144 3937.13879368 3701.98467357 3263.32743219 1080.01571181 2874.57055203 1599.48040277 4611.79390601 3283.35734796 2684.8312761 3302.52863006 2591.53141429 1854.61701539 3300.01975793 1469.55127301 4049.5500244 2948.93510766 766.236373516 3611.34808855 4346.98655457 2205.97184759 2942.69592021 4133.39741273 3120.35686512 3815.20806604 2523.1299346 2140.43336387 2954.04541552 3509.26759289 3185.86845305 3531.47213999 3603.55544036 2793.06550795 2580.81607994 1684.55332591 2110.35064912 4748.1048922 1745.42305574 2883.05859024 3103.08623874 6931.51882743 2028.64842623 3311.08605319 2507.57819513 3674.74132944 2807.83750515 2843.78047621 1360.06057731 4523.97204321 3480.60343863 2886.51346225 1938.678398 4005.41055322 4199.34755695 1932.59360431 3436.18440185 2556.42999774 3995.33691005 2529.33425273 2894.72247576 2146.10986731 2875.43393751 3886.48421736 2132.62152613 4764.80897634 3108.03192809 3247.05299171 3047.86883633 3429.36457098 2738.44576386 3220.52720084 4196.14652546 1821.3152798 3432.83055334 3808.95644973 3339.14776452 2054.74135972 4496.17650505 3446.04501461 4211.33248768 3233.22997117 3546.48457484 2736.16898268 2440.35866189 2701.30685578 2717.81102775 2793.23920299 4168.63647229 3324.40711109 3093.60936022 2687.13902847 2729.63796423 2278.01939711 2872.44206652 3133.32298234 3903.60322495 3632.03403093 3140.99139425 3113.76877228 3646.5510296 3335.12584967 3003.35112476 3151.30967196 1525.08396195 2927.64735744 3678.1259895 2149.11548662 2561.58447233 3625.19557252 3626.59391828 3187.08600896 2121.25834732 2877.10059028 4956.46977221 2868.24617883 4224.9599099 2807.64511009 3972.24948688 3480.2331955 2727.71535422 2829.37166547 2738.33116396 4233.83998112 2423.72027711 3678.32481442 3742.70854724 3075.13773655 2770.88673456 2750.60005504 324.780456345 4897.3995805 1192.76388103 3139.7362144 1451.85460681 2041.45956157 3330.47707842 2835.26429259 2583.91082521 4304.45553616 2333.49598358 3062.09976854 8515.69915227 4214.19335424 3385.80446848 2090.19018545 3090.25323988 2748.2569439 3433.02206496 4267.41124393 2707.51919887 2329.03894586 2952.22990592 3282.96907271 2619.82416511 3079.48553077 2639.8937603 2414.94620394 2482.50790214 3084.01441661 3323.2233071 2549.99645168 1437.14107254 2897.13793529 3005.51700781 2473.63279414 3943.14898692 2432.01326777 2724.33775606 3080.39792558 2677.11307453 2214.27971448 3715.68427635 2702.25369269 2977.94629943 3356.52581172 3031.622097 3574.49688305 3584.12030577 2423.6921902 2145.47507788 3498.6272761 3790.4638412 2486.13066396 3358.9419877 3090.4571809 3608.81122976 3417.49940549 3647.76722292 3953.91492345 3237.91147514 3193.98116476 2908.43951948 3304.6924269 2788.06463712 2985.58295391 3056.94733661 3897.20404439 3192.63395177 3617.22297996 3655.17276298 1995.59305787 3553.25752284 2836.31705801 2244.54912175 2533.56118747 2659.36303879 2399.73722242 3256.55950158 3475.77550591 3105.65528435 2461.94977179 3667.44375837 3881.07966986 3181.60660345 3495.59129497 3417.52133132 2907.1837878 4390.65791694 3892.299309 2468.97909784 3661.12517058 2441.22699672 2907.44709651 4191.16810079 3741.03449774 2720.99652765 1806.9555596 2974.29906957 1814.50317097 3869.97153222 4271.39163575 3213.91061145 3097.96763388 2392.26989611 2304.16871737 3878.29986019 2434.47349164 3510.76880344 2995.09811159 3470.89274506 3481.16925974 3601.5130332 3473.19617317 2234.70806952 4267.9935766 2094.58955521 3305.70759288 3883.19943266 3719.17646158 4752.71099624 3978.88794647 2754.22602113 2507.28754452 3589.48957935 2627.14870719 4069.25015526 4843.62507427 4588.77399308 2231.70313369 3240.60397759 3072.18751144 2563.04098656 3159.10307808 3161.83759757 2977.44667391 3522.72041085 2513.0505869 3638.10459028 3089.04891212 4361.68026024 2638.48154589 2660.14929601 3969.2396166 3684.61694061 2821.79555619 3775.10731481 3271.05983681 3522.37827512 3643.92281378 1158.98414017 2714.51539089 3424.40278518 3398.51638468 3924.74527109 3382.96676454 3841.71509424 3841.44843461 2200.0632897 3063.20032196 2886.07116361 4095.63758128 3820.20797229 3034.65993186 3695.50454685 4508.09259128 2478.32568651 2394.05956816 3496.98002459 3066.27036437 3776.98063288 3394.7210582 4617.43780895 1322.96398858 3383.1789405 3126.71793579 2337.06039284 2983.4073158 3606.24665129 3914.60660993 3859.71801835 3606.8250617 3879.724589 3546.14776708 3074.18992123 3426.10148491 3178.62232193 2022.57214071 3412.01754044 3691.22196346 3010.33283631 2663.77199233 2628.35041441 2368.42215077 3624.39815783 3055.07491028 2657.25039672 2044.15045811 3405.13776717 3760.27864839 3828.50942497 3332.80375278 3947.00253599 3830.76540037 2706.50571091 1922.39455637 4154.67282739 1668.50606003 1992.07262016 2453.09069066 2274.07658522 2932.34026749 1814.48250382 511.580406892 2837.72156831 2773.77449758 3514.21226639 1536.85562215 1716.01923076 4232.90372828 3695.7032519 2455.63197095 2795.3213334 3307.93590088 2014.52023644 3092.73878378 3024.90933267 4113.1299037 2778.06118884 3243.37439916 3642.16823396 4210.25198698 2800.32161085 3752.85503437 2243.73367445 2921.70589496 3489.44439012 4003.00864823 2597.99258156 3829.16735832 3043.57610471 2963.49605385 3418.61043981 2292.69847574 3224.58289756 3635.50520202 3607.25555609 2255.91612151 3443.90790641 3549.55937918 3349.5998626 3522.45834348 2384.52345431 3337.88807703 4266.76445332 3654.53525736 3213.63764335 4611.59178002 3065.13205341 2603.85743505 1978.0604928 1533.28398491 3636.17292888 1922.08240632 2335.76595273 3540.63110059 2200.78648881 2723.04103991 1858.46601743 2457.87032501 2889.30306402 3795.17935038 2455.67141621 3828.33917317 3273.95334127 3774.93216532 2606.41495415 3638.33794097 4061.25783296 3229.71448407 3474.83738118 4666.4317222 2748.90313458 3613.59279175 4092.51084876 3055.14609448 1889.98348764 4183.20368785 3370.49498133 3512.95533483 2155.33735791 3309.81820307 3399.73783548 1836.20032724 3491.81471781 3817.10858212 3596.25646141 2605.33973447 2606.65968159 3791.43552142 3434.49679765 1461.12643237 3146.0718113 3115.18088805 3165.34903598 3514.59339822 3835.11879605 2762.31223128 3124.39682264 1332.7654374 1367.75439488 4965.20200922 2728.95120959 3662.34559834 3115.78106209 3131.27244685 2772.27136157 4418.0020433 2561.74577632 2967.76902394 2911.79112571 4232.26840569 4209.7271496 2004.97990639 3532.94957495 2333.3471302 3624.04947143 2120.75017267 2998.27277523 4231.36514671 3580.57277018 2527.3753 2670.99663243 2672.90442674 1373.90075665 2534.49449079 2443.12623872 2783.8829798 3978.56754542 2689.73487691 3239.45693155 2950.79636968 3799.9603981 2890.90273124 799.674093351 3705.25541559 2854.95187191 3236.8637548 1764.72424207 2487.63457264 3152.28524197 2659.49830252 2959.48121661 4173.07486784 3100.59532175 2855.83963477 2352.86594636 2698.17623332 3188.912299 3105.95464204 3130.63955374 2072.72228516 2377.69052092 3384.28389413 3434.43244189 3536.65976673 3804.50596455
res5a_branch2a_param_0 1551.16726732 2837.14344711 2037.54040631 1226.05606225 1524.26965334 2768.00362969 3324.18344267 2890.01582302 2075.27846792 2329.61540142 2115.96004197 2846.47830965 1892.09272621 2246.77407879 2474.63292681 2378.72376837 2756.48526808 2574.68630372 2596.58171536 2758.55334595 2411.70213837 2180.07881314 1677.8687438 2790.73039047 2928.15606158 3073.65720502 3150.06020478 2934.58626902 948.928998552 2103.32274732 3372.10424933 2182.99097599 3414.59432504 1157.38884966 3155.8935065 2851.81469049 1914.85618356 3330.06944741 2883.66362626 3138.85075791 1476.99467947 2995.19915881 2294.27644066 2922.55448693 2726.40779008 2448.64825718 2475.78596751 2706.14542313 2831.07561083 3171.8443018 2614.26889285 2409.39480436 2973.28220472 2282.0382282 1866.86619916 1705.78683013 2504.3825322 3139.69284055 3158.65788132 3062.09234249 3022.88293555 1747.5132546 2190.16249961 2760.08029689 1516.69811965 2528.79916316 2009.03429265 2865.69868023 1966.17789464 2514.23470859 3321.83350328 2138.31307985 2558.66584238 2189.78364698 1092.4450335 3117.5273797 2786.6507538 2823.51470598 2419.98612888 2987.57691463 2383.99819413 2942.55469861 2141.6894169 2293.73724747 2542.99184588 2771.91544005 2714.7406305 1389.39822128 1311.03533884 2580.76782304 1829.1800485 3242.45235228 2135.23941182 2156.3096441 872.932131545 2768.25424286 1546.46843982 2266.45459685 3398.81827655 2555.94048732 2879.07234345 2676.40710608 1426.07578904 2048.9078826 2735.32354512 2149.99565552 3565.4458553 2685.87324155 1276.58962331 1691.24020229 2286.66053954 2720.43849909 2942.20144999 3673.43583634 1957.77449758 2301.31810143 1209.76901399 3019.69181117 3662.78984244 2963.66196489 3731.92460246 2424.73339173 3091.79298748 2065.11639912 3164.64118917 2562.7354108 2816.69811917 2430.31506572 2296.06393388 2211.86300339 1121.58610863 2915.50323195 2832.01916096 3433.27514196 1887.86974651 1408.22526249 2386.11198102 3032.82603231 2775.57390568 2234.49085097 2746.4011687 1691.67743936 3115.83887095 2540.44381862 2186.0606296 2375.37561322 1913.40250534 2893.2280862 2548.12707201 2781.92181524 1480.37545785 2500.26203798 2511.03612425 2089.34164609 2925.36024894 2895.88087197 2564.01368796 1878.17521025 2935.21565494 2771.05790721 3002.05203522 2981.31384182 3051.3415734 2452.37883251 3524.02586861 2675.22215203 1916.74498157 3284.47873942 3034.41602203 2550.64626836 2639.20626114 2882.59395062 2372.29023949 2066.26529954 2337.03604081 2042.70565119 2932.1733052 2253.30152649 3105.65585018 2093.07375086 3235.71474786 2710.32502241 3361.03654704 2647.2168178 2871.3586905 1408.40980259 2594.23768792 3038.57405784 2923.00854071 2828.0720604 2628.2961083 3094.42930629 1017.91761877 2310.62952061 2728.11633863 2496.25633793 2061.08067913 2170.95664665 2027.17553658 2656.86935116 3054.52526096 3245.7721993 2893.10753123 3058.63215123 2726.47233172 3444.73994592 2690.1097002 2986.71108148 3744.14434602 3060.55839832 2725.54440345 2331.46127672 2260.73111014 1665.00902665 2617.40163234 2825.07721737 3505.89329678 1853.13526175 1825.99627145 2704.0865135 2657.86278359 2850.13335188 3080.23816876 2449.32838677 2603.10131457 2823.59164458 2322.651198 1642.33636384 2046.87094759 1543.57043999 2546.67508843 2398.34763835 2581.7843342 2468.89291454 1755.09485294 3950.23415593 1876.9678318 2706.54094993 2542.40583629 3058.72847461 3168.82085999 2544.73801001 3234.20630279 2271.1072775 2543.88636299 2094.46923435 2506.32552182 2350.16401312 2809.53852658 2693.86879551 2437.29341882 2411.40940765 2415.98623798 2345.17277546 2250.24017455 2062.99244419 2542.42119426 1660.9523569 2017.92438584 2746.68550509 2303.24573713 3218.70130055 2360.79938307 2664.74622424 1445.49157055 2607.87602865 2892.60111367 3013.85879254 2757.22453068 1855.37301869 2228.10672491 2173.86152336 2853.9994324 1880.59774531 3236.80751435 2339.09365417 1933.41343329 2711.65624099 2589.43838998 3235.0450751 2426.12679369 3006.05684625 2684.49850831 2562.2731396 1691.8329186 3423.6056382 2396.6763968 2591.52727727 2999.24110505 2757.29566883 1961.63303547 2731.90541734 2188.93483477 1914.71013565 2575.58088401 2156.32410141 2682.8164823 2627.76309536 3677.89980765 3798.21486401 3080.64399463 3032.57998931 2800.15232378 2621.47628397 2238.03195373 2865.81479356 3571.81840434 3157.36778317 3435.14152635 2351.01181447 2307.70573077 2607.17260238 2116.19633504 3080.17610742 2418.51603797 1960.45827495 2854.55695662 3103.27944769 1217.79452773 2698.94373222 1958.06011112 1789.10275554 2947.45966285 2615.36453842 2777.93487397 2549.24192765 1805.95909354 2955.59408352 2319.54761719 2950.81348213 2800.19119359 1842.89765049 2713.36794108 2136.75906916 3021.92419382 2089.73662307 1813.44472987 2278.85295336 2729.88736158 2188.5155224 1644.81160713 3699.18886931 2779.95094394 2158.64113713 3119.76863091 2036.96954922 2674.39171383 2470.4268749 2625.64837034 2280.12334213 2098.7752715 2848.61703316 2818.91863766 2718.59580938 2393.43313889 3350.34315991 1784.91094855 3050.12043999 3078.24427341 2800.35427457 2023.52679417 2415.3852468 2507.45222596 1748.38868277 3357.14986132 1472.92042351 2093.62120366 2981.08573062 3306.78047532 2335.18389038 2017.43908011 2941.87088002 1974.93400601 3077.57484382 2752.7804452 2248.89589052 2731.95139156 2935.82129256 2100.99818633 2797.0863918 2887.58678307 3011.90278207 3470.82666474 2516.41664096 2896.01297473 1526.64313239 3029.72482032 2501.425693 2556.0418623 2246.74416849 2915.39976154 2009.67761688 2440.37875121 2701.50464746 3121.9293383 2196.31276515 2401.62352506 2882.86476904 3093.4361601 2699.0392462 2299.88636014 2397.10511309 2365.97318648 1426.46388607 3037.4361875 2419.73311783 2592.89833976 2429.25833366 2241.67008178 2868.02563138 2909.06270339 2261.35869178 3086.51815417 1731.45639487 2818.00382784 3000.02392817 2381.45770462 3059.24779229 3160.06180396 2565.40539773 2147.72026928 2862.42152042 2432.07971837 2449.10157629 2942.13619335 2678.11413232 2218.68650396 2969.48859608 2867.89003808 2779.28055924 2644.88927166 2826.50506364 2843.5869191 2048.94531803 2736.02141607 2794.40505193 1958.41015756 2910.33968675 2346.61495399 2396.62298653 3216.3678954 2552.17347648 1691.31252802 2490.721006 1969.07719204 1709.46258496 2116.40482639 2402.68936662 2936.98549577 2255.35825 2964.28455453 3084.62580567 2468.26388722 3172.15478519 2672.81745919 2769.61958889 3410.85686695 1489.89848589 3238.15013538 2500.57765699 3190.33309978 1843.78850969 2564.27944899 3177.34607255 3472.15157842 1950.12509223 2139.19811261 2470.23712877 1527.75472967 2443.55965025 2962.6724415 1830.72694707 1563.88378985 2835.08132372 2478.48622493 2954.88011671 3130.96186305 2895.83413459 2419.36082575 2481.07464431 1234.28502444 934.965601273 3261.63866462 2083.77907603 2863.89723899 2424.05323413 3065.7594121 2622.00150607 2808.48703318 2057.55445563 2993.04364857 2549.6419204 2990.67845031 2983.81492477 1954.08745838 1500.14727689 2083.33134696 3075.33053235 1168.89222848 2876.01879321 2512.80256127 2175.62937116 2400.38723772 2392.46749709 1878.58298385 2746.16998134 1538.518394 2357.27732028 1716.73058522 3607.67202742 2935.63446866 2714.51193261
res5a_branch2b_param_0 2775.154332 2940.31576111 3455.36795191 665.028190968 2953.67660739 3655.94966843 2893.14116776 3826.94849084 3774.57940757 3890.59269322 1507.31183715 2967.19558703 3861.65133849 2830.53521075 3217.14248754 3143.08655825 4235.06651521 2882.03711675 3352.26283962 3197.92853742 2652.432844 3192.86179736 2940.56380003 3160.431511 3194.0987708 2724.24523247 3802.36349987 3937.41071861 3517.43166028 3258.80643841 2533.13836656 3864.57422862 3665.86669938 1810.58292339 3203.69645944 1660.48718128 3715.93011572 3240.81838821 4325.49918965 3484.75148937 3628.27173599 3420.34732024 3273.85147443 2551.7104236 2713.38910534 3310.73813354 3793.30820047 4011.81951856 3695.73850825 3565.94224482 2532.54447194 3044.38822655 1401.82481552 2970.30461597 3529.03270643 2781.31333279 1978.71858415 2282.34485348 3676.37995256 3451.68403263 2008.20421755 2996.79840167 3143.65781933 2286.16477971 3291.59850019 2394.05889567 3777.6812519 2776.82954323 3625.75385593 3571.74131523 2464.32150237 2849.88746861 3474.07605867 3197.34368124 3599.16589029 4154.22908022 3481.41206477 3248.35584231 2911.22494455 4262.43318394 2223.45348624 3522.00418575 2779.24045519 2533.70241023 3014.53304086 2786.76351099 3091.42598811 1872.43390034 3119.07217435 2223.87309339 2231.42018753 3321.88950039 4235.92635411 3771.36040703 3914.9244344 2986.97983388 2221.64980565 2699.7227851 3057.23299081 4170.82591395 3215.11270732 3783.56807931 2400.06733956 3578.43124085 3450.59226277 3479.41623893 3789.02725772 2673.17290926 3461.7548499 2638.49992438 3524.30820774 2982.90872727 2735.8154643 2930.64328316 3554.84962038 3198.85754875 3786.70406856 1873.94833751 3988.21514154 3642.66208607 3201.14727137 3575.43709983 3991.25947721 3789.62661455 3149.1572804 2978.53717145 3351.86798412 2687.91234003 3009.91157273 1745.23577096 3143.02744415 3833.57229876 3445.37320556 3786.09764671 3866.89441173 3437.26880482 3807.35656279 3386.25747645 3581.46689681 3483.83699495 2795.7866925 3883.2772824 3237.29991512 2840.23800368 3142.72089787 1872.99620207 1679.58766157 2007.22992673 2869.88034782 1583.64571841 3491.38988076 3086.78225091 3499.43460085 3696.91958407 3584.797183 1531.82836665 2922.30471727 882.250870365 3624.16273899 3213.38592365 3704.68969405 3143.01266598 3363.81565771 3266.31178816 2409.17532904 3131.3774266 2906.57231214 3285.89066181 3310.62014043 2430.415037 2547.29923092 3248.50813149 3246.26671333 3249.29859312 3772.19834654 2806.6292298 2746.20050912 2854.13897225 3260.70838856 2849.70975382 2818.31436785 2500.33373757 3523.98579833 2499.36275005 3079.78626359 3961.59398409 3869.39436384 2222.39190452 1977.90074323 3247.73723695 2585.40970898 3568.80916269 3602.51700663 3781.09430958 3564.14381612 1935.08615385 2003.80166496 3255.23358937 3189.68595771 2395.29085912 2682.76560229 2555.84027006 3131.8730836 2650.02402047 3394.7900192 3524.41605501 2687.21210326 3608.69357181 3247.39167562 3601.06679106 2757.72837486 3093.93840965 3064.69669176 4043.37344553 3835.91581966 3375.71075473 3209.18733021 2801.36032211 3319.96208551 3797.35052327 3564.24181803 2323.00666607 2965.71007356 2420.24348835 3884.75480739 3113.06219942 3131.4297753 3641.85580255 3103.2461146 2943.05182828 2752.12998663 2723.17916117 3078.93179077 2964.68231386 3268.27358268 3519.2704345 3432.08856121 2667.70994047 3200.62614135 2976.22393618 2797.57690289 4233.99010397 2626.95213936 3147.20886864 2255.52223976 1193.03068929 3504.33177157 3115.50400805 3181.64045346 2625.85809185 3497.8917427 2641.11268265 3148.15370123 3565.16471624 2928.92611768 3080.94133412 2461.7871019 3458.75266988 2684.81964687 3191.42261068 3359.43484345 2888.07627686 4180.94919029 3802.64893756 3597.29508437 3681.08120874 2453.41605244 3076.20576855 2042.4706775 3199.5432507 3062.75560315 3356.20032708 2760.9605631 3786.65611968 2332.25319352 2395.99437325 3062.91575309 4361.20263172 3086.23119234 3053.99085647 1920.77486314 3358.31892585 2444.79979347 3126.3202363 2955.78448169 2040.1250091 3013.36036256 4229.9638757 1443.83827393 3340.25228493 3353.35164593 2797.06367224 2568.11945148 3385.62861163 2933.44819827 3169.31017492 2621.87809525 4229.02933617 2728.51744095 3655.90418959 3649.40257763 2766.35094458 3114.46485389 2777.06705289 2702.18151102 1872.36170822 3510.49911252 3163.84410204 3361.26785372 3752.4047837 3241.52558982 2881.06384452 2201.09198863 2783.43861895 3821.44725332 3191.01634638 2673.84613415 3103.79931049 921.824157608 3855.02307746 2889.26976154 3421.42483922 3721.48819256 3077.27815374 3349.90497619 2840.91728805 3224.0730139 3663.30898513 3527.43408089 2819.30864924 3980.41590102 3277.86113092 2606.61663173 3688.23328823 2968.13722526 3396.38366331 3361.87211864 3885.73956304 3162.0997833 2987.37245108 3233.88294076 4207.35492718 1853.28919415 3558.34337129 3086.21247322 2614.81208833 2266.59609252 3330.44616914 2976.12234652 3884.90045246 2026.04403616 3459.22084683 2230.32807808 2990.58925094 3394.91442653 3690.09245466 1833.22470518 3302.68860082 2194.73056331 1806.57809413 3498.93392943 2251.98407884 3375.84413049 3865.60838904 2298.4594985 3999.96655034 3474.26547286 3035.76706752 3206.88549213 2928.27024883 1929.60995928 1387.49979699 2328.20071396 3596.35509912 3502.11098771 3215.0317513 3212.27501149 3673.95285429 3144.18608001 3629.31386787 3179.1437223 2564.92402292 3406.47834781 3826.25352849 2521.74341099 3440.1910885 3283.85009648 3431.69505889 3466.90205364 3198.61804265 2784.93341715 2824.06880425 2000.18275609 3448.49939484 2962.80710351 3549.45996567 3136.96212445 3820.01448749 3548.44249854 3495.74865041 3064.55343522 2966.00602505 2827.13559267 3773.25297671 2678.83300004 2925.90984354 3010.65663824 3473.69446066 2959.95838261 3083.73433572 3701.64340736 3080.3879055 2740.94625137 1644.29626144 3523.16783538 3461.18864514 3597.62839048 3028.66379128 2999.84521003 3202.60547334 3202.70265381 3322.33689762 2789.97625067 3758.72850151 3238.42574561 2791.57522774 3651.89317683 2420.65541175 3577.34041485 2548.1105023 2927.23107077 2073.02326404 2733.51587443 3457.60206884 3646.58925496 3859.477691 2590.21670312 2322.3383938 2161.69103038 2569.57488705 2312.73783517 3252.4171254 3612.61823873 3085.8479147 3406.66829203 3682.49834645 2161.95917332 3094.98442054 3056.11315918 3159.22632698 3522.68619428 3227.21599805 3417.53126656 3396.01183707 2636.71085576 3490.05382012 3376.1032238 3288.40695283 3501.91276965 3729.42526732 3243.42191929 3066.34813891 3360.88412737 2770.75656741 3606.31035891 2673.17269965 2928.28332811 3253.24922782 2023.03638929 3825.51245623 3016.53971363 3190.94526077 1176.46366509 2889.56436816 3298.76164363 2429.81585223 2806.25034105 3704.82416309 3664.72310598 2337.33182426 3795.7738932 3030.50990021 3595.6696789 3498.19611334 1969.26577741 2696.1456328 808.481011928 2848.05207133 4165.16501187 1836.68526333 898.25253248 3332.65583769 2399.16184638 3529.04147402 3106.10745555 3116.86383912 3616.94090766 2769.01152763 3180.33448414 2337.22878827 3542.24465741 2505.99960805 2421.69675761 4176.64242416 3474.98189307 3810.849463 2996.74966722 3128.80816532 3105.85984862 3815.13847192 3613.80768536 3388.3478596
res5b_branch2a_param_0 3153.31012411 3596.40555819 3400.8298857 3472.3761504 3752.50639046 3375.9654815 3206.50212318 2660.24042317 2993.82718312 3424.97078106 2812.05298599 3429.3073066 2568.48397821 3234.98367928 2355.92034267 1922.54763365 4388.33249056 3502.57802206 3074.87451916 4248.62238631 3070.5353013 2981.75399957 4068.45397461 2819.77549953 4990.96791021 3688.16346129 3610.31510016 3526.26724712 2890.78947861 3368.78072012 3532.22296313 2302.39191156 2479.70905316 4147.39476093 3733.06188313 4019.23818859 2857.31024921 3644.93303769 3555.33305252 3014.13591739 2548.76202575 3466.59957902 3159.90568584 2523.58155095 4190.4499512 2810.94630135 2960.85994469 3271.91877813 3230.26104628 3327.07432443 3482.7187452 2430.07253528 4016.35165355 3447.67983372 3306.93059329 2727.95370418 3261.88801388 2720.16260924 3145.17987656 3877.93193119 3402.41664268 2907.40296046 2298.38852729 3233.20145385 2848.93697613 3582.80120543 3031.56764046 3028.45554865 3349.61171064 2938.95786864 2910.55088689 1385.25894218 3066.64575946 3198.75760011 3268.35818226 3335.8379289 3382.53812944 3348.77827426 3407.44905584 2918.63949785 2642.25880017 2923.86892339 2344.12107497 3233.50382438 2949.58316879 2854.41331296 3255.23110274 3409.56364674 3218.82559674 3195.88667063 2981.41213592 3875.9836012 3203.42462153 2762.61688603 4516.35398993 3295.19083027 3470.57296797 2488.95257664 2670.54782773 3997.56319925 2911.77147849 3216.23650671 4093.90854877 3573.49760158 2642.41301546 3717.47028804 2284.10017577 3851.16422515 3010.68003549 3396.67062402 1945.27237063 3320.94007087 1907.90786741 3351.38261732 3524.05865406 4350.1360641 2795.07519129 4478.38384365 2560.9304177 2118.61470341 3618.06830894 3001.10011882 2878.05855161 3460.39641005 3192.99786239 3688.70219472 2926.74555259 3064.08656698 2918.57253373 3016.89502058 3898.12068505 4051.93636433 2843.9192558 1962.01710625 3511.83351105 3925.94344992 2625.54463429 3857.43742562 3677.25911012 3958.30009665 1784.60802795 2834.5379794 3607.70906023 4224.30786382 3277.24856533 3562.20575304 3034.71071758 4540.74200028 2354.1841287 3757.3220798 4081.20838322 5104.92746863 2690.45341538 3340.61298268 2949.27951414 3838.71298379 2495.58406199 3133.22622306 2277.47062462 3478.62877184 3634.00778025 1534.26164295 3569.30013631 3640.75279988 3673.93464138 2975.7441094 3273.10715853 2991.15208317 3687.29503517 2571.14734721 3458.56494336 2941.59444651 4698.70811994 3141.94379002 4443.62481025 4272.00771012 3778.9496398 3228.00835633 2398.40703119 3872.91363551 2953.07892943 2981.60535357 4691.23656586 4135.6412919 2335.49296488 3330.23014557 1947.79040862 1627.57934072 5339.27959943 3773.67148506 3150.81483316 2498.08074362 3390.63100842 3465.94193178 2953.28947073 3794.12636395 3086.07893144 4211.15015493 4222.02820167 2758.05366293 2522.22979913 1610.41192904 3511.11158039 3312.00701042 3229.56486966 3406.7520376 3895.47888186 2836.38242459 3106.03444277 3486.35372345 4389.43597672 2904.42142814 3146.14962198 3253.94385181 2669.54907268 4173.60107983 3381.31558916 2501.02949209 2265.36661999 5378.73856157 3623.40929611 2221.37881115 4428.50851702 3389.89197626 3298.89698855 3382.49315758 3881.82961116 2216.61119902 3971.91210631 3946.04129747 2370.07018949 3001.03433681 3796.80707433 3874.3947313 3072.00479824 4028.73146393 2946.59934998 2344.28952224 3270.73628109 2364.91341494 4348.1364454 3335.93063252 4047.94162638 2246.51734994 3722.40491055 3829.84616964 3828.48663787 5239.50619764 3549.0760379 2782.07210441 3773.77758876 3381.71607169 3545.68858687 1980.35537638 3440.6747413 3006.13716279 2247.72110704 3562.34571155 3283.48447431 1599.01511713 3213.64370207 3001.5157482 3517.44218491 4026.10751363 4111.12156516 2747.77205728 3624.67522833 3239.15929423 3525.1697127 3578.22090938 4418.27688111 3510.97381072 3059.46715542 3898.74123297 4272.83334638 4000.32795944 3328.88420847 2443.54563858 3674.31833836 2095.736192 3779.93638019 2291.75446373 3689.08059938 4153.51644804 672.794306006 3469.93959462 4449.44792371 3717.74190566 2057.08341652 2932.74993529 2736.64868409 3534.09555667 3588.92464936 4991.2126993 2670.61477271 3027.31879068 4076.91585891 2835.74847232 2495.6100034 4215.9871831 3612.95094449 2908.95373242 3602.95408877 2950.61733938 3050.06749991 799.733522553 3710.22991903 3323.76406447 4161.62109174 4364.5635961 3839.32989327 2193.74238547 3578.68141725 3757.88245101 3479.20886406 4031.3097356 3186.81162027 3770.02456361 2837.74944121 2568.14769667 3637.7229847 4279.35244437 3461.96155552 3231.03683336 3094.8751237 3863.90100722 3232.96290931 4308.67226646 4146.07930299 2672.5896939 2728.76379414 3373.72440308 3933.13112482 1834.89853932 3218.73655228 2908.50998965 2633.88456177 4175.55740146 3662.6745411 2704.78162456 2268.86710937 2900.89963696 4067.55958401 3617.65672795 3522.73933944 2404.65087214 2472.84187959 3524.95320356 4168.53223409 4356.92148448 3219.87322666 2356.42255173 4881.40114943 3602.78236528 2947.45074379 3615.2612822 3507.7629736 3102.71937745 1283.35553786 3831.48999276 2674.54487694 2548.29925742 2430.17439217 3397.67740022 2829.64784158 3373.76814044 3730.99543203 4045.57583076 4183.88238549 2693.91243404 2071.44321832 3110.74285898 3307.65154189 3589.40227755 3650.16960616 3077.80295628 4647.1077 4458.83765488 2485.36906335 3857.21440246 1276.94203182 3720.27431768 3666.73689151 3425.40335492 3900.75089869 2176.91095893 4291.46978192 3426.00163626 3091.28218401 3433.18490121 4439.01508309 3984.64956493 3340.88372082 2922.76796484 4037.97313482 3900.05296868 3849.71344072 3189.34488102 4152.00266332 2880.85227649 1939.56408822 2953.06716252 2893.97250857 3786.52363566 2695.91664598 2792.79253687 4103.68367815 4246.43145383 2606.03041838 3662.49589739 1927.42871681 3276.13808649 2974.21785047 3919.3203742 4022.02258263 2962.64592251 3565.55325168 2161.73352304 3023.07566835 3418.45103981 4018.59906217 3999.28333705 3713.28995613 2478.27776325 4773.82343536 3521.77132977 2734.07555384 3349.70649793 2905.06071481 2717.44642431 2608.81438792 1928.5687971 3051.90127902 3149.00660093 1983.35435946 3722.09563029 3284.19365309 3169.99299374 3930.39046597 3738.1802427 2912.50158793 3610.97589985 3328.53416352 2916.63665118 3424.29546854 2712.03288427 2803.75523634 2391.08061505 2651.75406259 2996.27952699 3556.6375663 2786.90817247 3330.14946925 3809.7634966 4125.38724392 3017.11235699 3617.45289182 2091.888435 4327.00018055 2675.18289555 4906.89778707 3783.32496521 2599.65771175 4022.3035122 3759.11021899 4035.27026542 2573.63165725 3542.31937428 3784.13840737 2648.03395941 2314.0137816 2874.4311885 3388.44316797 3438.35389244 4351.2373605 3797.90470531 2442.54159574 3532.04400993 2478.82088197 4796.72463512 3766.15126225 4703.29994615 2782.31709694 2431.68020198 3419.42000989 2997.93370432 3222.36948929 4133.25358669 4549.08050931 2814.21693275 1704.01049019 4333.5755643 3422.01245709 3552.88054878 3625.41531826 2890.71667803 2506.34837029 4664.68700921 1859.71259903 3405.16735743 3621.86910328 1741.41327639 3589.68687439 3629.42669195 3730.53204086 3543.16761338 2290.76705053 2743.26123491 3655.37107375 4061.90382604 4117.8937159 3690.49151939
res5b_branch2b_param_0 1066.40635893 1012.19308806 968.450099086 1010.03032025 950.077572639 1096.43396671 836.859503214 1009.82053405 1035.58613399 910.289496563 905.648162468 1094.58513829 1161.09113028 1956.09578616 864.892445183 1826.15061905 1997.98175289 943.653210374 883.860339537 874.983135261 1070.59740356 1016.26913188 841.963302176 903.45067634 2216.87310275 917.169074747 931.080675207 1214.31428815 3584.1319869 1319.0764091 1031.59679004 973.125157552 983.626062573 882.227034585 930.401298811 871.567306814 913.794562388 1574.96868949 1113.27380878 1137.10049029 3332.59621925 1330.70960186 872.597962258 968.422258464 1213.65468874 923.260534544 841.947582036 1273.57215424 919.333717844 995.466258458 902.02730395 1030.84634336 873.930979267 1303.00724076 888.191257135 1287.16233997 1099.52423002 1035.69398269 889.095853336 900.477192727 1266.10058567 993.235619232 887.301986491 886.398914709 886.833517977 1038.51519242 1297.32092773 1003.58447338 1941.66319121 1145.63740917 826.843572705 940.805295022 2567.56898784 874.981698002 2422.96112572 1522.53089503 898.55870556 1087.27221615 1129.22852135 1018.46280647 1305.45333579 846.826385714 1013.46507119 1031.80554202 958.948419267 989.470018202 2436.92981396 1187.27409611 976.680514201 914.262924995 876.847093382 1078.51221089 994.225340888 1150.13653721 1051.41188864 1808.615328 866.28837676 1038.06122397 1063.99655389 1172.01218489 2363.77001931 960.222315559 1163.28763957 966.3236442 1123.68030002 1050.55639186 1146.66672156 901.747002897 924.478019687 899.866049724 912.818114246 1129.0637426 1069.90143386 2073.38901805 1075.70648755 882.309141026 835.884360591 1769.3159155 957.040192243 1074.02245677 969.326410482 1084.87196111 1200.41405174 893.220381352 889.363424617 875.314729271 915.078361213 2116.58050599 907.267038005 877.701510711 886.556861048 1073.54638784 889.77009971 961.959521929 1043.21968045 1739.37916751 835.095472873 838.645195546 1304.81558107 1077.10081803 2538.29563291 893.737514946 924.2639738 923.526050566 1052.61811573 708.632196988 886.771695683 1040.95994616 1140.44953712 868.766195079 1554.96747793 1051.64956489 880.287238755 992.473296589 1040.63444077 1139.36996459 1081.15092576 945.475859088 4052.74753204 1535.37676012 2300.78242591 841.223927176 1088.15968275 1108.79973169 1957.70029667 909.93243408 1273.63629222 898.002294204 870.231089011 863.098054521 1139.73891756 991.115563089 1240.42104853 821.084719891 1008.03114682 1050.99219589 904.07427584 832.907641818 981.930488315 917.159402292 1104.64903417 2868.20660327 1007.97463774 1300.09107963 2069.8728684 1267.30584836 2848.17913251 816.291309418 1008.1047135 828.875219489 1993.71713107 933.70102179 867.262538448 1053.37841023 924.059043842 1251.41767143 959.302773987 1477.81600372 902.507379205 887.142943478 1070.15809206 914.078188906 1118.35279366 868.598589281 983.529919631 2399.48065877 1577.62574927 836.757294286 887.87064805 2530.18707395 927.71205702 1088.22095512 945.178915392 989.55675566 1164.18717748 820.296110333 867.729105378 2892.48134718 2867.63625731 1719.66604908 989.55836418 956.399256321 902.598561426 876.752200669 1030.26048341 894.955294163 900.274115254 1155.72780786 5001.28370843 1237.21525039 1523.1160285 885.499059313 906.917457012 976.521272971 990.557920871 926.59412434 852.368235808 1128.96570599 1261.29808 995.370925792 1104.03673099 1160.14425232 1066.72796166 2336.2431146 944.79867639 925.180806692 1078.69860547 836.445070894 950.998499438 980.231166767 1517.90056471 3766.35014758 1475.78382433 1365.44729735 1185.38137821 1169.49491044 912.858004246 913.409782248 826.27274616 1660.16308772 866.110635371 1016.91901577 932.560454142 941.581503483 990.475727212 1072.25586312 881.687558217 943.374117194 852.256834644 892.392772256 909.978678965 825.301006979 1020.46249676 2930.76371133 2131.49548498 890.370299239 817.079440478 968.930354049 908.673098835 989.758435938 1306.80435 986.145058737 961.400468426 1143.91539497 934.810750752 881.380102967 958.950469302 885.418933684 961.186438006 1254.76741543 2325.96969832 1519.42462279 912.401335475 1072.88891955 894.917517221 901.0353426 986.530764404 984.573967877 2382.06839287 1987.44957598 1210.78094809 3820.5598909 2717.73367945 870.422615314 920.411029002 1269.28607833 2206.57396122 1019.1108083 1013.26963677 1818.49649703 991.308424538 3817.99092117 2090.62586752 1177.11555601 989.383755363 907.962366145 917.655230214 981.635533837 791.216851787 3778.59152393 837.099841839 955.504908064 852.572362146 973.70305117 909.117314479 1511.0270581 966.843468665 1130.00781369 852.062570244 825.447201727 1753.39202876 917.919508779 914.153388272 956.562308519 899.206874246 1193.28157786 888.144516145 1539.9050956 956.030205923 965.156353657 4337.99805058 982.102362902 785.149828499 921.491166889 1006.93916465 928.925017662 1043.16241317 984.736529123 880.704310011 1132.43272703 2052.86635863 1173.91439836 1893.56656946 2146.8360135 813.311453221 947.62438928 1282.28932036 1286.79018293 765.43061521 903.432193287 1080.35913429 934.866429503 1028.74127835 1184.70119954 990.057947744 953.686429592 1568.94809627 979.971598065 1106.94889631 820.04157233 959.163073211 908.540780756 1334.0598932 1082.03453669 1529.57022792 923.362060885 1304.34381204 1087.27956758 2161.2577007 803.905167623 1348.9578645 863.256286717 1226.53148899 990.854691321 916.960964616 1205.09642319 933.27967601 898.358670313 838.457251185 1469.6943244 925.145857877 871.237387653 945.174093693 1058.90277737 1029.04341896 1773.0327558 1153.67644974 2487.16923697 952.188366217 960.664122728 1017.65988581 857.563103365 1067.93394512 1125.71615668 823.024067211 988.075005272 1063.53855334 1307.21093153 1426.93425337 1138.99363959 1496.4470688 899.471168948 890.245861207 1015.20258881 1101.99275318 1711.85817498 4188.13309916 2870.2708149 1017.30142811 963.382763201 969.122170678 1504.22892845 1031.58243091 825.132655445 1000.82901855 1042.13758221 888.460043864 879.072029167 924.792099599 1177.56630602 4111.88940272 3507.98279065 1044.76123328 980.578863773 2920.46970666 3684.60459532 1069.94642915 3591.65912633 964.246869443 934.705051152 858.741251628 1695.6954713 1051.59973738 985.828409835 945.981259798 912.677060668 919.601643254 2476.51220102 1200.07819437 1140.57720543 872.031737161 867.59837365 888.552763473 1138.04187073 1231.36882353 992.002216134 872.648442143 1014.19783771 2019.907918 940.512419035 2138.88767737 870.669012744 836.058440728 1133.83523426 1638.39086619 803.403124975 939.648351547 2905.68913826 957.357218591 1249.34613987 956.613522031 934.272352482 2021.246102 1288.08754278 937.245776974 934.851150511 1020.05646127 1051.94285129 987.672753905 983.308419729 1132.15195004 1979.56652762 966.714830761 901.649983174 1201.66252811 835.147189789 1045.86752736 5961.87169595 2098.96212242 940.439046927 1165.92559333 1283.09770297 853.791820601 1209.05525118 1378.50200172 1797.41132637 1727.05800363 934.463395433 1181.27555115 1130.01275788 950.24059518 965.09296505 878.482161232 1064.18434252 942.044532438 846.998488033 1767.50566897 1121.56005812 967.450271778 1002.82294348 903.161737713 1349.38287832
conv1 0.84167606461
res2a_branch1 49.7338143946
res2a_branch2a 49.7338143946
res2a_branch2b 106.399114727
res2b_branch2a 72.0818583383
res2b_branch2b 87.8530420157
res3a_branch1 53.7668808755
res3a_branch2a 53.7668808755
res3a_branch2b 86.7213253507
res3b_branch2a 59.6152605821
res3b_branch2b 89.371200247
res4a_branch1 69.2349869178
res4a_branch2a 69.2349869178
res4a_branch2b 89.1540139758
res4b_branch2a 62.9892759053
res4b_branch2b 90.3801042096
res5a_branch1 61.6296665494
res5a_branch2a 61.6296665494
res5a_branch2b 86.1679459679
res5b_branch2a 56.0947851066
res5b_branch2b 130.181613578
