res2a_branch1_param_0 337.530701467
res2a_branch2a_param_0 478.86380864
res2a_branch2b_param_0 680.018894428
res2b_branch2a_param_0 577.146933522
res2b_branch2b_param_0 425.926449099
res3a_branch1_param_0 229.116841171
res3a_branch2a_param_0 538.17799804
res3a_branch2b_param_0 508.421168649
res3b_branch2a_param_0 760.762128035
res3b_branch2b_param_0 720.429738237
res4a_branch1_param_0 648.576498662
res4a_branch2a_param_0 668.454193599
res4a_branch2b_param_0 548.281064025
res4b_branch2a_param_0 541.042305574
res4b_branch2b_param_0 809.943735936
res5a_branch1_param_0 324.780456345
res5a_branch2a_param_0 872.932131545
res5a_branch2b_param_0 665.028190968
res5b_branch2a_param_0 672.794306006
res5b_branch2b_param_0 708.632196988
res2a_branch1 65.2519381406
res2a_branch2a 65.2519381406
res2a_branch2b 128.527629609
res2b_branch2a 77.1897576464
res2b_branch2b 101.297014977
res3a_branch1 56.8839460552
res3a_branch2a 56.8839460552
res3a_branch2b 98.8722254639
res3b_branch2a 63.931221709
res3b_branch2b 106.839185552
res4a_branch1 80.0833766129
res4a_branch2a 80.0833766129
res4a_branch2b 102.329917766
res4b_branch2a 67.1339920765
res4b_branch2b 107.831406269
res5a_branch1 69.8467121443
res5a_branch2a 69.8467121443
res5a_branch2b 107.474982933
res5b_branch2a 59.8843893023
res5b_branch2b 153.08067073
