conv1_param_0 222.74976653 2321.94612324 3813.46342895 566.319565057 280.685749033 313.889526453 2757.19241936 660.595317451 545.142134694 192.795881291 279.245227866 196.852224635 185.653986521 668.818973848 235.470609031 203.453944896 488.970527492 535.025638064 226.638781824 494.505195631 217.385595093 247.36368505 568.763895093 4531.30925469 230.390876346 398.339946513 1221.73385081 1238.18171527 249.14787894 448.352300695 337.915127211 3624.21282554 194.534163618 1377.99550635 286.307846856 6685.80738374 231.176928857 1081.33974276 251.594638064 400.303271413 282.3520599 489.967489363 330.264841471 1659.81390697 221.721829904 755.314604138 378.047685461 257.074046259 1118.40437818 201.979619145 892.184451785 364.406521638 1275.01892117 276.790411626 1144.46346629 220.041968849 2524.82236654 200.377660201 489.1334584 189.262869405 180.314800748 2071.52666969 755.180149813 190.55355807
res2a_branch1_param_0 5853.82278946 1242.88278696 809.049092808 2401.59662468 1202.63506046 2022.81528053 1192.88558289 741.215183612 3125.72144074 1689.98078046 685.459817826 8813.17808325 1105.19988544 512.266070776 218.707905065 996.631371809 1078.20344684 642.857623397 699.412592031 2813.30168912 2836.375817 715.381934974 648.413714516 282.063017536 422.189340856 843.381774566 727.433831699 1389.74111494 344.623270824 1560.27754359 360.505676251 334338.03655 708.21105603 264.462553751 274.15181933 393.488144883 921.151746182 553.086610085 693.140946502 778.963277478 234.812133448 789.543181892 613.044610823 587.781368446 1354.43082635 636.597820226 985.977697684 591.715297684 330.512565474 465.053320875 3591.75410626 1641.45971914 1200.82512843 995.751202684 657.018814881 388.546817407 693.099741394 954.205562898 1865.83464488 848.514405178 413.119631674 1583.07579323 933.745315347 2638.84426228 209.346206706 425.835706697 349.359593841 716.350243008 2228.65716816 518.044600157 839.188959226 1986.45526509 38652.5310787 530.085384987 802.181070549 8796.52123963 1249.26373254 180.71795472 767.192625006 168.090976965 865.664710426 1747.48441123 1280.38316554 469.503865237 742.041412904 847.703785573 964.613994625 396.393610765 614.918365122 1598.81444219 141.053626564 725.893978304 309.513233477 903.842637599 1708.08739261 1009.40696134 859.075454232 1418.53937688 987.283067014 4095.23833064 714.833165112 1156.60171823 3012.01827215 705.560901176 1782.504812 383.351341334 647.780921379 461.846350662 758.334282687 456.564801546 1938.73749235 558.824201969 984.496175888 7088.39653915 707.269425121 930.676832869 210.628052859 1952.44234456 2153.18133881 727.296334131 623.372699433 481.092759832 2194.98718032 220.077424217 394.697658005 1031.48848211 248.917181636 811.585612273 709.951378457 364.328790223 1596.49265103 422.703607045 324.376990784 591.539276499 37542.6142074 844.59531958 488.349435003 761.848831012 794.932486532 1185.74477306 1995.3800092 1478.89841037 1027.12367289 974.09311117 1341.66755197 445.740449385 911.828532076 308.059895326 1737.1807135 348.988540183 1249.6335518 2040.81393529 328.016824609 1783.42237612 816.457558187 713.068737115 4808.76887766 8468.4860991 502.737638966 1207.53922376 1201.62059651 200.91049529 405.083082847 1016.76967328 340.855492713 592.753509926 707.514083371 546.011470768 864.915967885 422.86576816 1041.24361066 395.462309115 1184.86589985 268.991179068 1126.24506315 618.460118775 653.345674917 726.583360756 793.95757592 646.146617403 600.555183363 1073.65424087 909.085508051 26496.0946952 197.430349142 771.232513938 401.861763139 643.595895673 467.005838377 440.35688744 1896.79234083 524.654993844 1221.72071593 985.33183147 3742.3580886 801.528279254 1213.94138678 984.468314789 3710.40275019 681.735305636 824.146141127 361.396153577 3366.19547774 655.987901806 359.847058622 936.053974395 609.338950453 436.014441004 1487.06338809 744.685757504 1119533.68556 1279.17739062 1034.19053436 1391.65920226 575.353566688 816.018232918 13173.7179155 844.052470377 771.771172548 671.119976547 603.584936399 586.627976374 681.036927132 624.778759287 776.84381383 470.814574371 454.007881563 1261.89063124 527.615228093 2001.64040827 1229.39695325 614.222782431 1998.39893342 5429.07184924 2625.09075906 477.560192306 689.767154353 900.048697189 395.963152699 1064.38907907 905.840289322 2284.79975337 1039.85309356 1607.83050558 937.691448207 229.383528058 726.060139591 915.848897209 1723.16237554 548.891621217 719822.329808 3162.68032452 2867.1871851 493.681736692 164.511973119 2436.52434916
res2a_branch2a_param_0 685.106016999 479.059221991 478.166467497 1583.87041843 386.734649864 752.283352264 457.546893369 640.9449968 405.739101424 1194.16997297 546.296881858 777.937568754 2260.46069014 328.756025793 627.006065229 597.482888211 559.355781178 556.949075268 313.148943193 473.716438869 646.415617563 349.123463362 396.98622132 526.635343571 347.702575589 243.853153395 586.21770272 336.406421054 349.820896412 239.863815132 321.611477693 955.126913893 279.11247975 344.916209426 348.733389325 741.307762868 360.480151277 962.551511394 510.117918356 399.446852423 200.117009162 257.874586093 5321.55262142 748.659489824 289.848534567 177.00453538 391.161691274 1210.73278788 468.573163508 232.818214291 760.067192634 303.206531664 258.059137839 194.755112843 559.892013982 750.868143783 846.732915922 901.68632735 200.511712401 439.332599156 332.583566813 485.70991623 337.648775815 323.826123511
res2a_branch2b_param_0 1850.1300475 430.999730866 828.752708768 818.731134648 1871.27518012 1067.78349123 803.424633637 2443.53110165 1209.01811876 1885.08399346 1145.96636305 600.19848772 484.363801195 790.503535728 488.508144147 718.079236352 860.275044125 1145.00067985 376.811732114 3017.00635485 423.014658157 1694.64772817 737.285754376 1416.58337768 574.347686456 713.949143298 647.927920783 1323.94890133 1050.9927143 1364.2245451 662.443646097 325.607422427 1313.51635317 1259.64969376 1871.38365291 1427.20701498 1616.61069263 390.410882439 1697.18747166 1299.91093194 376.076713276 2384.08038624 559.250698192 1776.97695658 656.508971471 620.325047946 1138.70001542 1071.50432049 473.861298968 346.894517408 945.54194185 573.616901012 937.929718872 1530.80266368 527.470474417 349.13238758 1942.8325788 908.476088725 1405.4171799 391.813776202 2181.0467634 387.610338088 1303.59966023 560.68957004
res2a_branch2c_param_0 4154.66168825 1975.10037124 828.010118582 1996.60940258 1481.89178804 1348.33513719 907.054322416 880.554719283 3320.02480935 3851.57582767 921.795443752 7914.91476341 975.820133082 668.296266662 651.121213318 1211.50966644 1820.07278902 666.143234588 559.979051638 1764.87187654 1707.30673876 990.567936998 1280.6813803 627.244311982 894.658896632 1176.1219223 761.903724438 3112.65290353 650.0331947 1715.31260828 723.622124832 232442.87257 684.043837809 1100.77875302 1241.25847046 319.543374242 1463.36888175 913.762917685 910.548187071 918.438031591 611.651874766 741.466477905 1711.18366177 1068.29697508 1132.91502857 365.368611781 895.464372124 4730.77361109 494.293081948 805.224298525 6131.49842267 891.847981544 990.620438627 835.087044932 793.367203598 485.421714281 459.27088343 1387.48330778 1436.23373965 1277.72261309 825.648794003 933.199764456 612.34863877 3575.5754749 594.59672137 432.719136538 745.096297819 940.679650585 2898.65115518 1115.53419716 1147.50959583 2424.29353012 37101.1347907 529.902403324 1360.06784808 4850.57387423 1002.49443406 997.008763749 1487.70622586 929.081266459 1330.64197614 1914.48970786 911.735573091 778.278057963 905.596871839 2046.48389877 1690.97712978 944.163462486 416.716941076 1806.38090195 708.615641029 558.996320899 786.080884516 1073.36825804 1925.58124247 1331.41233948 1211.60421968 1661.08912764 1169.26988461 8209.49990235 506.378535053 3334.59867619 5599.26801887 730.333713375 2236.11258662 633.953397113 1176.07250374 655.220187314 1137.78222819 1298.32022719 1563.70990983 891.568653968 1262.53245784 9463.80342136 811.085975063 1639.26786104 564.427563383 2895.45487964 1679.11744901 1067.54682456 838.952044292 1125.83563969 3969.55481927 651.062321834 1333.16206024 1329.44496573 736.665246089 928.169628837 1465.21420071 326.734327626 1930.34178099 962.724715534 674.031237475 1543.80082878 3691.13363948 1954.79313196 577.578303376 798.916320733 1084.70302997 1897.02137915 1271.63479179 1650.01834417 1685.03341774 912.421652552 556.872327793 951.327250653 1188.30613807 2487.85532313 1457.24314974 1591.98951727 1484.86626357 1810.16145726 1412.98531173 2209.6340063 640.146190958 1139.78510111 2951.50427566 4582.84717716 711.32730547 876.986312539 777.01131143 702.148887113 736.427885188 1030.25301104 505.748953263 612.421945001 1213.54288124 670.138415387 667.141526053 599.415744286 926.521699021 403.429649481 1325.83464545 1694.99402285 4797.08168918 1395.74989773 627.434282258 1267.43371962 1280.80955913 407.024796975 1697.74969921 1074.70936707 995.705251667 51048.0048149 548.844008878 689.794565056 905.205887623 781.326700981 1201.59162729 899.412697565 5196.84337169 476.278186125 1232.03882932 551.910552787 3986.08547015 1555.6475199 991.086058333 501.939052528 1222.25132714 1212.17529725 1463.13612603 464.298143576 2546.97132768 2249.14915689 16138.7868002 974.116825318 673.321097067 1026.7111453 1691.96373807 1014.61220593 1077703.52474 1817.48300177 397.564619822 2406.1836282 737.299339877 1439.70420307 15536.223806 990.650030814 1159.21846812 1018.71729336 824.722571221 932.13942326 1056.6543094 2438.97940461 1329.46051907 3047.9042603 574.154923275 1271.95333718 875.601144685 1052.19674519 1366.58612222 627.397147276 4155.20200524 4861.27125327 686.41714559 471.955100719 535.320556227 841.945003656 426.739276148 1649.62216976 1022.99839699 3243.54165152 786.682024156 2512.76144449 1454.23737707 701.001765248 875.517403871 1469.33883796 959.429230713 1462.48924569 530674.077755 2953.42814252 3868.76424341 1283.72919101 746.085768966 4221.49049226
res2b_branch2a_param_0 1016.89590182 1111.60429156 877.05318593 1111.66243275 679.44609446 564.989711448 427.814468787 667.360407437 746.254639057 1198.45935525 1136.36547584 1111.13322431 1023.00723802 693.457334903 1108.82663539 1047.41833727 581.753635574 776.205224005 845.047361793 1523.56664681 805.010504454 908.689762408 1309.55271292 764.075962699 965.500655462 722.33672428 593.847958297 895.497772978 1057.51268477 1100.52894106 673.134598159 874.692635467 1502.84488871 657.549691845 944.901433335 854.275854652 894.001417131 576.357519655 862.672863571 1080.05047537 1438.47454242 575.442292315 904.151483001 929.38084806 1259.27280687 996.090091488 793.414324256 827.709130286 1492.28466713 1202.02283693 742.306391987 1045.11425191 1084.11483966 1067.20809036 931.79435557 722.616119527 553.295187753 988.283645409 1032.79800285 759.758499008 1261.44789265 1405.73568182 1069.43618969 1634.11893209
res2b_branch2b_param_0 1783.85724329 701.025751523 732.004372362 988.604855271 995.486838759 985.517320217 975.427126104 671.54703695 978.325646649 686.736996913 947.692774915 399.010264273 790.013327333 999.906815179 1257.65912107 617.117622214 493.981780202 651.866732556 711.209300668 1285.30709643 717.749779209 859.535938726 1217.1267977 1167.28235389 1164.95879477 643.205140071 883.839074741 885.801201692 1079.9565231 1230.16122081 902.299946176 1012.91859845 814.935154103 798.24983942 766.607168891 1342.30559173 955.839891582 1709.50184503 648.422248908 1069.66832488 1559.74343553 1770.65263024 1196.60794486 873.249467156 2386.46558997 1146.40073894 509.929695992 675.064718035 1141.79167268 752.271400145 732.859207498 1363.24532408 798.150490077 647.672475143 906.452731932 679.076829278 528.8887399 1607.1281784 912.429857782 1341.07706882 719.587476034 1102.17480982 1614.480217 1114.0440427
res2b_branch2c_param_0 812.379390744 2622.64334898 1550.9078634 1366.721664 875.314729271 826.19633242 1034.14197107 1470.64558278 696.13406364 835.543052621 1040.80428571 1327.49559681 1680.66375409 957.302484567 2086.76643457 782.385647359 2033.97187379 1784.28671936 1194.42142468 896.810656808 733.506648126 1546.72776418 1999.75169254 9188.99699745 4852.19661135 15523.9157351 16504.7066025 1080.42240753 3161.7977163 902.096809679 6152.75630999 1101.9699558 1020.4883391 3148.35459849 3210.1328705 454.267242734 737.315285941 1328.52993014 1564.50803917 2575.38670397 3195.16360431 872.469064028 1278.34153401 1261.47944652 916.839142162 3878.04971381 821.509009602 809.334969826 4336.79806959 1061.76279874 1252.94555588 1152.64722458 1078.78435086 922.888928593 1087.39963187 1960.68986684 6401.70725298 1129.67545363 807.966958661 1960.13003589 928.018334698 1017.0038366 1116.92338362 1151.25582426 2748.73779076 876.483419439 9097.38591896 1853.40687701 642.859175058 2121.33714873 1310.75416782 780.361349394 855.368313993 1007.93780295 1565.0209882 2540.03383741 828.608724379 4771.86191552 1703.79400843 3366.48766524 1073.77395267 1011.18432453 948.815434647 1424.7830606 964.67906736 980.210761469 2211.42266832 2008.53289921 999.12215752 812.559543203 1835.33081432 1874.09420842 4731.98446791 1189.19933324 1033.07335401 1264.41805842 1264.5187057 578.73179487 917.153184393 1059.98366997 1545.65034219 775.813647263 941.992159963 805.419481873 1026.73050219 1645.49309532 948.739071606 1957.28510026 1702.59677347 10020.7779642 2662.20917214 1064.31497674 566.64857104 943.062734705 977.615410186 881.247777241 2208.26569169 980.021517449 875.839232378 6993.16739134 1416.85985119 1176.07153001 614.213309697 6996.72679237 2768.69196949 1073.34777859 7336.06104557 2415.19359506 959.20668485 1267.91773436 1230.27486848 4677.55569968 1143.93704365 4102.99840357 801.846733972 3147.39831282 916.157435678 866.847430004 1329.36295384 916.767148968 898.87096503 934.164214805 1391.84726765 1341.6886729 791.526575888 5777.83928459 925.08400093 2652.13054736 1174.08395719 1518.17946698 850.913368099 1022.97506725 1530.17163713 1096.18668661 993.871261712 2069.91999704 536.683892454 789.193205262 6575.64239285 1560.28225668 1304.29171372 7515.16348647 826.212591183 620.502220873 1137.26807864 1056.60669184 627.166676172 833.776242086 1117.64254142 2054.38623998 1166.53711421 539.939605605 1401.5526798 2231.96978517 1246.08071283 992.133630083 1158.02291405 837.967160808 946.792540326 4724.14721759 1743.69041998 654.520107687 1638.84122115 1690.87195723 2422.82457374 2256.22457663 7667.64986337 10390.949616 830.534689735 2924.72103071 569.693321725 1171.86255887 792.594868794 914.001727663 528.626666948 1753.94645569 591.36249833 811.673106281 948.226711702 925.583712087 1190.31094287 7314.96813197 987.639791376 874.355233492 6730.11492125 1072.08220698 1272.46750244 933.490250233 1043.09340711 1114.82248846 580.316296075 828.231798085 3120.96074972 864.275519187 1769.98227448 1301.72420172 696.905418933 1735.32711585 748.924018378 838.197089804 1061.73766745 1360.24193554 1461.27611602 10219.1044573 1506.53982602 808.223252081 5256.85038063 1023.97379496 1120.65325151 1275.98128013 883.045219098 5398.6443906 891.172540408 996.443307203 1114.30010155 3076.85821839 1569.10523235 1085.72840235 927.222049689 955.144040303 1293.05954765 969.336442825 659.10364464 966.401768519 1133.88169486 5877.90762969 1099.32730808 1230.77419027 676.367609305 921.384373789 841.829408667 1096.79405138 884.837698366 1412.32922974 2897.12439415 1172.26995028
res2c_branch2a_param_0 658.053887863 684.652962938 970.092331732 1048.3652435 1167.56243419 1037.78440833 938.022211649 1281.44833356 1054.37793251 1018.23180283 979.844061924 1105.87087334 966.965448573 1559.89602091 1094.43326549 907.925224123 953.776399264 917.637248199 1628.66931824 1020.88554714 1083.3277907 886.968265077 863023.677844 972.431103279 884.212732467 870.685823713 1165.90509806 1082.73111812 1154.68811579 1006.1163549 954.929790329 1305.10690029 656.849133474 1324.95711493 1113.06248277 1130.06774618 1004.82696156 818.770776193 1031.72298029 481.589693691 704.018466262 876.099333172 1117.58619106 1340.55394306 1062.67010681 869.062696054 1087.85779826 1444.20440816 618.125594839 1273.02781256 709.80468504 604.971409885 799.830939516 1001.66733223 1045.29017765 1169.51745791 636.26039715 1099.27597957 917.830937749 1063.6355775 717.601839617 1191.65976698 844.781001981 1167.42865369
res2c_branch2b_param_0 878.878218688 1228.95270598 1376.45791006 1145.02952283 737.325300421 767.699582373 873.300648836 748.286993377 1015.24068212 861.277235481 867.461324307 1095.32071146 832.167259373 1222.88521267 1062.82104486 917.052032012 1098.16345743 1276.7948286 630.799337318 890.840184936 962.82248977 1079.463969 901.258396055 1014.3578944 1002.96066297 1130.56558127 1125.82537818 1159.30432538 1029.80300045 871.347748676 1230.1302377 922.009843844 736.591838192 856.251125517 1132.93129308 969.94505558 919.92770902 1146.43003802 1118.0729407 1022.19333834 1161.98901575 950.086786846 984.99988073 1188.61529665 1041.78466116 831.627442022 1082.33402212 582.690818258 758.622101892 1164.5542405 1180.6185551 741.455060536 912.258360104 906.150405331 1031.30213336 1099.34467863 1198.83266898 1248.52703655 845.602901798 935.268169242 1156.43905392 1114.00072242 853.266218096 913.749594256
res2c_branch2c_param_0 887.598982432 973.81764409 1602.73234086 1243.43529959 1760.48501559 12007.5716 1283.70299147 900.867148922 1191.22005875 699.419192659 1391.44051944 688.925295626 1107.55148121 3811.44551703 3677.06595287 2122.02958565 852.119562328 1456.084973 1077.86657325 1471.83162303 957.653686784 2602.81393302 1003.46524935 6379.31580982 8311.69313787 13181.3379308 17456.5826855 1186.65667272 2738.64749178 1409.55057902 10101.1664452 1081.03532247 1054.86463104 5027.31782155 5604.75353582 2880.84546008 5139.81959787 5110.18218655 905.011627243 6259.99544097 6252.62728457 1366.63805664 804.714528977 1306.15446546 935.126248794 5512.6923981 841.178677782 1589.5998778 8085.50597691 2772.58295245 1043.38979559 791.684727845 1304.11528903 1363.77965715 2073.16496107 3413.73781313 4154.01470811 829.231996381 362.874112339 939.632812256 1548.9163957 1158.71855697 1365.29647956 2238.614213 5117.55752953 5238.50544836 12087.372126 572.325301768 1093.25050918 842.122865699 1131.20557059 924.914639583 882.104040519 1203.25911973 940.690759939 925.96594227 1354.56396754 5524.20415764 21203.2429721 4568.22483705 1078.64201825 853.680902118 1214.4383511 1508.72642122 1182.94710419 732.258266749 2783.15162135 2070.27045006 2573.05766003 538.285883333 3086.81830572 5327.54689859 8929.38041845 1133.88705014 1342.02363414 1311.9326863 1060.8821943 1506.7258623 1561.17740205 579.973639547 16934.5291923 1236.32722623 1107.30383711 1193.55764376 701.943477529 1281.6858458 752.453777664 12858.6596923 1261.08047169 577.59423443 461.450360505 1745.24917264 1572.03026114 877.247727246 1037.75660853 987.177174765 3345.15749919 682.52086448 1108.42610003 786.489791711 1362.40665881 2180.99708971 1354.70865507 4957.23662172 3948.39451165 1127.34589638 7924.35284686 873.677358695 1338.19493831 2001.54686312 769.839950588 1767.76046076 1800.7715455 6856.29588382 686.322182309 1579.65312681 1330.92072974 1385.27008736 1116.0822953 787.634625433 820.506094811 1099.18411065 825.443764077 1751.63274356 1309.58480765 10575.034013 1214.03874106 2195.96092048 697.86437736 3252.47763323 1194.11333773 761.360178878 1919.93933201 912.228872126 974.209800365 13905.0229872 2113.43307926 935.130352902 8173.91599339 3344.9152767 1908.56946356 6820.62256399 4677.72096698 774.617346203 6188.18963381 3853.10509657 1261.16416548 985.099271673 1147.68814859 8716.67922606 1182.32498676 4795.98471027 749.581312766 4407.78037396 12870.7768691 1004.78609196 1582.15198938 1165.89106281 1101.99895138 8039.34457014 898.603422586 1110.44997766 7354.63562981 929.345783892 3343.19512824 913.882846037 11751.4539799 12684.1601719 922.432953187 11472.2868669 1385.20941022 1552.91124939 1834.63429596 905.215405737 2303.56260228 1134.07753494 655.24633153 2370.45202368 919.641929883 855.598186894 1103.26020224 6043.69838435 1315.08233829 1958.01265302 8949.29897746 1313.87942093 6387.61941773 2712.83052253 848.913828056 799.50950857 2304.11374439 1035.59576018 2562.95947972 817.207456713 12828.342031 1660.63083205 5087.47320087 753.714036834 1220.92045905 827.408039429 10639.0074214 1645.61335115 1808.41596412 9042.90525107 3194.22416694 1702.25790524 9747.1771827 873.038808562 983.385683721 2296.89991754 1219.8781554 2150.44686218 971.010558403 636.416565299 2782.09889482 3120.0090377 7644.89120058 1241.9295121 4950.79461457 1137.16239132 1912.87128075 1244.00809534 815.044338056 1260.13867989 2985.9495738 8464.14802184 969.3665411 874.050897815 1255.44288307 1011.14965404 764.507961209 1160.21500532 1017.5069243 927.094460272 3018.44803443 764.445835219
res3a_branch1_param_0 1189.66943362 1426.58553805 1247.94742319 1636.0906612 1138.98374566 626.198261671 989.194397445 952.568189764 1957.06195159 2492.44420633 1679.34011362 786.76931476 1137.42964444 981.59200687 767.858386108 795.403803588 1373.95956111 2699.6671999 364.289142842 674.25509056 798.46551782 866.949097461 1544.75890955 2323.82658822 2058.07677402 916.679786114 1746.39103628 663.695800417 857.218953868 1558.92064588 445.401097978 2015.84556741 478.348317434 2622.92644869 912.29878712 1047.68177113 1286.35154731 1608.36178935 1391.89227451 2167.42973587 1797.11722165 786.954708136 1600.18957987 1122.92598201 972.337801828 5226.97135449 1674.65003471 1671.56445157 1547.9835169 1422.21838699 322.080566154 7515.04586549 724.361861632 579.120044874 533.746335734 1939.06456093 433.979874287 2109.60079896 867.12153695 1015.61983606 1506.47192157 1034.46386634 1258.13523333 2077.45122942 2136.40716748 1679.48241168 1746.0337975 929.826778773 1986.4017909 872.503272389 903.335768069 786.632069531 1066.67402511 479.794011882 513.890753383 1494.33820933 1828.09010826 2513.74732105 433.147182184 865.842620667 636.488997843 656.345921935 1753.28886791 875.1954523 1130.40970769 2412.70693617 1064.56643487 1483.38011649 1924.69023563 760.902109991 1162.73059528 1922.15566577 1001.12656681 1406.21904186 1455.64168382 1367.01530221 975.813094367 917.82194321 1418.76524415 2973.78432452 1849.28059886 1498.77112991 486.547746021 2011.34302855 589.135894096 1989.56309557 1687.03432838 197.674232142 348.717522557 718.690572464 944.417592035 1980.36619005 24715.4795615 1386.63825239 1405.49667596 1447.86701164 1423.35716716 599.75091342 442.614375441 855.888172906 942.007048563 1828.75694405 1044.95138915 1712.67844593 947.527781098 1462.46289553 1072.14977445 4837.77167782 1425.16592628 1003.88378079 1622.22335901 713.581162077 1226.56785151 1321.58828729 1067.09484818 844.038343872 818.609166593 510.79856283 475.4039777 4648.41743893 640.86027028 671.53994657 1405.66276598 1608.68844062 1503.13034715 466.413376241 1368.75780208 1125.5990032 1068.51917152 1608.34555132 1676.26971285 2363.29956918 964.194289971 1671.86480746 1381.57904405 640.379661913 910.4766921 400.611290334 4568.98677336 467.906786538 1692.42268977 1276.52231964 1313.5902464 1725.27709715 1705.9483285 2141.13240862 1186.21974018 782.726879306 703.68069169 1306.07620252 8511.8486352 2331.29355191 1757.83130126 1056.68005217 1926.83936109 2175.64575484 1546.72200983 687.791854741 2724.22455159 888.02967453 749.778943792 2201.0026034 253.175849804 2057.36745435 1939.39262251 614.041921412 2099.53839092 1047.38738027 1146.25241605 854.806388663 961.730157577 1595.23716194 740.676735661 1819.32954489 1435.8805858 694.549425826 1913.01125149 2232.48061893 861.119466881 3250.16907212 1099.66212445 2507.63260739 614.857900065 1493.82288679 912.888706276 2380.75621576 1159.68519924 893.464870377 783.524389959 1151.12210065 1727.95228865 378.589330697 2304.32243762 942.694935779 2117.07997903 1776.39936058 1351.1658309 1279.51922362 1627.8033131 3740.90518677 747.185152988 1698.27270557 1868.05856526 451.098013329 873.345035009 2162.39264721 1185.19997032 3141.15056915 835.255063084 428.500610763 1034.4296527 1535.42682568 1201.63558989 1653.94917364 499.325064158 1946.60459879 1170.5122566 6204.46411549 937.287212097 1763.76759222 1231.22393544 756.839846022 696.078175351 1054.29928338 1187.31974647 922.131946872 1754.79456058 6155.64870447 2709.82671777 1568.52392825 898.31691283 1354.78520986 1145.42108498 1860.54688448 1267.33383271 801.914333512 1171.93523189 1334.06125052 1359.9216881 1560.39037983 568.311288655 973.789605272 991.83378467 1263.31742526 1186.49213493 463.489603057 1807.06551579 1966.84988876 594.886698604 1436.16028773 894.194450299 1390.43546301 2164.58846466 1713.46143738 1084.90614033 1832.98853848 544.964431951 1528.61923707 997.449707576 463.389860912 2723.64866067 1873.14583573 3581.45861929 1111.86524956 987.795810561 1654.96340976 1114.26273409 1602.20431728 1850.17221911 323.797458136 4235.07756356 3332.69069755 1464.94862614 916.799692436 1494.58086794 2354.02563477 870.998323475 1097.69395556 1281.08033942 1534.64385343 1170.92321387 1064.05300973 1158.31824571 872.452094818 1248.77711012 272.539723981 579.054375833 628.166099859 939.697251867 1535.0374515 1360.71504028 2707.84049213 501.050253376 837.192019215 1516.30928289 1362.55368021 1754.77270215 2136.38494318 1261.92267438 316.266952727 795.534770565 1296.15638021 8359.32362734 1393.31842955 1105.14198836 1118.13946185 2457.65752103 2616.28038639 3380.94738995 718.566053109 923.82195962 1613.32805604 2590.276729 1301.92682817 3149.92253575 769.920065794 1129.22395806 996.572521164 1032.05818055 1352.22570113 1515.916601 868.140106805 2239.1729493 1579.11488977 856.418044252 831.602124839 655.322156516 744.534571903 1321.91687419 894.088637541 1236.27871598 579.813251007 1475.29449639 770.73593611 458.786713808 2439.13157013 1297.55468103 342.397637886 971.813605463 1167.40090987 688.711798804 1286.21963642 983.068422869 1226.60262738 1510.02566954 1399.22374214 2505.307898 1018.80685965 2282.68549204 771.896289723 1340.9864418 1165.7177234 1078.23516103 1765.92357288 647.186808145 1172.5279904 1198.0679165 2747.46336072 689.15458321 2061.59843133 1597.70519028 600.615407513 1412.27130746 1658.05407588 856.289924015 334.993611604 1358.67187754 2372.36502267 555.324511683 1331.48742794 2009.56815636 929.563508275 1005.56603069 908.480059079 941.899819507 550.583510814 1259.87407181 1488.85453997 2748.83065568 2049.89841166 1256.96337779 430.294619152 917.253766785 753.619066112 1553.19991201 708.239187145 674.465908545 876.884172066 1025.89529527 991.22679798 1244.75246482 1826.60089969 6529.63941966 556.488834802 1643.63969555 2342.54931582 2140.9011356 1957.59799858 1369.09904967 1141.47199031 1273.51040137 892.282247534 1347.45836189 771.308382057 1227.58749682 696.366468652 1106.07825699 1006.44914435 1050.02424025 1936.43987871 837.91410551 269.441546491 1661.54038802 2727.68589077 1726.7308441 1156.97854068 2225.53102327 1858.17043279 1824.95525374 645.535351831 693.182833049 847.509062755 1713.73586031 2211.2720563 1246.39970646 12641.313531 824.062630427 4628.13500035 1214.63721616 1312.27255179 1336.90723379 1446.91636566 467.612122106 1230.27620042 1431.87704859 1258.9274788 797.797473056 1182.06868302 301.529298435 3612.90920933 829.993269545 1373.76378726 1319.09029167 1051.52195623 1158.12472469 1116.49533137 480.41919069 1335.29462477 891.866180293 2582.58583338 2779.35963784 2082.36358059 1426.26658895 1214.94888507 440.197087543 1277.57953882 1287.56418075 941.292094553 1025.47739915 540.00871128 443.403332871 1030.9398011 950.115277883 552.678885899 1435.85131534 2501.29501908 1313.49965243 2443.0614591 2448.44003645 994.671138869 947.721860242 914.68287909 6544.1892809 1303.82291633 1269.94491324 1044.75092368 381.360352138 1770.50568218 1155.06251811 618.497325414 308.104062712 470.048155579 430.234711539 1245.7278325 1182.38091937 853.885315537 3354.12201926 482.685476551 3038.31570842 1063.56357087 2027.10200851 733.478052094
res3a_branch2a_param_0 1322.74706302 710.058495253 1189.34138654 854.335455466 1046.76412445 972.755190302 936.097463325 785.669432806 927.201169018 714.574552661 924.452048181 879.362270099 1442.50558815 984.891063251 1039.37989203 672.735146027 1973.65322345 1144.13245628 942.18054065 807.75147624 1371.52235061 1106.61099368 1045.63681885 1781.99850483 1088.38889902 850.154126928 534.776810228 1000.08926569 925.4160769 993.661182706 1200.92792045 1206.75196386 957.012573918 808.134584515 1026.60602481 648.057345313 826.434511168 894.600297996 1375.71715594 1281.77248983 1102.19540631 1105.28452068 993.222655402 919.794971857 1528.75852655 626.960125609 1053.90966723 1318.09251241 1625.58697764 905.812851391 510.090288246 683.114740536 784.861263565 481.266080816 1056.97477514 1108.15940529 928.637972841 1272.91012172 747.852587107 891.038003449 646.878425431 902.07150759 1200.73402627 905.394556665 1161.87678333 998.277573223 1096.39983302 682.497854528 1084.55347284 709.492756666 464.286964083 1382.5732396 732.307153927 1297.1831051 1059.97576022 1430.17229003 422.860732835 871.470969188 1157.41761284 1027.78733207 955.546794946 842.649238179 1477.65676399 1012.44968273 796.241949645 1358.93194789 1442.45639421 1309.51478481 1164.61662047 950.72649885 601.655976907 682.472660137 942.938051476 1088.00132355 1655.68164183 809.603590864 380.313406788 1550.81981564 1158.10796483 1033.65358023 912.421750233 1182.24987153 913.314934639 445.169616487 972.082839621 1230.59194993 1206.79758647 1220.67372427 1001.64932084 780.71140156 1417.8589041 943.132968311 731.394099126 1671.72838791 971.671566699 1091.23729647 810.670375998 1219.69197075 939.67031462 1088.36749493 1865.22744411 700.219134374 1231.34880933 871.164363446 910.717290604 523.895143098 1545.6588917 1222.78617132
res3a_branch2b_param_0 1371.82788141 1372.17485919 430.35397846 841.595986958 1629.42938656 1539.84666947 882.130700018 1267.52193473 839.599912364 1317.8798305 1155.25470383 1418.54114765 702.616074417 1384.94593725 1158.86279664 1207.40681637 1302.11002176 1130.94716181 1292.57791046 752.651397737 944.448883803 750.857361143 1030.66814105 1184.23106748 989.212422942 330.993061159 1146.903117 1121.4021574 1059.65235257 1479.4299362 1337.09002096 1004.72437924 997.232979121 1250.3215691 1631.27490061 560.426364631 1495.90180309 1597.42474946 970.8440921 532.514790068 1669.58532945 1209.36080122 806.632344546 757.388867196 1552.98779113 1107.43649496 1038.36127427 1547.82622549 1246.00046622 917.426555451 1943.97233723 1283.43631975 888.489867641 1155.84402825 1900.1727264 1029.84673941 1312.75988156 1194.78569441 386.46325826 1051.16971731 1372.35018172 1606.01704866 1381.72149645 1219.13489117 1133.28101775 494.067917612 1038.80278036 1599.10887268 642.656988787 1056.32016017 1159.97040715 1098.46054212 1140.02667313 928.093824004 1318.21330389 1082.70684125 736.715615043 743.866227373 1149.61062136 815.397028213 1371.06783852 1266.9429175 1151.7784994 1318.3156627 1205.30331973 1467.60138319 1361.83053196 1417.6534865 1784.27215114 810.366372198 769.986215131 644.190540084 1130.24435924 1012.86731785 552.390241904 1231.07072381 1028.50304469 850.667155871 748.646666157 738.906015961 1312.9252031 1054.37949778 903.023461078 926.563500849 571.314117579 999.847225194 747.537603761 1578.31757462 978.331598633 845.96994507 1254.38532067 1586.60355145 1062.29083071 1404.05231787 1260.75196199 1668.01264999 1186.95993166 1456.91283686 1225.65467599 966.561782003 947.902735161 1664.08933431 1159.77065219 1115.84543097 1106.8016943 947.495336967 785.369991931 1185.93657899
res3a_branch2c_param_0 1622.71831686 1903.86028869 1301.84708246 2043.48671518 757.939426925 746.944500529 1229.46266031 2477.83375047 1049.1366453 1521.77609668 747.069947881 1929.46733071 2222.36959377 1516.12262575 2037.88509637 614.152938954 1312.36701819 956.347207253 1516.91218638 1301.74806024 807.396112578 1792.61687305 2102.41190972 2585.28560149 1450.44105559 955.928981425 1420.31034124 1385.70579042 1072.89715826 1231.54070554 4186.77496503 1844.71816132 2170.8579421 904.48204031 711.272512657 1195.075695 1028.23303931 1276.66400978 933.480741678 1348.7890012 1152.48395634 1223.90093882 1756.6087191 1457.14884833 3042.05983679 387.207741587 455.272196589 2008.48485623 1847.30952344 2077.83843044 1770.52609528 466.896750435 1384.63386107 12992.6644795 1652.55542548 1033.47559663 12727.6332386 1594.91057764 1997.39949064 1203.51373436 1361.54716456 2080.07849156 1271.19192124 1039.86869885 873.846572043 2210.19713907 1254.29006408 868.149834133 821.49998265 1306.24965466 811.881018847 2301.05854178 1411.54808868 9321.66758834 1772.81055146 1868.06409281 2011.5143978 821.105761799 1615.82684383 1403.46401168 1078.32424353 869.520468275 2490.94685477 1800.38943285 1130.37260127 1221.17639217 1009.07866475 1158.39680584 947.987820838 2049.63060334 754.78663252 2329.40528518 817.139839713 1560.26668932 1390.16750417 1421.33228203 1399.16332952 965.563660077 1058.32974295 2487.163249 1407.71773584 1230.91052818 1992.37717876 2529.80442532 1533.24123048 2273.34717419 1325.00263754 7157.31925746 3027.14809523 846.783728623 2749.01174926 1190.33612886 369.358637973 1599.93754954 856.071803423 809.409679932 1110.08846282 14114.1014262 5379.98081524 1827.9591518 1730.58061791 1165.16559764 1618.93082809 1097.99800043 1535.27691536 1470.32083478 2034.59605633 2722.16130804 1339.84110351 626.797499966 1482.38382699 938.222330985 1545.90560677 1727.66611475 1373.26098841 1268.12685932 712.430237418 739.829328656 817.696151597 610.711008694 1882.39583289 2242.12402069 1422.01668681 1034.34365779 1120.00932085 7035.22044936 833.484904403 2178.64019269 1491.65248704 1005.53874382 1525.12230539 1626.57370178 1852.26413179 1584.07589743 2044.06797223 2452.05850766 1066.13375918 11254.6565557 520.134538848 2783.4095302 1368.06538597 811.352052407 1450.28580948 1546.29237897 1665.57177847 812.144832121 793.803172465 1273.52933574 2518.23251151 2115.01224799 8512.03672146 1589.66480907 1257.35641243 1465.39810676 1133.91586393 1039.03364944 1288.19783484 1864.0470459 2274.41946391 1569.57364992 623.658525231 2679.3142846 8056.12627667 1278.030705 2346.61479247 11342.4164835 1353.71541217 1633.12804221 1469.91484788 1385.43818739 920.070814191 940.593276524 1556.03137029 992.890457001 2008.93224188 456.135673568 1112.95216278 2805.93437064 1059.09962985 339.708423052 1262.87845684 1342.95354945 6035.31060161 1118.6128927 1743.70058721 807.717870121 1173.50764076 462.816484489 1414.59801524 717.636220463 987.061474005 8480.45683562 1495.32768145 845.51297318 997.125525145 1481.59643812 2651.95250316 1213.36190736 1097.20253694 962.824012551 1194.71283944 1301.40011069 783.014739867 6125.64218399 806.554177171 2976.06622834 917.433567108 1305.10969822 3100.59475775 5069.03420404 1474.14315567 2205.0422656 1007.2108373 2464.02886005 640.474176106 1126.48480031 2070.70943791 403.328692868 1977.07738654 1271.8572918 1454.02140814 1072.28722838 1356.17233781 966.859372573 1775.54670905 967.007468564 1404.08250368 2216.98958835 2123.6352575 851.305189312 2191.36984963 1973.46950883 936.501908479 2560.3616868 1484.04948987 2029.24736145 1074.26125892 1555.55765555 990.455353583 703.182266211 1682.9104635 909.882988342 1739.49454394 1398.48938202 1112.8908349 3650.3513489 1167.98412726 1336.06515015 1511.97009279 1470.4579472 1230.81978101 1391.5404802 1668.62104593 1451.96306558 1353.30131021 1527.51418428 1436.52459587 964.222651629 1280.40884502 10015.720882 1419.59459161 791.582447556 3547.70543952 2097.58826636 1965.02600156 1537.33007547 887.204909905 1384.63127415 1164.25548219 9359.33951011 2606.8301012 2978.85156615 1937.16500299 1637.57663446 2479.28111537 1239.12726147 1291.82724508 1553.02684306 920.428921088 1615.88750175 1075.75163299 737.502799591 1418.15357355 1139.33021146 1211.71653158 1356.35492697 2318.56749372 1739.89688364 1724.94066218 1881.40332379 763.805552621 2821.78224305 2446.23250907 1078.14370648 1314.67976921 1243.20096121 1379.84006901 1305.42424253 847.739283657 1935.91997216 1214.23790774 3089.20314581 466.377950832 1575.69052088 1110.18411588 700.020084244 2025.66747096 1044.13917926 1974.74090188 824.432740177 1766.47277378 1947.52669632 1434.53175677 788.235374504 2282.34806225 3100.56458423 1019.60884741 1273.38719898 1826.7471272 1742.054507 576.882969692 835.600477742 1386.43174462 1343.29930512 5501.79138873 749.56865527 1587.85864658 1753.94988474 793.811970665 2093.52709184 646.406841753 4113.75775683 1661.01903994 1925.98113729 14572.6460907 1215.79856161 542.336502405 7569.56907773 292.38987651 1280.30180589 499.945371976 3923.77993834 1208.3165477 924.541199713 496.896750055 1487.06105293 695.718839926 916.982274541 2798.07126052 506.331905776 1228.07534886 2205.46936223 1899.66893374 910.959866283 1006.32175302 1782.75201377 2373.98284656 684.17864757 639.910055473 1305.03795498 2441.21773169 4484.37043693 1389.76332334 1680.78025612 638.045136459 5247.13466251 605.811497148 2415.83369382 2261.37669209 722.739166047 872.161844948 999.133636006 869.31745689 665.166614493 1955.63347839 860.206797822 2460.43697192 1405.05249404 938.380276942 915.224678991 1707.08138356 918.01600739 1112.77742521 1361.68431924 1223.60451111 2794.63091599 1513.5688061 2110.10769259 1573.34560481 1360.49022835 3094.50879677 1150.30170265 3783.53532637 2983.13790067 1358.21545167 1182.69323865 1452.3439745 2815.21320664 988.861445763 1804.52481262 681.47485336 1597.97329569 1008.71954005 1615.09869169 1022.35274026 1635.89140591 1913.29318725 893.972253672 1207.59508649 1060.33920326 2565.29382004 6586.17560905 1191.82349129 4193.47928585 2706.40150333 799.155738225 915.315500121 729.010349114 1497.50563979 1194.5592032 1070.74636467 1436.31978596 1508.14535081 2145.94735246 935.351309683 372.270180291 575.537224845 4399.34071927 791.989445872 683.656013966 1078.78899352 1327.99585279 3049.38953823 1036.50835456 1729.00024151 929.985868029 643.226256424 2012.69055992 2149.82482416 2040.22549178 2159.98694503 1235.66240253 666.627797735 1898.99000943 1179.0466996 1165.56962045 5141.21404202 1454.41444253 3050.61254317 3322.6934125 1675.83760225 960.057472606 1908.77891149 1374.94514594 8848.59734704 1159.70058458 1214.17745033 1267.58800986 890.328350993 941.752237301 7648.60971516 1709.39007001 1005.72824014 3863.98027485 1868.97412713 432.853414442 480.227428821 1594.35771923 1694.87217165 5749.83440334 1848.79520601 855.791574995 3915.62499922 478.069104751 1420.52292213 801.252635336 1599.75450934 1391.0897481 2461.15333886 2518.1294634 6742.39381867 13587.1549547 777.308948274 914.520542689 1034.10018771 647.053653711 659.527333568 1143.53422066 902.869349284 1885.08253415 924.753467598 590.545980242
res3b_branch2a_param_0 897.359261647 1226.57376503 1734.5250769 1182.48262858 1424.39242571 1098.09200558 1203.16085388 1148.3789313 1451.6557872 1543.61740688 1140.20915874 1434.98631962 1097.04506524 1209.51080198 992.207320272 1007.13037932 1687.91755236 1298.18268651 1484.19214717 1060.05552227 1346.98123022 1364.91384284 1232.18025736 740300.359368 1196.86412211 1245.54232041 1239.54302032 1221.68113786 1141.51640329 1690.10561601 1204.57761971 1572.24109038 1645.32600544 1253.15225817 808.452789869 986.238404027 1481.91987367 946.783389905 1392.14475335 1088.40967848 669.751931165 793.620154993 1426.33760008 1288.47622862 1359.79193912 910.918097458 784.681767703 1695.3195509 684.9092457 1797.90860497 954.492385463 899.968387792 947.827783855 1606.4793027 1420.04908175 1231.37255958 1381.50032707 1200.24187389 1291.2566258 874.166097211 1172.8386762 1153.53927487 1332.85818743 1288.27396977 1187.93347241 1387.02233318 1183.33513061 1516.39912128 2053.94672028 1246.16379398 1429.72448899 1114.23534745 1273.71985257 1270.06622019 971.44518825 1197.36141386 986.163429702 652.279867536 1370.07073346 1231.85630333 1218.08805972 1399.15138543 1660.27919053 1431.34896827 1422.56948175 1405.24338602 1031.07711932 1123.96400499 946.974112845 1112.29360506 990.264779885 1247.84738674 1237.70862933 782.139375076 1839.27115809 1066.18857475 1546.95474434 1152.22928791 1546.76888799 921.485587532 778.644524924 1893.35245489 899.514173047 684.336148486 1637.80981897 800.257211288 806.186291772 1512.81870317 1841.00437299 822.663955607 974.406609683 1154.75554505 1552.14992148 1187.65065105 885.986196504 899.993191887 1360.34582316 1089.14588004 1124.09623716 1174.78397627 1656.7849585 1101.77436459 1238.51521441 1144.37134193 1202.5140759 968.212349907 1363.54205137 1549.28031486
res3b_branch2b_param_0 1947.83002727 1140.69009321 1550.65785644 1182.87880504 1700.1142465 809.769434555 1521.57899103 1545.9515942 1756.07504114 1673.95372129 1267.8748237 1486.26000613 1350.16387139 879.637268691 1269.88653899 1311.37282262 1093.59440291 1323.0271393 1256.45388353 1045.02134601 1401.57987709 770.937977255 1515.45082481 1479.08114747 1318.48830175 1315.12231451 1232.32955795 1158.7753505 1361.87187756 1744.82488606 1621.22478837 1171.60714685 1205.59904603 1265.8143859 1316.76282435 1090.57382631 1042.35782517 1386.90575504 951.260250616 1071.4174387 1135.12593063 1249.45969666 1627.18578983 1343.77764511 1204.33770077 1106.90217268 1179.82924561 1407.52814689 1533.35819021 1157.39136442 906.697285002 1210.17157412 865.144063999 1340.11108196 1279.04512339 721.985245718 1472.76834494 1465.54602086 1459.22967569 1581.02422858 1125.06958935 1094.84604182 1442.47824421 840.738393913 1482.19034892 782.31002599 1277.16428785 1067.92799038 1447.42121396 1242.59276488 1563.74476881 1475.98956413 1874.08349396 1144.42612302 1116.31991818 1351.9768768 1155.75876111 1362.10552738 1033.24781694 1123.29405739 1436.34024011 1014.44941254 1268.2364959 1649.89313186 1069.39445766 1242.81989658 992.082007271 1163.32876455 1308.48181272 1551.6784255 921.23548257 1506.29885948 1582.82838961 940.724608746 1596.26151542 1077.24403767 1068.96752884 1388.7871643 1721.1014887 993.393643106 1206.56805601 943.299775908 1390.90665419 1214.36982784 1048.65134601 1459.58291142 1192.04927965 1305.96112698 1479.06343642 985.172945486 1305.90239624 1126.78303252 1159.84072828 1415.10569933 1028.20339203 1402.40263288 1519.50873526 1681.66673056 947.652522083 1308.40226632 1107.87447706 1488.60996704 1240.83225659 1700.92957872 1252.95273958 716.63273835 1628.65080023 1294.36860356
res3b_branch2c_param_0 1617.8946889 1926.14762778 1216.7537306 730.728953517 2806.73783263 766.893367609 1780.78468916 781.161275752 1108.35532442 1889.63338257 2263.0624904 8234.25074944 616.061226592 1360.46579675 13989.0809782 13985.8685818 1135.70790749 917.032494903 9689.78259776 1620.38331566 2152.8150351 1888.41039544 1007.66955046 1345.47751386 1684.49988828 2486.37417735 1231.70489233 1034.3261467 953.327680289 1382.2408228 10289.5342585 764.228953437 3007.49815993 2335.54704533 1172.66931549 2078.71478702 1612.88123441 1150.57229459 1519.57700729 1665.27546883 1516.34206053 1178.91973278 1799.44122397 2066.32265914 1781.32772304 1068.29222144 1436.1400807 2948.48749946 2944.7576215 1587.62113179 1150.44796955 3346.24038025 3073.20889089 10077.1618051 409.324280212 2583.99092811 8285.96922618 1916.61092902 958.170793754 719.623627205 1469.24828356 1572.89481736 2514.60375829 1883.21668472 1366.7888422 1138.99911937 1239.22878757 3147.28557335 3176.34664516 863.521215062 2595.25812255 5045.08779242 1310.15583349 11202.8922377 2931.25686459 1015.35231802 1103.5274729 1198.8431241 8360.71665746 2310.49625394 528.959608829 1881.69949177 4174.91667931 3135.82207387 1750.59242179 810.791146661 808.398191913 1225.14972425 2158.17405271 2821.39458232 559.123939116 1559.0906103 1525.00905451 1609.00656737 2062.08862856 931.872294475 1341.68645518 1377.66127849 1203.31917427 1107.68894918 1594.22202469 998.084679081 16643.1067143 2722.57522869 1448.47640093 1094.83675937 1955.3218806 5752.17879903 9175.51880294 3709.18762016 1577.07269634 752.36702773 972.692353818 774.124487358 1969.15271284 901.296996176 1771.70515255 13680.5931958 7465.03167306 915.035919142 2450.31195268 1001.25770407 1057.05978916 1505.34972243 1312.19961485 872.08188385 2505.05771678 2604.96447305 1136.09894967 9063.01422951 2013.58571546 1540.80903945 1194.54120481 1082.04834276 925.296518163 1614.96281 1653.24575226 378.456588814 1495.58181533 2176.67564495 497.720804863 2698.71426988 944.427847971 1484.99691695 1156.83476966 8483.39068639 1573.41226487 1164.49186721 2462.10712869 1276.83624102 1099.14668698 1410.16324889 1722.62967394 1241.15606928 1852.15645533 2934.76007484 2130.2785123 10358.8621858 2115.12181786 577.492478689 1551.1959228 2004.54205826 1834.37901202 1602.69647546 2254.53925513 931.857113196 1487.92205734 4024.20271385 3304.83819049 4660.8697969 893.757290489 2911.47182915 885.493631287 1098.14081821 1226.68401417 1297.65069538 1493.37581992 502.781650967 487.869513216 1998.01360332 1537.19421023 1410.54891848 7468.7040425 1454.44658447 2034.56497167 9797.21289056 2404.75739415 731.490393703 896.668752028 799.533134398 4990.94489396 1362.02161317 968.337425967 778.199036211 1226.65682519 9436.3851783 1391.23575831 1264.05237374 773.442205634 734.109893408 2287.81236602 1941.61851508 639.767967935 1231.52024088 515.722457827 1873.96028653 1476.77752826 1763.81285404 1224.87451937 1866.49435671 2238.89457554 9533.81134206 1374.46464499 1774.81073463 1654.30391852 1838.54824589 2627.28192848 1913.79606798 2093.97329804 2334.15694945 1118.85313673 1581.61923933 1434.19355766 460.625010498 1521.14773738 1808.95812939 3884.15419218 1817.87492581 1490.48669119 11716.5470095 2160.74360407 1334.78561563 1533.51255471 5535.73982595 1855.8160059 1473.4484244 1325.78576588 620.815399975 1578.56108483 1608.68464512 1752.81001428 1390.23927481 1733.81583236 2067.2902367 1261.4515334 1231.86556188 1046.56482636 4686.24176839 3475.50939264 2154.72896657 1433.7644603 1658.92868115 726.482532695 2018.88995925 1253.2694566 1246.29107904 2427.18391299 2402.96287688 1213.85943454 2236.02766744 1162.86068322 1938.40788889 1414.55176282 1299.8392635 1210.73459382 1000.16050399 1821.90084343 1011.12422253 1012.9314796 1900.9449221 1852.31465347 1138.6082081 1411.92001408 725.476097827 2945.63212992 1661.56306275 1105.72216473 2284.69823446 706.511572586 9045.07597799 1801.2562192 1641.33374777 4944.90218954 1873.48965147 1657.48414278 3284.6939317 1768.6953873 2006.69895816 1434.59876374 11217.2682445 563.928167726 2498.6424668 1757.49854116 1234.67482364 5611.05546553 2217.29441182 2965.82153222 2214.57717562 2545.88640449 1033.06515207 2319.5940173 1333.95288278 1673.52789722 858.787198801 1345.21991323 1551.15766867 1051.82575076 1305.44573742 1381.45643756 1389.3685503 1599.92673714 1113.97531428 10591.2967076 2138.08053815 1051.53090794 1619.46855111 2316.29855044 2708.6193102 1035.61482433 1982.67242583 1887.30997314 1112.34637423 2235.57120904 1928.62422173 2352.3238617 2285.86770287 3041.63317521 2573.16214536 4659.99378217 1525.19817925 1226.72577102 2958.44621574 2236.19164499 1598.52821513 2533.02619022 2201.06598232 2274.81268791 604.755057698 1176.46098557 1442.10676225 1776.44379195 3689.99260211 1112.37424883 2391.42630409 3731.36581946 1450.25545522 4099.5382408 3549.13515515 2160.97877327 1411.51349006 1627.4979115 5517.64647335 1455.86136732 1952.60583658 11352.0646047 1701.63085336 1820.67836193 8254.45283035 11396.0269406 1189.94383051 13416.6821199 864.927554164 1576.76400783 1189.2642985 2975.81086542 982.705587815 3952.93014817 2496.0202052 912.766594823 1852.67563156 1846.40665907 979.305554177 4036.13689239 1931.32271073 2101.13635219 1201.62881318 10399.038442 1526.15161229 1821.55954332 1186.91290398 3077.19565739 1401.11236886 1195.74871675 1063.58248411 1383.22867528 7117.24092756 1576.34391301 2946.84819549 16856.1243543 1672.96533978 1157.2334275 1212.49398354 1830.92909747 1084.80975353 1230.31740297 890.784971629 1103.98124372 1825.45968137 2005.20751205 1984.47516986 1145.73628343 368.909033993 1305.86547962 734.544112935 726.337533047 4868.98766375 857.379263834 15264.3717756 893.927433802 1505.72431237 3053.29747663 2672.48221558 3424.05334288 440.315618572 1174.89863525 1531.89485914 1610.39093318 3547.74383584 2047.92901329 1807.57121829 1079.61383515 611.913562983 2303.15953253 1537.07985251 2944.52464259 1912.11017282 2765.41295082 678.263330877 2204.78443297 2145.77162637 11866.3284 6844.88444494 1080.46130645 5377.76154412 5032.17099576 1933.85585978 1597.45918163 1573.54632825 1478.87403173 1094.74288886 957.806725867 1374.86862469 1748.4073337 998.556524751 2476.18374252 4273.228876 4131.67917095 2808.60873745 1659.55389508 1142.31114629 1425.44742922 1196.73093658 378.228207055 4214.64896302 1028.75139858 1190.7410797 922.668326053 1120.00998318 3395.98781834 3355.80487385 928.413905687 3967.71053137 807.802771153 1172.01307131 1920.64262686 1688.82111079 9165.90628589 1468.08574671 1329.43013856 3756.82852833 2538.85441288 1072.37492594 696.530827002 1931.86686189 8932.3727872 2005.43092246 2091.95415795 1153.09900551 7512.22241058 1895.90541857 10417.7149733 989.566177067 13032.8113668 7798.67578834 1571.67166235 708.545360467 2010.64100442 985.826585359 3208.73122844 677.110928578 2725.90442652 998.631289189 5128.77261788 4667.27341805 875.427564463 1867.41145428 4982.72160966 1505.21546329 1085.50652664 7457.92779519 6711.04030476 7004.64004471 1989.1628268 1538.04570506 936.533912825 11575.4203398 1739.02887198 1390.93752591 3917.35995336 1614.80629895 2792.83486334 12574.4712624
res3c_branch2a_param_0 1682.65263342 1687.27930656 1515.78759439 2382.63609787 1551.62757701 1300.03089265 770.82948375 1400.08685677 1212.61724348 1135.15949437 1033.75682626 640.655293944 1113.1754417 635.623359021 385.11516087 1049.33027068 1288.27543024 1828.1448097 1685.49361678 2018.46489752 1756.27768837 1209.20860736 1449.08519471 1789.89855942 814.034199114 1406.41709742 1621.05149069 1287.13172363 2398.52818821 774.684023531 475.324118672 1806.97107526 693.699812706 1619.21902537 344.635534021 1147.0810179 2367.47690996 1259.50179693 2087.12555463 2429.83594152 1016.18891652 584.333877502 1599.20894074 1529.60330687 1081.12527971 1392.32407916 831.278330707 1330.9145986 1933.84335412 1295.92914044 988.065154045 1066.06101388 2044.38434732 1096.39687111 1286.90171029 1040.34990162 820.056090559 1142.3283707 804.093718695 1425.51692821 565.571557679 583.43601538 797.207418568 914.075443922 1537.05989363 830.651413218 1838.78921959 1871.16959558 895.619636655 2245.64633061 486.985442363 1009.83967807 1679.18162859 1287.56943269 893.291064349 1430.84625937 1697.83442061 1801.15286876 1505.29428778 1450.87686012 878.684856011 601.029728061 1186.47016697 485.12943584 1522.17385946 1485.20678664 1363.98165445 1982.26547317 1102.28164913 1660.11927041 651.408412153 1064.26274578 1346.72358553 2209.6340063 1819.59425357 1194.42611164 1496.21588644 1060.54919329 635.196440025 1302.52881566 1771.1162558 919.653143292 1354.85595805 1036.2125236 1819.19828728 1196.35322072 508.442764091 2135.01302014 1936.22607623 1010.15721558 508.956529876 1286.55922347 1048.44552477 1457.58445595 1183.03084709 1026.67496905 1556.96245777 1385.08717151 1664.68657977 1688.53102385 787.939875343 1548.4716189 749.247416701 1439.11662942 1205.65387661 892.305695546 2004.31248254 537.283952211
res3c_branch2b_param_0 965.811054576 676.901464704 912.272811863 1500.22504329 776.828307134 483.517888258 372.783514505 1996.80891275 868.580265469 1841.70135974 984.657118813 771.273691654 934.030613334 1716.07416862 856.104136053 697.255941768 1109.25756093 1388.97943419 1118.68711356 1745.81455355 1669.59841213 1856.92450107 910.021430519 611.530306994 532.672213454 922.254381637 1624.24323173 2355.58288858 1308.50391066 1333.02506578 760.296571504 1348.2642152 1452.02107356 680.364906567 644.880737602 947.957243062 1175.64787006 1389.88967543 1524.68576806 1506.71986901 1430.7721565 805.232514864 667.362654459 1374.05625056 835.973646527 1143.01501393 611.142973164 1121.43757052 878.952904466 1942.76880601 631.147583362 1415.07374548 871.136136637 1844.87768707 2064.7655628 601.026040622 1125.02941703 389.771583054 2434.97601237 883.057113195 1562.08946485 3054.26884387 896.044301218 486.496588289 864.814337927 1516.17535443 1577.04541134 1079.06257108 666.694910557 1028.89987228 1945.59765072 532.978073723 2342.1302356 1526.28320914 462.116401276 1226.099893 620.230383439 630.029889738 1420.95526359 1431.00025454 420.47923911 609.623604124 1211.06835493 542.252136812 795.521478866 1319.04966556 1693.49864004 909.257463814 1131.52951759 1421.55548304 723.821363044 606.930970676 506.727112566 709.072657265 1803.07507022 896.861523244 590.396132386 1402.39317175 480.24766974 1382.81449601 935.200025633 557.160431165 1132.06435326 1344.75698981 1032.61605997 2004.91788396 1229.38134774 1691.69674679 1469.4114162 638.980858147 1774.19613418 424.990878591 1283.26297973 377.091821856 1033.64837772 1697.16077258 933.628197178 1329.4011073 339.894189489 1464.58347669 508.814055615 2174.52113006 1665.49138531 1728.3281015 1121.140981 550.098573639 829.226026068 1233.62926924
res3c_branch2c_param_0 2803.58991453 1756.79519375 1909.43298404 2436.62152302 22195.2361735 2045.67721911 2554.61855825 4092.13529362 3149.4208587 3123.49423939 2061.3018823 1717.28974744 1190.28085407 1914.33081629 1300.02068025 5143.80806076 4025.72431774 1648.22167652 873.220478796 1346.39829165 22164.9410469 4671.65737628 1762.42211503 23510.892751 2867.7416722 3261.7185521 2469.42316233 14499.7106919 1671.9397493 20228.8102593 730.511368242 3205.22569201 944.758564301 1539.51956506 37165.0550496 3018.20565474 28843.202837 2711.9629838 26013.0507898 5258.1525298 3543.3149185 2495.3199287 2811.4996507 1780.65000549 2130.81963179 1941.17960401 3781.15973153 2656.45695111 1817.06432215 2103.56648022 2088.44914361 2651.58287474 3367.3681909 1095.93874293 1630.66659677 2868.87688074 975.478481578 1171.40030527 2096.58555046 1798.94214804 2863.66845951 3499.36132291 1200.47230079 2770.54985649 6990.20709455 3116.76438939 2593.62861418 15670.3545424 1330.79313067 3686.82967606 4825.90500479 2645.41160162 2801.27100961 663.89949713 1301.26896976 5124.092605 3247.81613548 1760.92986932 2383.04947739 1824.48723175 988.40077914 2906.74603727 635.619329696 10641.1236123 1769.94570083 2671.15359275 7687.79129155 3891.9678188 3076.19938424 837.275004438 2261.35659176 4453.29184994 6814.33416306 3726.93049994 3240.9712039 4008.06413222 3371.57399135 2171.37395917 2027.5422923 2107.63481235 3357.76025287 3520.59660441 599.035389778 1225.65079829 3104.28825343 1946.15943123 1396.90276052 712.813963042 1346.18711562 15908.804322 5334.71397027 4402.80623447 19278.7922867 23016.2200507 6576.60646611 5906.80460096 1903.53308325 1562.21931474 622.667331696 3105.48243015 2046.17104916 4441.94199285 2682.75947993 6386.56637612 5116.37629007 6810.0687507 3193.86027597 647.41428008 2341.98092221 20572.7629424 3661.86094827 18294.8538028 2155.45918643 2998.90445314 1824.74211379 1175.4832904 1963.9517111 1336.91037945 15387.9256172 1372.43791504 6921.40263229 1923.84022161 2197.14026358 1942.50667299 1931.29229459 732.842697425 2640.20676869 5086.2872152 1060.39006032 1684.68601904 1522.16760671 1471.28433388 1241.92344958 2609.5944063 834.924329015 21914.3591497 2534.88591048 701.911219716 2198.63519 2638.4701105 3471.7993949 1717.73346209 2361.34816204 3085.09002046 3355.74211207 2583.16232846 3046.62733745 1665.29287675 781.890460255 664.451191152 566.708893848 949.124709162 2293.57891823 1826.96837263 3361.10348352 2582.07608646 2777.56753957 1392.22048074 4580.29654466 2084.88547065 5612.98258642 598.626167909 820.832142992 2227.46587919 2327.56329836 1068.64779035 2831.78533146 2503.88534773 29910.653486 1899.36454293 19186.2641459 2551.37527358 2410.39580538 2644.64408376 4161.12887783 18887.7291861 1989.50063003 4183.59691547 5849.26441954 2280.77806496 16194.3335594 2133.84785614 6321.40743975 2492.47882951 1684.07650246 3093.71295271 1243.32791376 4202.57290344 27564.5874582 3886.29769476 2368.09952945 849.411815687 1962.69123055 6736.38853704 3855.13816473 2553.89994324 851.372455645 2072.19364113 2738.43806491 1332.49643113 5082.24346489 2267.23824372 2601.06835139 2880.45941208 3494.06328266 939.839630505 20127.3619002 823.807103599 3179.57158211 729.5320874 1986.33859783 3067.4233209 4744.88127213 908.443649334 967.324217093 2466.32537655 2058.83557049 3399.68291235 877.769487643 3297.01337324 2575.37561441 7549.13541168 2983.98677538 2480.13461269 2338.30350129 21969.0413082 5792.59084955 441.660118825 1044.36993116 3238.82078672 868.630281562 2649.254236 2396.6728585 1142.87882997 1203.25249456 1848.41609493 6595.21183711 1834.34900651 3698.94042395 824.280925481 13952.6205744 7474.27877819 1506.44995379 2580.7396903 3246.26671333 2087.64778313 3595.99585627 1881.84989605 3498.50305012 3068.17062589 2024.6807352 3535.08098458 2204.56757511 7395.55702415 3099.11441004 1716.13532999 11892.2897328 4297.70429067 2119.73046764 712.817003513 1499.06848973 11691.2512768 491.368600979 1108.2340467 1579.05140257 1357.61939892 3088.53201967 3089.14632108 3351.18099913 637.331165331 536.412553808 1082.33601512 2993.59452438 5401.47651806 847.954696823 1883.34901968 4035.74939629 2891.20723363 3384.6615574 2653.57373154 21670.1235382 27127.7650096 1717.96319698 2205.71508193 3342.20694205 1134.79138452 5096.4560372 23918.536894 3163.33621991 1995.58955341 2725.53023984 4384.34073552 867.684669837 2383.92717671 3458.28461964 1950.8433119 1443.44164442 767.833413049 3952.20609208 1301.84549162 1696.38382569 1940.88298158 2374.07294651 1343.96761418 1401.21234194 3522.03511425 765.899798164 2173.75188192 449.078936129 2367.18659772 25208.5992215 1068.47114837 3322.39550199 2275.47955197 3648.94985781 1638.99880145 3392.61301547 5916.98947861 1881.77032836 2910.92118229 1553.40416318 4580.61687251 1448.10022425 2883.8460892 756.963798841 15308.1359305 548.5236623 1339.67767353 2365.52254033 1981.36132233 4978.69755473 1298.02649304 3162.46615363 3387.03698763 1686.13451506 3696.73157138 1689.09958093 757.363089849 14632.8201363 3187.35239887 16099.6900194 2520.59320711 2316.38621359 4636.76382195 4272.75167877 2962.87971794 4129.73622448 1718.02709047 25562.0419399 1330.12041917 1716.56842195 3066.3310392 3431.54445326 2540.22859038 1698.04296258 2211.42811943 1275.92550137 2153.61334029 1113.2265497 1668.63019321 2145.4567151 4652.18983157 2193.63524631 2593.86542028 3940.15662616 2235.76488417 1952.57832507 1585.86165619 618.762973506 2371.86276171 2686.16338435 2565.67511606 1318.85698086 1530.82287283 2969.06472218 10334.6931505 2962.48553134 2711.8439024 1876.67583731 3433.70877864 3044.04435367 1907.3472478 3169.1537309 2721.47635464 19600.4909204 5379.81144111 26530.865252 1049.80184514 5281.53755066 2585.17797288 2300.06821759 1796.18324394 571.424511254 21398.2979695 2703.88448343 3562.62752308 4435.38271174 677.740529887 3679.05918451 1120.13576591 2419.24270535 1217.95446032 4454.40788064 1742.50487857 4065.84592893 2957.79836048 2902.64562435 905.325118851 1969.96287851 2986.2610884 2241.85213653 701.921740755 4120.74803912 1127.16109462 559.105086091 2854.51608482 1508.43095778 5387.61838788 2700.84374271 3947.71828658 1087.21257615 3385.3334284 2137.07236989 3398.24096784 1578.33905779 1940.42606872 1379.73854335 495.608038423 7324.80450825 1169.09088849 2659.72072923 4486.11655417 1118.69651117 3558.26649135 1180.91014494 4050.83670072 19266.7650758 3030.56458816 872.398601472 471.598787884 2095.1411491 784.657422134 14601.9494986 2499.17934251 6380.95103645 3225.49145112 647.932945057 1381.70548029 2571.3445734 490.564864385 1022.92785847 22276.4446951 12809.5133631 3500.59344672 862.186073129 2138.69016238 892.615306147 2611.91284865 22393.8721777 1335.80611592 824.492556488 3860.91179632 22591.31342 1119.99136473 2590.79090061 1372.86303901 14665.0074686 3285.65377935 1439.74676426 2807.60464574 1042.21015779 26846.838037 496.449855326 23159.2467942 11400.0349485 14996.8691711 1143.74323265 2603.56909119 845.794399383 2105.84821004 1232.17660547 561.018306106 5000.30294195 2497.555867 1647.17127443 4416.38806144 2420.2094684 1102.2465089 2693.22885511 1767.61014305 784.834521859 14590.5552607
res3d_branch2a_param_0 636.273934706 849.684407818 636.282912562 668.984656916 592.571761748 622.003684515 401.067244112 552.708849359 666.245298978 525.275832645 426.865164346 822.627906198 728.567386339 782.905337984 589.178982934 793.649494198 886.99817341 484.041343871 366.771190259 456.80393047 643.929956094 1305.86127786 515.894214524 624.499135883 550.825516973 471.904143528 648.542741005 577.573136736 642.693625914 741.111414027 862.437079461 480.037820747 595.07007755 919.381617515 507.517324779 632.23411968 1086.15034767 1040.68927055 809.00470434 849.777428939 679.468519906 1194.02927316 421.584005459 867.933496787 1123.66741111 1269.03395967 851.936516187 756.83359568 659.971395854 783.811900426 527.90301202 938.90076939 568.988113627 963.604309727 510.480225869 811.423195506 823.180348662 938.980212044 790.296899929 737.462085903 825.306840988 656.129860786 728.998501515 657.346779691 912.681067825 1172.06392232 1128.95067671 928.751818121 602.067141431 990.480331538 1011.59803449 836.543262283 1259.13690376 593.267912752 787.637609795 700.535627523 805.630066355 1227.05851488 1471.14084584 682.439871958 615.828950535 838.963936413 655.345839676 840.763275167 691.300245144 1063.88956992 719.116384908 1085.21025764 555.904885162 1048.74812475 563.338301978 670.236437009 456.759962078 995.9785772 795.152681486 691.25191404 747.731075209 990.549862066 599.913782398 906.095782544 875.315178756 569.745039263 832.423365331 520.029681165 774.038222449 621.118031528 899.517021146 625.517154148 965.87585108 577.67402035 575.377105059 1055.10857336 680.412542009 674.449362758 1353.62468142 610.444576329 747.627375178 1055.50835761 559.093129384 762.236591521 758.809801498 568.182397012 508.096457435 860.842793539 1013.35156064 723.880196779 1118.53501176 597.744496069
res3d_branch2b_param_0 1175.5894917 935.536940689 1106.55603754 1406.38530267 1658.21327572 555.823676577 1314.31737381 1559.3209484 890.381554319 1380.84820582 859.795725791 1317.77285309 917.802175611 1241.84228994 1108.09125694 1114.25632433 1713.10927812 1215.51601307 1077.12722639 1173.19781169 903.437651934 770.96050255 1044.4614413 1217.77808438 629.201878268 1180.3610289 1656.07606641 1060.65590246 1460.38197712 1214.85441519 1295.99771785 1382.12258152 1595.55357471 1001.02897124 1183.9707295 1072.7982346 1499.11318299 951.974908364 987.99322313 1167.33855106 1142.38946412 1088.7466387 917.553571938 466.550943171 1168.77649487 773.866312428 881.068945494 934.137184298 1137.39958927 951.546898556 1094.93957835 1538.17602992 1554.62980667 638.528799564 1129.27774739 1236.32014224 1210.44657174 917.823920016 1203.48926221 1058.33578826 1092.60840085 1222.18691439 1164.90187117 1269.40981186 1349.42037355 1163.0931689 1264.02247197 1229.96584917 1491.14840685 822.278533615 1181.57237989 843.587046245 1345.42090972 1284.60638067 1299.34850252 1152.2621571 847.006232177 1267.47518673 1001.34452055 1180.15010465 1034.33568672 977.106793089 1299.00816999 1151.45444559 1230.23775311 1027.35687157 989.717863443 1509.82022851 1052.60804048 968.324333819 528.739908061 593.67583536 1150.31062977 1333.92052203 1171.03422422 609.544688628 1278.0667354 744.805956123 619.891056665 1056.50983251 967.412935085 1380.30276393 866.332493276 1119.55323724 762.618810127 1410.39894321 1145.30633546 1206.62630594 1708.82027898 1544.72167218 1265.71325031 1177.72951658 1152.95861453 1153.84341457 1097.34422949 1177.56207584 873.389783703 805.028297281 1060.1992561 1648.45312015 1628.90697744 1181.79798759 661.694865398 1377.42871774 1437.52927603 1104.24872082 1313.33681714 1548.82941829
res3d_branch2c_param_0 1723.9089556 1093.63853628 2049.66276622 883.301104361 5373.99891216 1647.27346855 1334.82836666 1383.70353038 750.782155879 1190.91603381 1378.79748993 1236.86171856 3722.79514031 1194.01154165 4534.89720942 1084.18062236 1472.39165624 1510.19115977 16098.4127978 3959.60117364 1035.57197816 2870.18551197 1040.15214968 1185.08419832 1410.34771383 1011.53956408 988.440670544 1039.19803047 2340.04961018 2964.75734071 13079.9032654 1532.80678758 3050.63055994 479.530052515 1265.09025074 1979.94638447 1172.26116279 1054.43200244 701.700518502 910.584571136 2086.99318579 1352.69227899 911.607334466 677.126206496 1867.88988846 3528.94539826 1137.35071506 839.508279023 1193.0326098 1275.7348016 10691.2069711 3294.5558518 1580.93419447 16510.485731 3816.83934475 947.799324439 11781.3527776 1226.38306052 879.823421413 802.9415723 1472.41531288 1305.66022527 2361.45186348 1604.81573719 1406.50854435 840.227824206 1461.05003663 811.166258601 2349.30257613 770.678299207 1058.07445729 1685.72331044 1218.16466413 2692.40059779 3820.67121685 1072.89162075 990.856073672 1970.06100842 1470.07166259 1331.68621406 2461.03376736 993.176705982 2520.18327308 1564.4899463 917.569377383 1318.4204848 3190.54090957 770.702900119 1521.37066608 1818.60378774 977.546450234 1366.41665065 1417.16294207 1863.4245073 2225.99530881 1442.14226687 570.099965056 2290.44015364 1231.61385002 1234.63377584 1653.81838984 1517.22286605 2072.88297281 920.406257897 3680.20578484 1897.01821235 1279.99348321 2577.68215664 1251.99665128 1023.49858472 739.394933718 2049.31297211 10852.8774743 4432.61399122 1501.98532543 1043.75735446 1204.65568419 15027.4846828 9767.61273712 1985.85008681 3432.99026011 1380.77404604 1989.19602162 2215.93776943 1057.26172768 1369.75585816 1778.40579927 1099.71895213 2126.05515484 1137.7548883 1399.49704237 631.80878909 887.355660212 772.123421601 1936.44735825 2144.5767502 950.898761965 14190.0686477 10313.0016788 2015.7511666 3651.00890067 20260.5980969 913.142027935 1346.04891945 990.739969672 5296.8953148 1457.76034275 885.11558124 1633.50709684 1341.35598991 1818.37699824 1995.00378106 1138.07302364 1647.71820833 1885.82456848 1660.39466263 1578.71620463 20593.4404709 1246.73272374 1452.59719958 1158.28085861 1346.68389935 2694.15598433 1187.0191968 1146.0516554 931.758803459 781.492912871 1182.8135506 2792.80145964 1307.0498521 1035.35320965 1997.50833173 1053.11639837 587.830786796 1376.27286899 1480.24176005 4067.39676715 11780.5731508 1146.99495483 1524.43705357 2283.22041872 5797.41617761 2156.80403037 1913.57434685 1456.85244516 1772.00720835 942.097535563 1622.66363273 921.833031349 3096.28111814 11210.7972432 1245.64062219 1262.85123025 709.594476989 1406.07961266 971.729174921 1529.78753199 1806.52410131 1094.84013479 1312.92075353 529.557349723 1215.73474046 3798.85141922 873.501496452 3147.26697793 1574.81124985 1200.002834 452.230413746 1156.35103183 1028.55945848 934.521901955 2746.06048513 837.355949382 873.274788811 1641.36298658 1647.75133855 1460.9344563 2301.3423362 1169.54112967 2335.99770644 1114.05947863 1566.52370346 1121.27601636 1517.62203512 1182.78605561 1739.56448726 1210.25062314 890.979226159 816.853512159 779.811707534 2977.27973596 1216.14544615 963.989699136 899.935602869 1304.28372967 1228.93144122 621.533164574 2749.13034855 3188.45239913 1316.28197149 1166.94432577 696.630287812 1223.68400712 1268.83804156 1447.22385239 932.515660741 1292.57457791 1399.53829366 2359.45386177 1800.28941422 1523.74451701 3277.69693836 1486.25248987 24489.9416829 2037.71663432 1333.26998667 1004.65201563 1160.66894574 869.805677989 1767.53664333 10324.9033912 1868.28788356 1634.54123561 1338.06909181 1173.52735388 801.450871834 1528.81981648 1648.9130123 972.910651118 1196.94774584 1503.85096908 1204.1952755 1600.69974115 1199.49456772 1137.49947572 1283.62807249 824.090199837 1588.09430898 3076.82378434 2153.44587834 888.327620842 937.730962423 1270.94738412 620.832087018 1221.15968239 1851.96629105 1442.88216111 1719.89196283 755.168707678 15827.5071524 731.068555183 929.91981097 869.605017794 1951.76630172 845.849464696 1343.74162803 18939.1497719 1486.47451075 1448.31333012 1205.30698452 1415.77071388 1361.58283735 1397.27548301 721.18578195 1676.82261842 7044.60006003 1679.4248277 597.947931512 704.930522685 968.851710252 1549.36804706 1136.40471929 1546.27512576 1055.04300604 1259.36091306 2620.32415392 1856.9843809 1608.22643189 1412.25703239 9114.65692228 1475.11843818 999.357050501 2860.30354237 635.159137931 1447.48832424 2375.67356636 1165.44569884 999.357636407 838.526049837 1209.13809986 1185.38615936 1463.06102693 981.274320425 994.732551529 647.139485367 2405.33749405 1215.99258091 1065.59543916 716.184704308 1057.77964596 1691.99279315 1150.48275611 2272.18820704 889.405653242 455.974513269 797.561182279 1407.74773068 2615.58345667 1764.78161194 1061.27619085 1262.55097367 17755.0280801 1165.44753157 1964.03973834 15987.2102104 1233.75793559 2241.44811818 2872.99398793 3862.38766331 656.338946739 1339.81140515 1137.0754587 740.414140696 1085.76830673 1306.33494635 1824.54503783 1067.53178148 807.639415694 976.726852745 974.785638619 1815.65741553 1250.19474319 784.731980696 924.282116234 1859.85585615 1706.20873648 796.681382438 1138.16869653 982.454446634 1212.76719033 1739.38111991 1021.86714856 1787.03764786 1278.33674055 1049.12405373 8093.64310345 1437.28685151 632.14910153 12717.1666654 1631.65949903 1262.28273431 1172.15128996 1074.84869811 594.674012689 15701.1303032 7481.76604014 1209.03158222 1091.22828468 1102.13889251 2214.23369281 848.34253075 6883.81793411 1263.78180953 748.635486908 1615.41736885 2800.1925736 17413.5063356 999.764772815 924.027185147 1198.10724256 828.123639065 1442.68615746 1387.034974 1976.20064307 858.674978679 1055.98380172 1286.89792115 1211.33584067 1041.0736859 1840.57737132 1883.04338733 1823.66369781 1117.75613874 1777.81930099 2427.44246006 3712.63444439 1554.6344857 1964.32695661 1153.72689333 1529.40924584 7693.06778453 11156.2438379 918.214902018 1108.9455899 1951.38399938 1500.24815031 2144.67173005 1605.56186593 1255.85893128 1242.15540567 1333.700928 1214.28556868 1031.9686434 1014.15632297 1245.3198334 6032.56272228 1254.03104302 3950.57656189 746.652651538 1873.64307106 1197.09796171 1253.44280673 2121.15394777 1319.9346149 1417.9534964 1577.7545441 6128.16597366 1256.15045874 1027.4545902 1141.77714126 1220.09129441 1471.31290785 8166.95280142 1376.87996755 889.918842503 916.722578028 4154.06431291 1277.30411055 1640.40765397 531.752389113 2091.95441469 1392.75137229 525.412582024 1340.17661791 11589.2017557 1011.02778634 1201.65634407 1490.00540962 1163.23405442 1154.50284321 7964.33472009 1563.55471297 13734.3786124 1283.26384922 1142.04243626 2848.13392218 1223.21903611 1159.3827039 1209.83804944 3232.57665219 1179.23357078 1711.86144144 881.342734239 1492.57357712 1021.91634251 837.342868803 8151.23292537 1695.41886943 1053.43042461 5012.41925513 6271.10884419 12492.5553819 1502.14985216 1903.23701569 2304.31278083 694.020215513 1679.08883444 24035.6070928 2174.06655897 1575.81870855 1438.65871796 9064.92284461
res4a_branch1_param_0 1741.167801 837.356031651 746.077539727 1801.95333537 2218.35112807 591.365534723 662.478351486 2835.76168168 1002.26737531 3081.05299046 1638.75944892 1771.97184039 1836.38370625 2176.44274393 1422.35711874 1324.41396871 3015.11052244 603.277665302 1066.52539407 2341.00779466 2535.45016703 1737.06104132 891.944583395 2328.26717788 2817.79000737 940.299391358 1112.31835586 606.31017451 1169.06899891 1878.94101839 1570.52304536 1448.77272995 1487.40258352 1715.39494853 1572.70775474 837.024700639 1604.97908249 1774.47539486 1298.71254133 1145.22615528 2659.03759091 1305.5927215 2877.93294073 671.057993257 1125.5984829 1222.82748777 1273.66122594 1717.62614658 1037.61984255 563.975559633 2523.21284955 1340.24995835 1447.17875927 887.360371985 2589.62387565 2562.70189053 1382.97414615 1628.44899682 1008.53392733 770.198025097 2554.42503783 437.175419108 1468.99630977 1744.0397411 1219.13271131 2373.34804247 1166.32056695 2194.92867315 1517.92908563 1646.28755396 1051.34476974 1877.94014816 1195.65184145 2028.32592054 1438.23713848 1373.60858092 1331.3522332 798.794344912 2428.41838376 1959.36442188 520.932796706 1519.9179174 1253.68231338 675.486161286 1063.88153537 2814.08103682 1430.60404232 1582.79002913 671.13165584 1205.13885334 3385.48034118 1295.79565206 1657.34651472 522.086955137 2535.80491189 921.034978756 2517.99722447 2490.13373618 1094.55512584 972.936751197 1715.1866102 1176.07980671 1304.44722257 865.296458476 1189.62850086 3340.86702348 1871.32859318 1184.82406164 1912.35751473 831.837098312 2142.52648279 879.833049014 1738.69698449 2377.5271881 2273.76868939 1281.31309209 1731.25750062 1458.66874852 3872.36549917 1648.55834329 1980.23965456 2659.53108322 2204.14937807 819.452912704 1149.92130346 2615.43817594 2088.31008278 1768.63244086 1842.3797574 1333.82428419 2250.60145748 935.704153786 1098.69858058 1588.37710741 2638.2334612 1179.34575456 1143.01861631 1158.40719736 1211.91907292 1301.60184113 1875.0827316 1003.58518243 2831.32155059 2025.51726918 3300.58110972 1524.5826726 756.63632614 3027.14083774 1582.30590629 1350.6591001 983.980148663 1917.78139635 1708.79783784 1928.72504165 1818.64647472 1109.54847341 2505.20940274 1489.35433745 1614.21220042 1108.7132592 1664.05083278 1399.07559119 1092.81427265 1373.63138365 1540.76419309 1148.31595786 997.055884938 2037.85720015 1413.79618723 1865.36216201 2337.54866218 10361.8076095 1731.12914928 1333.48046739 1193.78325366 695.849541892 809.756893906 1289.33768366 2809.18107401 1666.02661788 2437.9780639 1546.49551887 743.739906489 1783.93789433 1072.69048597 1406.59025318 1093.40675306 1140.15531446 2150.79892672 1375.88183479 1432.83295983 991.570112118 1247.03708917 1226.80028714 1087.40129673 1610.99866532 1278.68023459 1547.79980254 1261.49718459 1861.15002512 1619.26563254 1836.75176168 2700.92505421 2663.42652876 1043.47819563 1813.99821598 1846.67730566 1896.56947738 1598.4370758 2069.21140882 964.224178843 2076.19072429 1309.85088219 2851.10753324 2313.84965697 877.537397057 2545.09136872 1590.87085544 1375.16399936 2784.5781037 1967.99097056 2270.80578165 1340.50439385 1926.48875113 2272.50809659 2547.5535425 887.326466815 1587.61181604 929.822619644 1452.07772548 2652.91377177 905.405713872 867.302253027 1683.78953998 1067.09144126 3211.34756917 1012.00607477 1808.80571453 1918.53558199 606.150841264 1028.95204385 1769.05994077 1517.68500278 1904.26418849 859.737615586 787.971418695 739.219279663 1810.49792218 1458.31533125 942.757293272 2051.1953073 1120.83961033 1178.85043038 1342.34755732 1797.96606663 486.508307515 3698.82604594 1933.84225714 1617.92294501 1473.42078632 2852.20073405 3230.9318017 1255.69767757 810.036342416 2436.34029735 1118.67301745 1056.3126323 1680.29430258 2469.67736858 1130.22974554 2101.41519955 1395.54797959 2152.23999671 530.971955722 2697.43606292 2022.58366033 1674.22336301 1289.4186352 921.878399773 979.682436164 675.651307963 1153.43990787 992.684723501 978.026456254 1470.14760994 2616.11093728 1386.18719537 1238.48056964 1797.05545673 3229.71417809 1135.81052433 1222.8615255 1343.25294003 1797.02419696 1328.58056557 2406.92091544 939.965154295 1747.58348593 1020.84391106 2632.85528862 1961.06815352 2595.37074143 1147.15775229 2702.05836128 1846.05951546 1080.90733747 1529.77119428 675.573597572 2818.21861266 2141.44403391 1966.08786145 1468.89288625 2040.43063902 1625.84932534 679.237781918 767.696470587 1862.81174878 2382.52486631 2181.58983327 3631.98218021 1130.84714735 909.967991705 2435.59688576 2072.14200067 1541.02355818 897.136811688 1458.17772955 1834.97241467 2904.12823745 518.0369171 470.314804917 1053.58402396 1531.35290024 626.369552952 1614.45896201 600.175537365 2353.91917134 2035.58239447 1672.1472273 1755.00251385 2294.54976159 612.785655446 921.121083156 1483.21360958 1224.91747347 1761.47323764 1485.82975788 1033.94813982 832.640825518 832.729094389 1631.07275857 1149.63806878 1395.90340374 1914.61808743 2307.31760668 1129.03495053 2712.6276155 1774.91958563 1852.81579258 1055.96306445 1544.25215945 2368.76526885 842.514876578 1436.09833742 1435.24379949 475.297133871 1479.22683053 1817.40374589 3177.07158184 1244.06947167 1550.48817417 826.958699249 1086.93270234 1884.27942647 1113.41553738 1523.7313047 1790.3971427 1190.34153193 1766.26740111 567.247280811 1619.36347017 1454.47699032 919.782861622 1078.53056766 1004.81641807 972.0145471 1465.55446319 2145.05632253 523.719305783 1367.00817623 2826.30072945 558.467071098 2147.47553156 1603.3751762 908.636383001 1825.23156972 1876.41016615 1545.80214507 1170.28531255 990.626771437 3525.01880958 1109.44708078 761.792992219 1493.87905081 1950.56627266 1328.88995005 1338.25902617 2170.57017419 1283.19400459 2220.76627722 1935.1450294 1815.3971378 1688.85474324 2081.04731049 1566.35470545 1652.9815424 1869.99684773 1513.34453015 1512.74929178 2212.01226066 1000.6650958 1689.74322495 414.473121965 1391.1840949 1169.53093866 4643.11302933 2423.86296177 1995.47414681 1544.80804883 800.063019558 2211.51548423 1583.27841897 3273.65781913 2383.41384327 650.269469304 2128.35499879 987.155907571 2455.94349918 1495.65805922 1413.65736179 1362.41123233 1476.58448751 2574.8243697 1182.99956527 1950.84487479 1422.67752751 1153.91980655 829.812414357 1374.55408984 1908.84667133 1112.69817566 1871.65591747 1373.41589489 1235.47289123 3660.23445348 1665.85256444 1621.19934645 923.846093177 899.116945088 418.577178213 1249.53013056 1263.04960887 1779.59500659 1250.33642674 1509.31782911 1779.2925874 1707.05266274 666.382093463 1720.64126904 1017.78773324 2682.66300367 4006.77057373 1341.36601761 1244.90791912 819.620924832 1393.99013719 1671.16359875 920.950383175 927.99943903 1249.37727436 2576.88525604 1258.43738806 2767.86204769 2479.9922622 1493.83427635 1984.58584179 622.307975803 1103.4761086 703.04056024 866.892308882 1392.38583616 1066.79552355 717.997932481 1260.33434339 2698.15829535 1179.34722329 1128.2946388 1572.41208629 2388.39365697 1271.31100128 1957.17655331 1079.34503553 1889.39879467 3048.31687406 1327.86302119 1289.69414164 949.342600835 1337.59060808 1153.65841294 924.018569651 1812.94884787 1818.49300496 1965.47145771 1621.43822361 3129.4716308 1440.9558228 1160.81896792 1568.1261003 1883.237907 2836.25216638 1406.52154285 1624.06186082 1863.39456257 2591.21053872 1575.21495211 1944.48881474 3431.95485013 1722.94988232 1779.98637216 1324.66613247 350.976768511 1435.04769076 2078.27733987 891.849101446 1829.49514904 1611.41808977 1921.62346976 1908.66627409 1602.58090336 1741.70793824 854.515078895 2102.05956426 1126.74757892 3997.89791924 1195.70333857 1090.10542224 2670.52837248 2682.89882332 1622.2438926 4521.28772228 3255.54538013 1991.88290022 2737.13382796 1405.69452807 1049.04508887 596.268493796 1733.84475537 2282.70184647 1607.18591192 1863.88806033 3197.51251775 447.648044274 3049.87731284 750.976715104 1270.11088818 1777.94187348 635.545104454 1512.16780207 999.116886874 1087.32298465 2375.34631853 2835.38762127 792.316200404 1466.55474897 2113.50474894 2530.85426333 1348.4558817 1103.65844135 1631.10693969 301.846209204 957.322054756 959.87203787 1566.66465899 1832.57036914 3060.15839615 958.971725452 1650.8015118 2467.42068219 1739.23558961 731.935913291 863.269752245 3374.34818498 677.390128341 1473.31737561 2068.27064128 1118.71567397 1183.09645397 1035.16187874 1078.41838959 1943.02458673 1572.6080739 1696.14261024 1764.76900486 1840.08064481 1165.99154991 832.825194498 1648.33149257 1747.88041899 894.245771001 7643.465129 762.040174993 1178.82858143 770.914128378 909.940108851 1338.35054588 1307.67203657 1360.00132891 1413.51317166 995.456840638 905.050068992 2341.19203338 2264.95212636 2177.87039324 932.261368861 1263.16698103 1175.68192677 1437.75722965 1704.46287783 1510.13362874 2523.22741626 1588.63083858 2029.38241223 1234.97100309 1230.98715374 2173.88910873 2181.03057734 1754.43965432 1181.99761654 1755.49214837 1172.18538622 1445.20908023 1010.54995507 743.673063363 1260.40992303 1306.77579758 2547.14925657 2436.76485989 1958.79026611 1521.07755959 726.331900156 1327.47130206 1894.48583497 939.295529157 1269.08677534 1313.64825335 2659.36532074 1932.8026604 833.486371588 846.536116335 688.572470967 1192.50303193 915.584530763 2065.49889022 1281.60422416 1674.30542368 2819.97259313 825.604004983 2754.3942513 898.273549756 1064.52076077 1368.12995108 2896.09563733 2140.92681519 1048.93399002 1235.01771061 1454.84022129 1773.65614716 1094.52434195 1320.68484992 914.595520418 2201.93447064 1925.0397564 1477.15838484 1330.75240387 1214.53812164 3081.78048618 691.071545084 1133.45780762 1333.3236957 2882.17746247 884.71976118 2782.20515339 1253.46207082 2335.25507265 734.627371157 2230.73364396 1128.09937219 1825.51207496 1724.34510834 1643.78060452 875.138476887 990.934758814 1487.40530913 1494.30362511 1595.31763446 2871.60732536 891.560726381 1170.9207204 1871.20698019 1959.43446939 1425.04737556 1075.07010274 848.271605341 1956.24282788 709.561866601 1623.31745752 1622.91004938 2026.78409112 1306.30851674 2354.96309101 899.491863564 1676.33252092 1475.75916496 2766.96412588 2410.24584077 1698.06613707 734.803700286 1254.9820187 1979.65343116 1225.58303067 1891.75737555 1275.31864959 1293.43789224 1402.70187795 1005.68088903 1946.36921024 1196.83260866 2591.34860987 2373.63788485 907.272060186 3980.75705197 3487.17715175 1400.70444696 1960.31939116 1356.34963853 2008.98030626 1716.21826764 1605.15742522 1556.19544849 1706.02755242 796.263894893 938.9253869 1706.06836243 596.128820456 1671.6631374 1051.46824919 1428.72817006 1553.22000919 787.423666524 1472.49023058 1498.96869759 1111.02162085 2511.79521746 918.547607616 1366.82380378 1517.70702919 1474.06169601 1605.33671472 1191.65226923 2218.47224439 607.205202223 1488.602037 2415.34263588 1515.20901983 1522.76484005 1888.25182878 705.664769014 1617.56106508 1294.49904543 660.370105225 1863.18375449 2913.57042161 1130.17683963 1136.62765534 1293.36860408 818.100846838 3015.21185781 948.955940955 1597.27910282 1373.92002535 2165.83326961 1461.99076129 1650.49525127 910.203558271 1002.51353715 1256.53520442 685.812770171 1070.12570913 1291.23412843 670.53658248 1806.3167759 1280.63529224 1266.61840568 1155.9714038 1326.25542696 1757.25756814 2041.71337775 1436.68611248 1427.22398388 1726.01729678 1346.9136435 1274.04306213 493.027006377 3120.30003087 909.203435735 1206.31880645 1440.15036944 2464.63702121 1099.34723108 1512.98883502 1459.89117961 749.69841487 1276.36718494 753.879576354 1966.37431807 2186.82627121 770.24292095 1062.35624264 1145.74367659 1142.17918629 1760.00567641 757.204157094 2129.99860684 1177.59998585 4682.10336272 1276.71277682 872.823782256 1692.96007359 1212.42421347 1741.22542813 1248.01266108 1576.67722918 1595.34510746 1669.0229677 3776.98398051 952.642721384 1320.39216093 2719.44915845 1346.39456945 1198.10648465 668.180214625 1899.85991574 1444.29802054 813.852304224 1252.35668106 967.139037789 4122.50505613 1608.35313915 1545.78882783 2641.71929074 1342.01010992 389.786556877 765.175114305 1241.76457845 842.08068114 2248.93253421 381.863078654 899.31523052 2436.25898909 2356.24502795 2464.83909547 1988.11648133 1273.25431934 980.30682034 1645.55806624 2635.60724011 3529.08969653 1837.6146976 1325.87785635 1047.48096484 1028.10577896 2744.30884877 858.222070282 773.813264863 1001.86820891 567.089324949 2684.03353268 2336.17315281 1803.83868616 1493.13642988 965.657307126 1791.71901706 2839.0995703 1504.4868939 1826.944875 1095.06570214 910.616677137 1764.98755299 1379.03519896 1989.29561274 2362.20372588 1187.88115231 3176.71543644 1030.8937871 2286.42313683 1470.04795442 1504.27552297 848.428163653 2450.03019926 787.042131948 782.019239003 931.442824711 2176.06431662 894.838590622 869.644947206 2118.02752212 1143.74284893 1856.30812514 1656.86789538 2865.64327677 1348.43326713 3002.28627489 1606.99757352 1525.54489325 1177.86884274 2349.7750817 1035.82092559 1108.84870749 1778.26628074 2121.6575625 2099.0222164 1115.55974947 2968.06357769 1352.28845793 622.245140249 2014.75358549 985.296405138 1475.46702057 1120.66319793 1024.6814325 3212.83990924 561.804151846 3454.7705743 1111.04457703 1218.63991371 2787.27160102 2572.37288912 1880.22207238 882.960871695 968.31366233 1372.73976353 941.793343353 1327.59826488 2119.37795942 2561.76849141 671.219871413 1113.87398447 1634.62901439 1053.80554893 1473.38372491 1596.70246528 2166.88983563 821.609903248 2060.99831644 926.969527279 1140.79239081 920.416098356 1488.87820839 989.705450993 755.593369508 1551.51911135 1032.27980963 704.124498168 1856.42032847 1970.53380825 1389.02674595 2117.15058147 1812.22585946 1215.07723526 2165.6915548 1857.83707593 855.23758972 2339.3151532 2533.19935249 2342.02468451 2003.16421523 1458.26043716 1651.0247252 914.703199734 1735.4234033 1055.96424194 1333.77533556 2412.87121068 636.096804524 1335.50155988 2030.35100396 1776.01493692 1729.77383156 1861.41891332 1282.5827299 2549.57842414 1115.84813367 1412.33660201 1832.72661839 1336.77156525 1378.78901379 1793.032094 1475.66602898 1166.41194919 1577.92455041 850.542702647 2345.27715844 1982.84263462 997.267285267 1693.20055281 1967.3577054 1462.46942024 606.329584822 804.12209244 1486.93924543 2592.75596246 1172.50395561 1503.45993867 1523.5305603
res4a_branch2a_param_0 853.485817105 1049.05025383 1155.73838663 1432.77876304 692.95570294 703.383815586 1470.86106119 464.819928797 996.999433349 1293.9034734 933.490659207 1662.35123218 1376.59386081 900.258519648 1413.70871465 759.40613885 952.761250677 900.946856897 385.124592952 1026.49789683 1755.31661489 1146.49442416 1214.87363702 907.744973724 1090.18169529 878.880937608 1200.3580061 1031.30063585 1151.98329583 1414.63440887 936.747090809 1608.31884276 964.948623106 1781.16113014 1115.35733427 1190.43347484 735.787856705 1430.38531287 1983.41828594 1148.49986895 666.488452732 944.318497675 1191.57271563 1386.17197732 1392.60003776 1011.91643867 1190.8795912 1050.58339239 693.603614072 1291.592321 652.825312155 1224.15337578 1359.80625803 899.349203976 1378.91895559 1199.35050078 1412.27750901 1235.56566927 779.05349217 1948.63009007 862.570712459 1480.18404606 747.733830441 781.619696962 728.699819895 657.732272719 758.710705606 1522.46113349 1626.58627429 1322.88451966 2038.37529294 865.023328399 1002.04890188 1668.15450406 957.832667718 1077.6081122 780.724846621 1143.24660882 897.571801999 557.645097537 1791.16247792 583.745710977 1315.51408827 1025.89165241 1010.90091201 1093.41797517 721.038374696 1486.72499569 1359.14161475 1341.22279405 1396.72294009 1779.58478805 2325.47308758 892.260015098 2028.30709478 757.749597535 613.147945488 1054.3164991 1076.97648471 1430.91856811 1157.67536641 1470.06557699 1167.50397642 1553.56528065 1613.89690182 848.458992351 612.558968218 1383.98855503 1023.10683288 552.096033896 1204.58264209 601.172852615 1292.2001667 1573.09644203 919.414346868 1395.26468424 874.247427441 712.71268846 962.466617377 1170.03187252 966.209165038 824.877183216 1735.75580962 534.092520653 893.206058876 976.212003266 1338.28266669 1007.94817363 1627.96421958 1281.38408067 1226.82350906 1019.13213415 1417.89770665 593.395506505 1685.44895213 891.875513273 1393.72046478 1101.5406864 898.211542154 1503.60025115 1992.80576749 1303.4623942 1119.41148565 1587.03474808 1510.43524712 1017.23531534 1264.38982753 638.610565995 1684.0856536 686.904923338 1201.76139663 1493.4106229 979.563306507 1981.33898246 967.34145434 1440.23542543 1965.46216587 1155.83760143 1223.40024057 1653.63853571 708.493527913 1049.0302399 885.214683543 1897.35226302 1904.04786065 1358.55167874 1040.41918019 1085.03452156 1382.18612669 943.462151594 1005.73453022 684.408468272 1241.26073016 1025.97982933 884.422669494 997.149207365 1549.22525847 1120.70748003 1150.55637389 919.599460335 895.318942807 1319.74851765 684.089409095 1469.97784864 732.648539341 1154.10426691 1207.95639419 631.123046407 666.214520147 516.20505322 1667.33489134 1952.99242183 774.14234737 865.50717625 623.283711778 1091.42706757 854.61490233 2007.85341122 794.469355582 1436.6634689 973.329198589 1545.3203474 947.449939981 1126.82012711 1604.50243697 1225.53227596 756.028904083 508.095245811 1590.92549648 1071.6818995 1664.70917788 856.825289118 955.022349078 2004.36315438 1074.30608001 1685.62245755 703.582402139 1215.99310138 711.775462862 1482.554016 1322.95279664 1502.29217104 1687.82061484 954.051536404 1615.7092172 852.337463333 1218.15952785 1359.98559532 1145.73574435 1158.88186322 773.99464032 952.931162146 1385.87963008 1214.10887003 1221.15128394 1418.82913289 1835.07039759 1231.63636461 1035.11108701 1043.80286211 785.543938132 1886.04783529 1567.14919803 1062.1915365 1151.63461723 1144.02840706 854.866663751 930.844142945 600.184582046 2105.86316934 372.653704017 1887.38624833 1086.40648354 446.049408191 948.180928146 913.118352544
res4a_branch2b_param_0 1971.24001419 2664.70290066 1547.64044071 1430.6912166 708.024729119 1180.65240975 475.131634056 1249.89515845 1397.89701472 2737.55495273 1294.74260073 809.98237713 1519.09408737 1606.24556931 1001.97762992 1331.19481793 1193.8906134 2177.00701724 794.497868851 1835.61799067 1385.47287084 1436.29267602 1142.90273837 1177.68362429 1388.96992696 2389.67641149 2248.57460474 1950.50645502 1626.35348141 1005.31481022 1150.84581105 740.26642041 1174.03948066 1689.55681244 913.158073112 1422.96624456 1192.10747006 2163.56887971 950.653963359 1651.56285998 1680.23550353 984.573967877 2014.66714479 1099.24053449 1251.66890441 1579.32279485 1293.98175772 1582.45662113 1341.71813771 936.156997277 2502.33601734 1071.11070381 1865.20642171 1388.06823676 1948.74236964 2156.00172221 755.907201469 980.946791037 946.62407471 1465.24896298 1436.68792884 1543.31650487 907.031733883 2765.96848945 1479.2577678 2696.40792807 981.847344788 1682.74399458 1325.39661092 1740.37492604 1379.37098685 1565.56504415 1337.39299351 935.366194408 1728.67778049 1249.38670658 2124.08512764 1175.04976664 923.577090355 843.632221095 1084.90427596 1014.1362909 1449.47359257 1626.45372937 880.930339342 1438.71263191 1353.16927648 1474.64422213 1790.58728661 1084.00818384 792.620446547 2037.52701081 955.24681166 1027.43867405 1995.19970091 2072.79248054 1295.58872555 1998.21479971 1112.82065039 2013.23778223 1150.44913424 1924.93475641 1167.80632462 814.436833365 2165.27436052 2204.36686634 1494.22830515 1311.26074583 2122.59321741 1051.27026808 2099.47878456 1354.61994417 2978.47757927 1468.52589465 1747.46273454 1475.04593331 1837.26629707 1091.7760385 1240.37086261 1858.50168033 2032.58467708 1097.06116341 2851.0517388 1256.42480321 1392.80963917 2639.03178654 1416.76128331 1795.33551384 1794.17314999 912.341366305 1019.04147499 1177.00013886 1490.29031057 982.644971402 2054.74173125 1542.50913579 1238.30413636 1414.70180072 1999.8068264 1752.7222408 1621.93301107 1478.00936664 1326.74628054 1578.31333651 1208.42114033 2255.35944365 1981.54812176 932.914156788 1244.85400571 997.386908488 1076.09948171 1004.86534647 1092.86787229 1004.69938834 1516.70864611 2179.98694437 994.27625906 985.906754658 1298.6876066 1458.26442932 1829.44468639 715.563443473 1012.13310648 2247.41778744 1019.07857749 1644.49725227 1194.05746065 1974.89373473 1832.40666113 1349.0245889 2366.23823673 2171.89049835 923.403077857 2769.28144418 1548.57375004 2023.87492895 1097.17781866 1464.98891576 1734.74996853 2084.74548163 1935.55593991 1458.49064574 946.18363443 1518.37122949 2210.47831146 1345.9989632 855.921437198 1458.2628075 898.010620618 2871.93947002 1707.36505355 1611.1533731 918.295730673 924.36842784 893.632466186 1114.41258325 967.894250139 2734.72430572 1036.78751674 1684.38669827 1326.98001525 893.334603153 1713.5349872 1048.96316652 1719.02957616 1564.06545829 1801.66555009 2820.11115826 2268.54733823 1054.0602777 792.052154769 1764.91756053 2099.83815492 1577.65203222 1600.75024902 849.787681147 858.48642495 1217.53835767 963.034964319 1413.32799498 1209.55019622 1287.56836285 1973.54193949 1865.45729273 1415.77624065 815.668361967 920.071509467 1679.42631689 1058.91942015 1438.98031868 989.962498204 2278.94542218 1461.95038564 756.701690517 817.173529288 2081.10866977 1078.63021008 1186.60314337 1640.02980863 1175.32661771 2103.66798736 1018.7347061 2028.79860983 1381.19159227 1199.50022307 1263.55940948 1287.10013687 1293.88893733 810.734073026 2154.58080324 921.746295365 1568.82622193 1042.14726687 1880.78968477 1569.08284432 1663.62386146
