conv1_param_0 138.066410735
fire2/squeeze1x1_param_0 92.028103407
fire2/expand1x1_param_0 139.5878461
fire2/expand3x3_param_0 170.705731271
fire3/squeeze1x1_param_0 164.533747193
fire3/expand1x1_param_0 130.071935967
fire3/expand3x3_param_0 163.819819809
fire4/squeeze1x1_param_0 116.568016004
fire4/expand1x1_param_0 201.742919491
fire4/expand3x3_param_0 211.399362123
fire5/squeeze1x1_param_0 226.228115652
fire5/expand1x1_param_0 187.774837613
fire5/expand3x3_param_0 164.517905157
fire6/squeeze1x1_param_0 179.423649224
fire6/expand1x1_param_0 266.047646946
fire6/expand3x3_param_0 205.425388157
fire7/squeeze1x1_param_0 208.861314918
fire7/expand1x1_param_0 285.459333589
fire7/expand3x3_param_0 282.445537501
fire8/squeeze1x1_param_0 191.398736522
fire8/expand1x1_param_0 201.295234323
fire8/expand3x3_param_0 240.640160753
fire9/squeeze1x1_param_0 294.368678284
fire9/expand1x1_param_0 244.22330381
fire9/expand3x3_param_0 289.679206026
conv10_param_0 499.107042642
conv1 0.840930858494
fire2/squeeze1x1 0.155449063458
fire2/expand1x1 0.0890687782763
fire2/expand3x3 0.0890687782763
fire3/squeeze1x1 0.136844741617
fire3/expand1x1 0.0876347564071
fire3/expand3x3 0.0876347564071
fire4/squeeze1x1 0.109229065191
fire4/expand1x1 0.0650420251563
fire4/expand3x3 0.0650420251563
fire5/squeeze1x1 0.0931624667139
fire5/expand1x1 0.0775283616794
fire5/expand3x3 0.0775283616794
fire6/squeeze1x1 0.114130987651
fire6/expand1x1 0.0673626595796
fire6/expand3x3 0.0673626595796
fire7/squeeze1x1 0.107491176501
fire7/expand1x1 0.0878467523371
fire7/expand3x3 0.0878467523371
fire8/squeeze1x1 0.144987512392
fire8/expand1x1 0.125130461164
fire8/expand3x3 0.125130461164
fire9/squeeze1x1 0.251220748033
fire9/expand1x1 0.112337101436
fire9/expand3x3 0.112337101436
conv10 0.242779897024
