conv1_param_0 187.254501714 246.400983982 188.807986216 313.806475938 268.42211521 221.379848001 179.028048091 378.001810791 261.943352939 144.619549447 138.066410735 196.403543863 383.587093243 412.879793861 438.129923112 149.659621932 335.924019945 246.991033257 316.025068943 277.961743359 229.007282919 230.69967415 271.974586338 189.786919644 412.369106686 214.805693226 337.33485089 194.97770643 419.687747901 424.134831751 416.635904884 178.615708713 273.162973587 397.671246302 471.675155001 235.929446158 215.150285863 143.520215664 491.180738267 498.595837426 192.545747844 260.652001391 249.830064244 199.958372897 190.599683817 216.320161401 202.902895064 192.505580088 242.696453683 174.255293908 159.684636124 280.744497322 182.355050296 193.334549697 168.722305715 232.56203986 456.82136349 217.47210462 271.147218548 249.754100968 216.661526339 185.834238313 187.843736558 264.389439866
fire2/squeeze1x1_param_0 206.2095364 92.028103407 140.271658384 116.139868019 230.838789597 189.33902264 101.786220823 222.579878848 176.362995949 182.17755619 230.788132758 161.528486225 169.125510324 144.47851476 222.328513674 162.995393885
fire2/expand1x1_param_0 321.074479199 379.626217452 262.179240012 233.912607387 16767.1913732 255.829714723 276.158339203 284.055957002 302.697838658 265.918551566 234.783594354 230.798157347 271.722450389 299.190275075 238.394024627 375.347035887 367.771943765 184.057828554 291.710998472 253.026215275 198.447928229 154.800488513 183.900827288 573.792691591 363.176070916 315.018274908 245.411314318 264.313136746 139.5878461 260.771245366 185.249051457 261.683622913 228.021316884 206.036475511 458.285130481 378.389211207 250.844279939 359.864926838 248.505517034 283.877554509 195.848040689 225.584061809 394.121332291 556.028157273 244.159748083 186.087865487 171.482183798 183.147477241 325.615010735 262.68449403 225.012744594 308.018056017 235.103094608 251.344415717 340.202197041 271.898093203 483.673142636 172.616988792 441.824418507 187.857449539 233.607755048 389.911633228 323.72946891 548.839838331
fire2/expand3x3_param_0 243.900411277 484.174269034 337.19404852 530.496895724 511.525661312 417.853537551 422.215902929 215.995306042 418.244208379 550.223617439 265.573402805 306.531830473 189.820481521 561.146664602 719.476979263 320.880075293 284.288511607 235.623903496 347.375123487 451.8786686 225.782921614 325.003955497 653.49140292 504.297099608 430.493445991 574.305965586 223.889122313 375.71357406 458.976363661 251.417730236 280.211247633 239.39566815 450.062371482 366.220758589 378.710991615 300.918568139 437.510522336 218.166935548 272.847839544 531.397004014 267.022750064 456.188360884 314.698330872 234.793063493 222.061838204 189.261003344 349.980922837 204.754380243 660.850555861 435.127718085 213.238056398 358.885286497 290.296946435 533.782304683 474.550146884 234.125708655 214.935010979 366.680740818 709.761711391 357.052516993 310.789722805 231.809774473 349.72216679 170.705731271
fire3/squeeze1x1_param_0 306.737557422 186.07349964 255.41752848 216.70286493 184.22145311 208.312758954 190.715829975 230.745194375 205.727846064 195.900583903 295.457035169 223.610548778 195.560704817 180.868414657 164.533747193 266.199780289
fire3/expand1x1_param_0 342.840478289 261.991585235 340.415668212 247.473808646 312.714143782 293.742617614 391.303461006 184.428316962 349.762524652 304.665293077 151.893836174 233.62115112 208.029993252 323.839436797 378.248618852 322.720964364 288.07500338 176.148594329 221.459760383 171.93246537 394.891580654 221.244039632 230.793557427 332.148429229 279.434105612 402.852351665 315.235508191 258.959495938 307.334763817 329.146184676 342.607428418 346.792013798 376.073925387 291.165593833 234.577971426 182.325105895 240.725528986 328.250996404 157.928993021 407.930220728 278.324414491 447.247898684 383.922690272 278.680724957 266.321492456 255.302991746 301.007799097 237.335518027 390.390639008 310.460029649 312.134891322 257.437312385 206.916591996 297.098447464 298.629504245 378.940563493 130.071935967 428.805238947 303.799194001 327.543817251 459.521428435 265.576034387 304.529762131 260.533630985
fire3/expand3x3_param_0 337.705127588 309.022769313 515.231201536 390.75634553 413.834871897 331.688248235 443.973897573 415.441588294 417.854070197 294.459417632 334.338804838 335.909747486 294.765120622 424.313386761 339.237116348 432.987379758 467.661438021 695.943182177 340.403921016 365.619017623 406.27694401 207.013108426 377.220702834 517.567612516 395.138557151 434.897734842 345.912320007 313.19103721 291.478148576 452.310862104 349.510139733 350.575708996 356.531743562 167.588367026 354.556829762 402.320379513 384.784425479 467.712509686 452.67708109 272.950233394 395.428475348 426.227171175 378.055868955 249.755359813 287.611448864 395.924340717 262.025592028 551.380574303 325.694671988 462.738386158 349.938043235 317.550437005 403.157670748 502.276747358 345.50436756 503.333224747 704.483603538 209.060855982 453.85856513 408.884990481 312.034258496 163.819819809 349.761835677 377.538089823
fire4/squeeze1x1_param_0 213.970388684 285.758716406 253.946175063 116.568016004 330.331609176 287.327274041 258.356853432 253.84182939 175.570822388 265.456523792 254.386798813 416.098702603 323.411057598 309.112387482 341.315016294 181.438539381 348.862945839 349.787473109 266.852027509 215.558359111 286.584534112 223.871667611 280.865344212 291.929320901 245.373076274 257.799703895 171.163254484 241.513740579 363.086302987 152.702787608 178.804465944 206.589476815
fire4/expand1x1_param_0 628.91781847 495.758178141 496.947394801 387.73261034 679.660117378 632.205793387 569.358033053 573.058962807 423.839456695 670.600896655 513.462272132 501.808781686 468.64814148 1042.66030104 493.266695419 241.882803612 265.93801742 352.563008348 259.40579755 445.957823656 537.771081509 364.351716763 605.65660068 661.545764216 386.029361478 389.130216508 348.251695305 365.853496095 593.308386536 619.658812647 552.599190309 406.96069958 486.8060874 504.085746603 395.198984323 312.077858848 272.250443586 362.098945996 432.321714397 470.832937125 459.380794418 412.664609386 418.01851777 803.278564003 489.906711072 252.587503459 619.637773711 553.620270438 522.402037379 443.011841856 379.267805837 274.59666129 438.429004583 527.60000775 293.482945135 612.048424843 351.756383974 426.729618525 551.611464459 555.307107985 354.158912438 495.193033247 513.576721814 451.110238078 315.165215994 754.617754607 398.412940949 521.244223599 342.940686505 289.805760136 469.07956309 386.4719854 466.062065666 539.507344204 421.745851139 393.720017813 551.678055257 430.491836904 340.659687324 475.864724576 579.858498026 593.774770069 430.094499997 403.17777225 297.872023062 659.896534965 412.171994384 287.734142935 520.016672113 379.070070821 350.785652783 238.646081213 402.530878004 544.468189612 492.086201085 241.731900199 506.116018914 201.742919491 502.348213707 828.985752008 340.237453632 424.224512784 690.928404313 609.977143318 547.000499839 363.238170118 442.365299166 299.368174746 508.692063352 415.153623036 607.062131583 291.259405312 426.340899209 361.805963099 338.332714374 525.74190794 267.825320396 561.116407338 674.360029532 739.163311079 672.500626552 582.135017377 519.907263191 347.804993754 425.109672757 402.509738403 453.422590089 300.438336899
fire4/expand3x3_param_0 379.114619952 410.399470779 584.972892064 765.47145069 396.310739269 693.102503279 476.08242835 579.770061879 802.584305375 752.596500244 983.633782066 598.609980521 330.534766313 576.912139555 414.487755899 407.708733775 547.566621357 625.170827259 575.705289065 782.416603912 612.773759776 722.282364704 325.043793062 249.664989427 533.003005716 545.264795544 658.499376333 508.334471716 467.895638089 379.712238265 435.187885118 1003.34569928 935.542383417 761.551685737 604.246339035 434.902883379 571.189449313 898.490596439 648.633410974 605.43842495 688.786215395 478.575985697 326.400355398 333.232265331 669.283629481 238.587772478 558.237244742 765.771250474 726.434853494 382.843143401 633.249536923 696.586389471 613.411533783 446.275636528 496.898951786 876.824811594 525.374137342 552.163027929 720.400082362 790.240623408 228.161593218 681.485697023 617.049531274 490.550972471 661.034308173 263.178224368 386.605394968 553.784304433 385.332250541 497.101768489 353.684227021 786.003459851 274.643276364 422.875797206 821.736094775 270.564762332 348.284825742 211.399362123 765.496889134 443.681017488 677.375592219 569.045820108 720.767390507 682.089726845 556.778505545 548.047772378 572.698574037 385.536783666 627.252113551 797.46155657 307.474179037 561.456333279 569.17962716 737.630777047 659.886418551 620.259452345 605.170685197 661.368861174 591.354620268 254.503737068 533.35223194 485.102706818 454.008316891 481.344251933 417.390036462 553.842171184 455.87685735 354.262548874 270.514455442 557.121242664 903.456614062 585.261393122 509.733594487 446.276057153 532.036767283 514.080175347 268.078249121 847.618383123 538.090572666 486.358610498 921.264659466 329.112121598 599.00204542 426.417775686 462.760345509 638.122383489 712.967032276 504.980450227
fire5/squeeze1x1_param_0 318.509122896 390.725927412 330.073009011 284.389045496 448.497449043 270.481248376 368.162757617 429.417700513 318.348298014 287.817571732 490.39855194 297.112035943 315.745323054 380.172568242 321.236279071 407.84592976 380.456863264 266.069457443 304.773782925 420.150818051 299.675583138 359.983242169 226.228115652 276.738158592 389.74367064 258.085316277 374.39795411 432.085355003 363.570448622 385.108339431 300.56314787 315.591319732
fire5/expand1x1_param_0 669.4028517 288.32202985 427.181473287 503.349217516 308.910539737 534.996721595 468.808845184 430.195448305 226.50342906 370714.444751 423.895783267 362.578856154 616.816107748 617.652282556 598.939703114 328.769164147 475.801178814 521.098292471 416.872542295 494.806126316 279.894872187 452.086340656 511.709687343 364.313279065 375.77151919 396.004916267 356.098523024 331.146537534 568.294652967 375.413334348 423.021418832 518.131680239 518.244219084 418.912572933 396.373295195 611.890059423 537.602355987 451.513404919 226.404414209 382.711423669 483.22943157 673.768754167 450.40662821 391.701842024 247.715083986 342.157414578 524.364448311 570.185971399 394.385886925 655.13854415 372.541211734 462.608682588 375.367898364 476.011433444 402.098832186 509.868806034 395.624806512 448.994003598 700.082530436 385.280654782 187.774837613 439.770204817 323.473412925 489.34594233 414.167335967 422.610125238 370.055426865 673.020420582 270.858130553 470.171015336 466.564683895 557.224106022 369.942699075 362.941734119 501.066160311 306.831245341 400.559663649 490.674107088 460.834522148 476.171374693 353.53865825 386.947983012 486.129801079 275.206133641 438.185786758 597.549954985 561.655319521 390.719443125 381.027037423 511.507794007 583.36728756 376.129491812 498.834257802 355.783260905 472.84881999 495.100693329 554.625856961 788.243101992 418.954128329 525.480708027 232.093085309 297.993835251 527.806014102 348.140907838 576.605125321 418.05723013 519.343502266 458.973644799 335.478016864 817.173137532 474.064146535 210.256818253 346.232095864 468.192357547 671.637373022 415.764105365 637.8088299 421.531710684 257.304845485 558.167964512 391.720889368 489.059079292 414.744723515 453.419261206 326.697881576 282.644432268 259.943673388 544.612227462
fire5/expand3x3_param_0 393.685172173 172.155079206 713.451299612 649.420643526 536.051420226 570.134936567 577.602611308 361.20454699 442.854251571 665.09627963 252.566365236 783.33081758 751.378986983 1006.70164559 350.447817076 688.428639637 342.519940871 611.055208314 585.741854719 646.778134248 723.923298406 768.29425794 533.611729205 705.055843335 608.835237015 467.769908042 606.897216939 736.814844836 581.195775808 461.691584582 475.376771711 543.854170846 746.37939723 803.507801199 831.237468812 386.940955952 726.834685605 599.3883433 483.690106471 675.189753194 562.184550697 522.56379023 265.508291891 674.139039531 571.846752404 576.976932975 705.963691039 582.972087631 785.778014785 644.425850269 488.134236854 562.64267558 678.888534706 395.619554283 411.767551764 686.578444379 427.940562495 619.555568867 1052.02166866 582.076494187 720.543756449 398.852963216 164.517905157 678.454843262 657.548017726 635.33389913 616.430745125 478.983406367 384.055106794 952.216451504 714.314211481 510.020661435 406.991948911 733.714020268 723.696165707 297.571418706 671.518517602 520.948430858 616.774818168 594.358833404 938.59481323 1009.30882047 635.680818008 695.167036647 368.045203767 664.020895699 601.805349024 583.679108675 457.572145887 705.787311617 245.232125254 659.7718386 775.445253519 656.49653135 507.868440852 589.802439339 742.063121147 698.439703786 771.922226906 603.14343926 549.376591979 645.05854675 736.648627755 745.74414704 493.755926756 648.577584493 518.095301455 741.59699631 784.367991794 518.878272674 697.960389795 768.111736542 711.043519039 609.432977484 730.182230413 655.45026755 412.409094573 625.641775138 507.543921223 789.936956496 619.286315004 758.47067258 723.944697411 565.614496539 631.912174942 544.320577718 228.388622429 554.463127676
fire6/squeeze1x1_param_0 352.673447173 365.338165172 378.551865731 325.636658015 319.733066687 412.494723464 271.720509895 395.295178228 397.33264336 506.441061843 404.376298272 273.943259961 266.533656512 330.040670919 388.572680762 349.977962312 355.497202305 308.765434258 392.546743541 179.423649224 334.940109142 318.604709674 424.792527645 366.50256041 368.297001328 255.437768626 291.704309077 382.761164634 426.244394919 510.96442043 281.660978076 224.079748466 403.939977738 320.291893913 388.967009191 222.795278348 371.132896337 409.247508331 321.320547306 389.049252826 296.26546763 253.621379312 333.096037893 395.641298684 377.031300564 367.448451313 314.468794708 322.629120646
fire6/expand1x1_param_0 495.854975366 653.816306158 601.934898876 586.579971178 696.596296007 651.508550852 588.134492678 648.533167104 592.109692387 616.8913806 615.513935252 521.495547892 594.156424097 671.119818007 785.482110724 597.288056903 494.180846636 748.860122317 576.035911095 723.469175491 541.277988861 453.886216073 633.778734642 385.985025486 554.426012798 266.047646946 544.790884554 682.318692336 618.344308667 599.454152038 583.845202983 451.193154641 446.797494108 582.071962312 443.223519752 450.741256747 460.968368583 582.484293892 854.389925551 628.219486377 647.60500378 678.689535274 522.163402686 692.314512332 408.481566239 582.234637227 275.347804632 552.459169529 593.503812172 384.93391801 621.695563835 616.474173595 778.456911031 618.647229583 480.350632585 514.940480835 584.754516297 664.57735182 668.326294814 467.115796554 577.86660738 517.335696911 563.437588805 555.453318483 566.043755287 551.039838415 359.398170882 620.985387492 509.360199192 666.920126642 335.565140892 731.951313894 681.265349607 478.597377662 542.657538526 599.764123703 489.412258469 495.706564562 847.074757193 785.745632629 435.54104615 757.60201818 315.130792417 419.066851257 558.755398725 546.960691571 541.777487824 534.010532936 543.040432841 467.973534218 634.569703208 548.972938295 435.206329601 663.362245767 461.856361739 637.997899347 905.97259236 691.837388021 577.341281111 604.45276743 627.674010252 524.328285804 521.882671788 488.334325225 577.768554864 603.555998898 583.284923368 640.342710793 779.188675304 457.290203059 568.775737612 452.111329771 829.531106106 454.529566838 595.227919617 565.71991957 686.374967152 481.361161544 585.292019374 478.016443474 799.28651955 685.563145212 677.067358021 539.74910925 494.418274695 542.671843262 573.539505453 506.21293475 610.289836529 477.789360715 880.264327207 700.028076275 723.022491609 584.053173979 869.676538406 854.70292053 406.307584802 511.110890903 659.970373748 790.938050364 753.082215498 670.639047807 764.027193936 660.159363855 463.972742255 698.219755378 676.194440462 601.327670027 624.817050736 672.179105047 578.380918889 527.632115209 678.625281383 433.537302723 388.708147595 670.454400695 577.347343139 746.673256706 496.174535916 636.768473854 743.906222781 551.998415538 622.206164048 631.078791239 506.22977255 521.219168244 521.159217305 529.671779992 565.698891896 657.041050603 490.171620973 424.958541786 408.997501719 488.762293457 570.675614465 775.302267908 567.26589407 620.932499549 509.12593768 573.108865341 504.377380233 533.630004707 713.505891044 499.915226064 504.964652818 463.721509381 547.96672913 439.552517208 714.491285132 650.505717133 699.532226212 512.39116969
fire6/expand3x3_param_0 648.024282209 353.139802632 395.107855941 635.149907759 714.529322207 648.346483202 891.666034896 624.264890026 571.530731688 635.440905546 319.317557182 902.396245921 557.177295571 618.882176163 588.213847816 774.719303086 958.996327654 731.054006893 585.935871607 713.658779556 697.215900022 606.222282919 507.399004399 513.809336486 323.410664885 568.557944531 856.413999575 996.438297778 642.804822877 587.626923806 592.629777171 757.690855276 692.018550341 205.425388157 875.865694559 832.602676379 552.177945524 929.944365647 609.735603278 484.53243557 357.342373614 787.622906572 740.987830789 750.912071359 1143.91984747 685.247140886 777.014215831 537.463018503 514.652512054 848.285873905 634.155616622 327.171938569 673.847594901 784.443145163 322.182060061 509.728289948 784.847169736 723.021326214 433.134282708 737.524753664 889.255690184 931.549416849 337.112690339 487.835333005 499.296163021 966.091865732 794.125432082 739.616688655 872.149617804 912.789372143 716.787753654 766.792218272 680.4185716 571.893565901 485.552189923 1019.52621362 309.409139094 937.725597374 885.212476942 686.75027749 577.867469356 642.740833874 404.069897604 798.391094109 821.239869963 742.959240926 645.248715268 689.378280023 914.614855675 661.354953194 537.554817174 903.940705029 771.984734987 474.975513879 564.654510435 922.340015484 494.307473307 259.833898264 762.449342601 441.540542674 890.027945966 758.197267338 789.090252643 662.534433605 644.472825724 745.072132028 658.430546054 893.969065499 419.365018682 873.161792208 618.624103955 785.172974941 939.602874673 622.451913858 663.798356943 778.437500502 784.986901697 735.05510292 277.490490734 603.725944893 914.047700903 633.821483872 870.453818534 683.340176069 823.215889908 526.597435555 605.506300293 840.238344301 444.563972984 487.629905879 759.04612838 536.705927753 381.319538796 565.099922424 398.427729304 670.964221044 983.378195049 729.167584497 487.669582254 660.54289071 896.177244624 287.40916828 395.838539903 699.896949543 778.826393278 967.185902197 855.058691855 836.595158682 657.674919834 247.490423322 864.063911419 647.828042566 649.727146221 458.764389122 767.822137658 666.88928543 622.71814965 1144.48329148 909.338469463 653.038551593 744.054944732 688.707624827 628.147025523 696.543008998 380.28309954 701.426611236 653.373122319 443.60125433 669.046467848 469.440248558 429.87769737 380.047627902 880.466208074 747.192293075 830.145174448 803.064212718 601.814570382 609.976575791 462.795826575 530.866651331 891.933662137 609.724654506 641.981695427 721.780904232 746.347893326 754.423040726 814.030622619 830.114287735 584.495053499 595.684420168 307.950077464 606.707773009
fire7/squeeze1x1_param_0 422.383718601 529.586108964 321.318875561 518.532499779 430.842946219 324.8284098 208.861314918 523.284051734 317.492614896 354.756862249 321.025668717 566.822980882 269.577820671 419.641707773 464.565600097 336.668580986 364.507980634 374.17237323 303.802312795 519.206667181 431.789437676 300.837715083 572.505800779 486.364272433 331.462270787 587.34956504 389.197706066 444.219093358 274.374492817 474.552894882 341.168414148 455.204111544 564.750444709 233.346697804 481.976369046 519.948845212 277.668769017 422.602371878 599.536127521 440.134254692 332.751435022 497.846111645 394.499214503 520.765496818 292.975388258 296.997649827 419.899439246 330.505208579
fire7/expand1x1_param_0 332.128962043 503.500574876 539.649691489 473.361353551 451.770737273 561.80485547 535.147719488 332.559636541 519.569018227 566.690392483 713.564135096 735.482698371 660.227584319 408.61994902 577.616429772 340.935858185 547.79820072 588.163106768 801.294971802 601.461216355 751.413765727 497.078458467 588.505636595 654.822488461 655.295603179 491.006483515 591.056229162 586.675747122 570.279482674 448.491454387 345.081726806 632.627009948 537.438548671 559.117300065 573.416294681 503.447455622 505.13805955 537.14491512 622.8483943 576.426437947 734.179645192 633.143173143 613.212663162 620.703317047 668.456028568 633.79513609 673.047101072 780.023675571 586.066335429 650.93244011 606.807599753 653.931385596 583.531046979 663.370713503 538.910795446 494.410874918 677.597416697 584.410847787 724.956627858 469.63539436 587.099684649 514.394233211 730.058700387 368.688868682 482.472891296 721.702854557 724.235492582 591.28056854 435.235666216 604.918123087 601.123158287 634.170716325 627.757782628 483.719205788 787.61104249 574.305965586 503.487130421 599.575816094 478.057788569 417.92016978 549.038822792 619.780794547 619.460778856 595.39711718 389.160457749 600.318678182 348.580204084 344.475484347 566.062778396 658.934413153 579.998188991 615.504022596 789.62671915 703.827015057 669.569718458 483.182365926 621.705631573 565.285790077 378.372009399 717.657249387 465.590489195 636.035520508 574.552276091 564.813283609 655.658365696 782.447419248 626.93176264 325.084607564 469.074193171 483.08716685 684.271535223 604.84552903 440.963708198 727.393477137 766.059992631 595.622891368 486.23202853 596.270412727 563.001040414 697.717609417 596.00534185 650.622266394 703.189750431 560.617356589 544.381142809 650.167627978 483.505544628 725.17677794 663.617250321 498.537099043 388.056632385 503.125351791 753.849703195 647.308119725 729.501053018 897.967476329 614.342589027 487.225307925 718.329978698 469.755138531 612.576094928 722.241049553 688.767456668 626.917236259 557.516548761 417.966037885 678.033788142 708.840066592 672.011147271 483.479487922 528.570638246 591.665963405 546.354595293 716.63273835 781.76824936 747.896490694 508.758746421 579.679247657 578.848572956 622.14925303 616.378095197 415.920578871 452.08562124 510.498113191 539.61207335 678.45046864 764.201886128 606.69840109 469.936605397 680.23159538 554.584281551 549.084452565 584.166624205 546.357782495 731.18609148 683.947444349 646.733079613 889.948206733 698.57377776 489.239536874 516.970495078 377.1364746 559.036176999 775.27786616 526.589887142 512.339361103 285.459333589 519.987927589 578.001929832 611.114401908 710.591542912 487.033307519
fire7/expand3x3_param_0 740.715616313 888.542758828 885.625026614 784.778659256 831.083543107 690.176028691 586.904573067 848.047845882 871.653502926 833.224397794 727.167388175 459.865921657 825.915309147 708.936292499 782.937846068 467.14667401 876.823548693 961.676658582 571.138043329 468.729794269 473.106366122 872.703038467 537.231999586 991.513933947 880.056359454 862.783860277 867.16759122 620.301345251 738.997122162 764.80371234 916.514374773 741.810518415 456.462198769 471.095113633 785.293141375 753.338758874 677.165318956 712.293292656 482.694169753 686.490845917 778.438922486 629.836482888 496.765376814 644.426678615 826.886410475 606.09820855 592.867932437 926.81610442 679.848948721 984.172970406 783.666749727 828.240007735 569.455077742 669.467211499 511.057410256 857.772056631 636.915086415 431.193188921 602.56261042 645.731819205 447.74907467 704.781059252 509.891683821 998.122784378 795.173305515 471.007532848 844.750607434 674.531085494 767.699305769 492.085178262 282.445537501 813.416320865 297.504296255 323.354688458 733.044145934 841.861090179 733.738591909 1032.48746228 882.132069556 880.404088018 934.054566648 548.695640037 747.034391456 551.562379661 541.185842116 740.908341774 518.395870947 619.321865968 603.550784459 581.243974014 760.824200043 919.9032833 834.490157799 875.079262672 802.337844328 935.911198736 720.396672398 512.118629842 684.394728535 384.27706677 963.109075039 756.345917082 750.195912964 525.91498478 639.23936895 1234.00936334 466.976054153 519.082391687 725.402247984 821.553672178 553.233305391 564.537742104 607.011199489 676.579213502 617.511002868 617.275754806 649.943570353 754.641006754 645.262540309 829.436168263 631.15875415 894.867340843 699.011737125 1093.12445264 666.311084593 587.733822784 1103.65058094 504.999719617 791.008961982 792.980479237 836.525609121 751.100939085 719.389832855 808.26832136 620.139222247 980.542311847 484.891794494 751.995610931 1138.19111625 631.163989133 340.879322973 526.684453141 850.431184112 972.080733053 776.713123804 532.301102841 615.269901172 633.051280282 674.095050848 799.995281217 754.250053475 785.768524436 599.766613885 773.672917118 720.686512799 742.028621142 678.610530104 574.553360603 744.262670451 628.175498561 697.669005075 566.64043353 635.366248309 659.58516314 858.052374381 676.125294299 756.803487956 713.17160483 1010.14895445 739.042875942 1064.8215373 660.890987978 854.023499704 544.548827503 567.788356044 642.751546297 605.196210853 733.731517129 986.620413678 688.333730529 871.605366491 415.032364129 642.225315001 928.585765142 508.1180253 770.542221116 601.475351039 540.039164444 787.524001631 708.389591156 708.132088985 570.77899552
fire8/squeeze1x1_param_0 374.825138628 431.874375548 191.398736522 347.452473824 271.139575824 310.819214396 328.942013474 525.339001169 338.033899746 393.911050912 495.871131146 424.711918438 572.921361625 330.620341787 412.23766425 275.720807353 383.816186701 443.731005316 495.808302617 339.55126556 335.762724399 381.174817421 396.617662528 494.91036893 332.766323844 512.496235905 209.284539383 534.206810019 481.178481064 348.300823965 448.76831971 451.876176927 330.491623535 579.208164725 304.124716592 302.263126726 364.753273923 324.776867214 426.956731061 360.83153611 467.943934745 352.606971343 386.25459026 223.813935939 508.447192596 308.328971418 894.020360332 482.627475208 519.240956186 282.587284817 391.221375051 487.125502282 383.656852959 315.831158687 450.313578941 363.881863677 359.02815364 425.465604474 446.334157835 358.146223129 499.357128444 572.589418656 404.014234789 433.57232585
fire8/expand1x1_param_0 1025.0338306 1154.38626692 927.321825879 748.655083694 456.481903922 773.5866826 789.590946654 906.87625105 1233.45135923 562.878226206 668.058599727 867.823822154 1243.29535703 1117.6543398 830.825264116 968.701177139 900.284385826 607.915107267 1429.70302366 1009.91003855 812.863722036 537.49477838 702.96332177 14435.8577032 654.375679054 2006.84567305 817.582020847 1236.73455757 3194.39476938 914.884849463 655.116185229 1160.37691686 771.088426552 1352.21754853 4623.19930279 531.941332094 1212.34220726 1459.27239975 1336.64609113 567.807912711 692.243717006 1241.07555207 1273.37939855 2295.57289943 845.522032286 612.582743343 817.470744634 591.852581458 420.730814347 940.271174765 697.068378465 716.992896384 1582.2073549 1515.74702318 2882.26372339 834.603092041 1322.97056008 864.952922176 1028.95067739 806.01550933 675.970960017 956.301065395 912.721336826 1518.82418685 1068.3958739 949.406475479 899.950712146 968.206300433 863.900128954 1688.79684942 1070.64642501 1182.51741058 671.637320094 311.342332186 2024.68458306 1149.66582768 895.429186314 945.739615904 1099.6270801 759.452289239 1101.05065453 591.83803236 782.868949394 912.431225335 3357.44973886 729.327633799 1165.64956586 970.66541175 1180.94843447 906.664104452 655.447091887 732.422885886 1134.10454747 995.128955844 1170.29286522 1313.91628565 425.203924349 1278.95894365 992.825917585 945.040258784 1225.51421323 1287.05766727 605.89909736 656.153652879 950.391379909 693.446106916 5814.26494093 1086.70160487 1012.29888454 3990.86419827 3661.65406693 999.235079813 871.073545539 1002.23755644 1077.45362629 589.042488712 763.359373708 990.063928328 444.961790768 578.505133888 1094.51162125 1256.86142735 8156.21995353 1818.52035988 625.796495453 999.944825101 1014.27906681 456.890668004 851.69124357 644.309269633 557.058064638 689.769387323 1416.76387393 1510.24320906 724.644119851 709.254637275 718.015171719 12786.3779129 974.886212679 1363.79580601 1185.17327072 4838.2241305 1510.43738858 201.295234323 869.928018747 1041.31975139 1313.11716987 2081.56141742 574.816824598 782.68224141 631.385854579 1151.22565599 770.809684889 658.496985091 751.117156755 1080.16258256 287.692786564 651.452278177 603.488474607 1590.20151043 813.484798271 580.675973524 2537.54310547 925.234841954 846.223695761 1442.05149564 968.034636881 1135.05230903 958.784552667 759.768658327 700.131069056 382.271845827 1181.12363255 726.643821466 1357.0779964 630.192985704 845.528491212 590.630039602 1022.80571292 715.772153887 795.493931563 706.817015738 1249.64665243 791.810500441 779.720175825 896.77442153 28052.148681 1109.70290889 845.540234966 671.266552064 2308.27104797 497.384387892 711.407283697 1066.97381585 1108.24723248 440.252842848 444.314134379 694.951127621 978.908273627 901.271929548 471.546133514 2220.310822 997.083063292 848.34801952 376.87764912 1504.81402516 1140.88393983 2267.35314574 604.20020441 994.289714392 651.10793196 856.768010365 1597.72405956 518.780457397 1318.22135745 7146.4498578 2540.78140478 1312.91842763 1131.87792627 1014.17816606 1469.45524527 967.811378415 1884.31358732 1080.43795306 503.698934238 1338.72379426 943.13589059 1325.86372742 906.460733749 941.796049194 1039.15026276 986.840780295 1833.02598991 1073.12039434 730.83108916 553.158009315 879.274905561 1264.90822 746.152197324 591.346865506 641.4136139 694.57116122 1190.4530956 826.732247349 375.438570289 550.3643197 1036.32491317 639.937971225 575.120035262 1064.92405161 574.487600103 1249.23800537 1186.37388092 1456.59175989 1483.96434791 535.453637895
fire8/expand3x3_param_0 1028.82429499 885.537609415 805.604479718 750.868342239 871.164719632 783.574454932 672.544938094 953.805218763 821.000800307 956.288725885 550.95438188 793.852119548 614.920938367 933.750532647 1049.97424326 947.943430989 861.451431107 1015.80298144 1098.55306891 1093.046015 930.772678124 991.341055863 1054.62439025 865.313062616 760.761109432 1122.56716696 519.451280989 1013.72303469 947.794265166 1031.30781144 961.171262162 959.198696282 747.797140765 864.32644319 808.836333561 975.806726094 821.566818471 927.454322294 903.838707676 658.535654103 1047.5324628 1039.53132291 1234.47730057 1014.58019865 799.711310606 947.719331012 735.986288251 1083.55773082 1030.00903533 824.018332003 837.838076789 980.952887862 1036.1985396 858.893216217 779.852664766 1027.38089699 1115.55412786 846.09986724 952.93041632 547.317347033 1001.56610019 977.028496502 802.162195374 832.159052934 684.741578322 1100.93793847 820.349958457 794.342218722 563.36019719 808.960627879 975.594162845 1061.56045952 541.184708092 956.296773355 822.839880755 601.82935914 872.315204234 1076.1783596 1132.07142065 1080.05629232 444.092527786 1019.93500046 960.503566152 977.246391522 554.96406907 988.167914298 890.102028896 937.425768066 753.888978887 640.004190788 913.166487273 743.281137297 798.537860491 941.085260115 872.470493044 1244.42577373 894.131878913 967.930744576 935.159390496 840.406618789 779.643499783 915.207283494 1099.80218228 738.535095952 1028.75642773 637.033386898 916.367545841 1010.58865865 755.919470535 964.673826278 847.758256537 848.985622035 1147.52427354 566.84462001 1004.70838966 836.550570089 1078.059972 1086.3758101 829.367400339 942.471121566 822.118312025 549.906377735 747.668694323 640.984379606 945.190131272 880.246689764 863.978946989 800.313044768 848.640800533 822.813824791 690.752570822 769.209417236 706.523169095 603.7803906 1027.60529167 808.640411518 799.980713716 970.131531946 994.458516942 1083.84875632 886.488253972 1129.10629773 1045.76120659 872.494072488 625.246639497 836.760416054 896.366976337 797.285425506 1026.19644581 821.59873562 873.241056755 722.3203176 539.813482046 878.164359708 1267.61628948 807.172372566 643.849983437 1100.79403681 388.58100737 900.70501482 784.847892484 1171.88842041 532.543139376 1106.96550212 1042.70150337 908.821736244 490.889515289 935.9715313 1076.49759002 810.300575845 887.61099952 789.546765877 728.19905574 1040.33332947 737.382904912 1105.02900621 780.837502955 841.277568543 974.690881611 1023.06145402 980.059157548 327.956819483 931.223506953 759.252773093 1108.32837152 1253.28493728 1138.91951544 770.355218298 934.966114108 738.766901318 799.923875499 1098.46422308 1042.0187687 582.989274707 941.613231776 954.480092585 986.358477984 674.045257256 945.083853151 979.176391383 897.421907588 830.034898408 1016.70587337 240.640160753 829.316638847 1056.70723738 1048.08374364 1200.76219287 981.323694679 1110.29634667 614.915614436 813.901501103 542.86164242 711.126162852 1032.58115529 885.933701324 1110.77785142 1002.07411455 911.706021373 936.643423339 934.768611576 1140.34714841 878.697267085 757.151284016 1002.03747412 1112.08860042 1087.5079275 607.600337235 1168.70797918 1017.39979359 967.281950011 709.746462021 603.329083208 758.384419335 855.64577408 648.284443487 836.596472598 943.842047024 1027.97458247 762.60693676 539.015122646 1030.7245433 1124.66450755 1069.48852708 623.77610642 659.535448492 732.828393498 769.651898374 1090.83735837 969.601327686 1005.06810062 1078.51262033 760.882342312 1005.40612703 1221.92188572 892.833648585
fire9/squeeze1x1_param_0 545.164556198 413.449823881 348.482002456 526.78149506 422.694047366 412.095266499 470.33442648 485.480167989 382.03565237 431.137959785 421.814857947 460.325669004 362.938952105 378.314770895 488.282399486 384.163439982 478.010491656 434.650792689 397.021283906 381.045367367 502.283259605 470.502003166 464.153003817 526.197797617 425.055990938 460.054279634 546.216530607 495.001257885 378.771380066 398.371673461 393.989752636 486.36721447 433.4977431 396.001641096 444.429841016 462.350446563 487.18091387 426.674544245 484.547586468 343.444545124 386.501920033 378.833235915 365.776213683 431.010934136 300.115306356 402.050690463 362.482013881 386.176603445 481.628284314 470.254237561 294.368678284 473.828684551 491.323901889 491.954746395 489.804790611 475.347713003 470.743737732 304.67875478 320.097065721 326.782985128 321.764829838 405.438848981 545.346367483 463.291823827
fire9/expand1x1_param_0 284.501996095 475.176773388 541.697186543 432.225289576 475.418297893 484.470023863 480.095796251 430.272591717 367.262877173 515.340894602 510.713593355 336.246890669 468.622888487 369.766725399 486.437889578 390.720016313 394.173755418 359.654601639 454.120804465 496.953537772 244.22330381 471.93382802 328.000969206 379.980597454 458.456609097 412.562533231 490.501114887 557.956355045 433.303489774 476.344468423 550.290015677 443.239286189 353.418736992 402.363229018 484.319156428 423.388246665 368.756792502 435.614107214 319.119897328 460.420713532 429.528894888 449.431548325 398.803804076 601.997611173 459.989970362 399.176551113 596.728973923 605.680617788 455.349205861 434.097026005 371.28173659 350.258341994 535.129272685 501.513794589 446.849732944 519.501466374 494.480349763 541.129043662 327.660423217 323.440710204 422.622824598 360.713548057 476.934901056 482.292532049 493.424789362 387.822520995 413.86638199 576.344229052 558.915819379 331.962600375 316.232264603 537.461256058 441.140048033 429.468724181 412.564250729 531.740047607 560.277856167 513.653638132 470.069828997 575.087282261 462.864643185 458.939291047 376.145095851 586.820560608 540.419981935 437.242928068 401.151588321 457.126902053 391.638412247 356.721200463 521.204729037 447.60878266 529.894265684 474.325447226 492.436825067 372.741810118 390.568216107 438.688569116 430.880585043 474.774001617 365.477283641 546.220766401 474.792092631 420.576221833 315.194168386 465.521673391 563.008887769 480.873218171 484.51508207 483.118713135 331.32913509 524.255492031 489.089670224 376.798338251 446.244278788 442.768804708 464.562206876 420.293283622 344.990708902 553.248675922 437.290039691 547.517620625 410.26169715 485.957836494 595.401650951 456.369270101 472.702428319 473.235664853 359.868330509 486.723019186 436.990448259 318.862465218 548.556354489 412.294140321 492.557207734 622.002595051 444.018769724 429.328276059 413.559844736 557.183742925 575.577375612 381.677875021 351.267872061 456.235540763 487.243636061 509.513457486 536.767075043 384.214633003 526.342373601 442.755877817 478.407980163 475.918347873 408.527383159 450.391585416 426.310616977 319.068836344 496.065140395 484.784669866 278.281775152 671.36305304 366.376803141 514.926511844 415.934178473 376.56030633 546.536640571 454.273102229 426.077630402 424.941548925 409.49848973 352.107483761 337.184923779 490.344832173 287.700303254 475.018346684 401.626903926 475.910641106 392.193560844 687.001930787 477.52754835 536.800882732 339.154985338 401.111148511 562.19641749 576.997127751 379.138332047 565.148860588 505.246761328 452.990292851 366.335795509 520.347971001 339.179604267 412.367430716 367.632056411 425.530437457 275.575134706 447.284327084 372.201476259 578.746885717 438.36861449 513.0041802 317.974596135 553.449289359 425.19039061 562.274639602 384.938646941 369.754084341 450.592889802 310.475795325 413.861478318 625.295952544 447.546307418 393.644041886 659.600936601 513.33646421 465.063623729 537.864750534 549.407083841 532.184603334 408.882714995 369.013591218 550.073046263 385.806770366 523.224010328 494.980099221 506.305376048 511.063416693 574.296329624 570.912548182 521.564896074 478.361526801 616.690604563 424.903796583 559.005010291 470.898440882 495.748546635 576.234887419 596.935648629 554.401741129 522.760815506 322.953409182 520.901372034 462.544460533 451.192008121 340.249814182 432.658639821 471.145739972 345.94177717 477.128048492 534.352336929 532.024711471 488.659503719 493.045260201 402.676406063 531.329554746 492.264009538 472.636893538
fire9/expand3x3_param_0 951.475300042 1108.72386019 773.58464635 763.547578193 850.527509285 661.637333039 994.312102086 730.417584749 790.450162179 1167.38348071 891.409476369 911.448134728 945.978424858 752.579288273 1116.85071379 836.502537973 809.784206861 1010.10429875 913.007133771 634.365991929 689.141599541 1084.91553137 1252.3165653 289.679206026 1004.02380255 787.501152956 859.4747434 909.749249492 841.27349953 883.464908477 808.086848499 890.924181879 1202.50856175 893.469366258 644.643291068 1046.2345225 962.448031825 536.479172374 614.313894943 991.456839453 919.183109377 983.138277541 754.510131872 1236.81379455 787.461207341 931.500037324 524.958277683 1002.79828305 980.172884273 1002.65341281 549.154256029 938.497246996 794.665657192 1045.54324283 647.253061832 937.463919385 831.053721023 963.544937464 810.385173119 1002.2014933 780.080648241 802.412023603 794.557716341 820.760842272 723.255707392 824.061594618 1023.21129937 1000.6863616 1033.73764238 1015.01615425 952.012764358 864.233452248 933.744190054 989.031279349 859.327078391 959.198804235 952.623661474 1097.6053193 1146.1302558 743.642631008 603.351506551 897.179781746 959.306769121 861.394751034 814.004810587 698.39609218 1106.39019648 991.379916463 941.90231777 903.241182197 1036.87391852 936.184453308 661.489798001 733.799933446 888.553967751 940.825338933 780.815469825 914.552828712 634.110510543 818.963926318 691.650483029 668.122020405 860.694831948 863.359037573 946.352889028 1109.33292793 942.334300122 431.05684311 856.40358686 884.937105986 798.824142809 907.317165731 1058.53091807 995.38603829 850.782643 1006.01232169 966.206755242 1022.05586346 931.920796375 984.891518504 838.359929452 978.597939816 957.457777754 708.697132092 958.007731212 863.546063166 631.680669443 920.297132368 744.951847489 905.3544507 983.744365747 698.942087573 846.859874963 795.986581052 854.263610112 915.935904884 767.506768435 793.145339061 962.320234837 982.321281758 760.964408673 776.111992619 992.650385066 869.951549761 702.765953703 794.422479773 790.803749542 771.952291051 1119.07372047 936.356424335 858.092891386 912.582462875 1022.65512737 602.828643851 1202.47573243 825.013804042 1057.79960127 846.885877236 1017.09200945 934.970934787 896.619605326 965.721426446 835.086635813 1046.13621677 900.369602571 931.349996421 978.835308941 982.501901007 933.501701652 1103.79773215 531.840554648 785.601358013 746.856332854 883.538086008 1009.26411951 1026.34554243 974.657219438 1040.94901218 852.24149476 934.927653023 826.11072417 837.585625349 950.320696921 1007.46681728 835.207343311 928.601548246 762.526221311 990.953884763 837.603487914 983.079195263 950.33182323 974.691661887 1077.28379741 813.632972523 1099.92396367 652.428366754 750.509109542 858.35932766 745.628929209 792.094407911 610.009232134 1116.23219571 811.57077417 560.001422405 915.51302949 685.035146486 708.487815016 850.999095963 734.730852922 937.81619241 1112.72991771 961.366525126 906.078250701 700.865835599 980.324072342 606.636432782 910.972524259 957.183467734 1111.09556197 1267.91669693 902.131471071 753.563694233 860.229198086 822.930612872 1045.26748664 1110.1579416 818.205460844 945.530717618 753.971411134 1223.15680336 1208.22721714 987.901950089 616.054235277 769.981623958 815.03919383 911.687199 994.766221423 378.589936116 778.922342423 858.123735253 545.059020361 1161.6837341 1103.59849067 974.648525612 1139.57852355 677.194481392 785.655454785 1007.46693637 879.005482165 880.48458201 716.997420254 831.02860082 866.739528107 928.916006859 1002.58972091 1097.89531342
conv10_param_0 915.116090804 946.748788186 892.780619424 871.623461601 926.732156643 791.085099682 839.33871087 952.321147627 954.842063339 773.636819875 830.340897615 769.523408328 797.99504939 780.911766619 736.986617578 860.081534127 873.474908374 914.784687717 796.830724282 842.38555341 969.906643069 1038.89477376 655.067041253 921.439759657 826.609888214 773.230361584 884.197780092 911.165455871 865.405670935 706.398380199 898.370696431 915.849979782 1015.60555519 913.773596303 989.329547268 888.99912569 861.541298674 801.108860353 937.821248913 1002.34187131 932.380388346 1062.95333311 913.24897382 872.516849297 1075.4781708 727.054737516 987.717508639 901.765035412 829.447630693 919.163084845 987.50864977 635.048914072 960.713285641 911.804241907 987.526041767 932.414049753 828.942051457 885.821640328 977.426494316 1076.42532691 824.059841717 900.024270211 862.335245929 882.801003491 965.331261957 732.682172601 690.242935819 1006.66216906 858.500001511 871.362358687 705.590107264 906.603826238 808.91171938 877.778527922 776.89600301 862.236140583 828.070133329 791.521503719 851.49366392 883.584984616 978.034200339 859.710818153 979.415504408 792.247999981 778.806323821 911.777514463 999.626170873 842.216818494 868.055841892 854.459307887 900.635818563 827.013425682 947.875430851 894.911315342 808.08554599 803.38131455 755.857324778 761.959579466 763.741487531 909.02956129 800.526456048 866.330291747 850.098245359 830.505878169 1019.23189004 880.55044341 1021.60012581 832.205774921 827.294152911 670.080880565 702.350075972 998.54505952 951.584295535 942.947858 972.711892208 728.209819627 711.634134923 787.532224569 763.737997114 915.563187398 671.30160647 779.031274774 963.56421903 953.106356901 978.21313408 851.977394497 786.674327245 689.308975904 853.520348009 823.869775841 951.451188428 986.869461468 969.297196601 983.148711233 821.010844443 766.856796215 976.68790121 874.65179239 863.855909577 874.205908575 794.615276206 893.996728344 935.481695444 847.423446756 989.926048236 747.408525472 774.216116542 849.923525064 688.364808017 1093.26859977 844.119013409 1173.88868985 945.152082216 846.792310178 999.663338688 837.022892155 971.553380443 982.135522723 758.7575821 842.218316582 879.329608427 924.140804508 1075.19202946 907.326921482 914.088286668 839.03983921 949.073343166 881.334805185 958.601657831 890.450486263 1017.28297152 937.374938835 865.542774662 931.403533286 910.996380631 856.051854722 854.855602679 982.505185608 800.802954848 915.781093864 971.063883934 874.998855589 919.910531448 945.529458843 1027.52649772 897.317408072 884.234657416 1006.28705873 985.353361901 939.942037156 842.911420788 856.344299447 954.433061888 911.138473643 852.166081697 961.652461195 883.063243355 877.876898191 903.840720559 1130.51954199 914.664817052 888.148958642 965.668138973 832.953063997 969.449348563 882.856237445 919.676960288 1064.35305674 895.692300126 820.187488127 818.403923964 1033.14460993 938.40435055 928.583235848 931.316615332 1033.69225589 842.91550566 924.93622042 828.245963858 934.156842694 1009.59839693 873.341992265 969.557427516 1013.97220258 882.041597862 1058.37751594 863.369007893 950.272697827 923.524349337 829.870266512 911.329526622 853.69141975 939.479518806 971.906473841 999.295651351 1028.79740781 888.037724506 978.84104229 878.773824893 807.181622515 960.463733047 906.080273571 867.685818214 876.421139097 865.378694739 892.108901268 861.286635545 957.093606522 1096.61658982 987.054500814 999.982603256 867.849978937 880.358799564 1031.21247779 759.842152158 941.735691827 956.805003913 921.414855116 906.427281307 911.666231986 945.572259096 897.069106784 1007.26321332 1058.95810184 1030.38292124 1082.26571468 923.098738709 1022.35500903 765.879081728 935.354389243 870.967081206 926.934745635 1012.17012834 1008.7769685 844.155549661 918.86044399 939.413245237 999.715636257 802.329989078 832.645380873 911.718212444 1205.83980905 1169.18855969 1064.44836836 772.614645422 981.312282797 837.668770956 1064.20520464 790.175197374 737.27829213 925.201496028 905.590232389 929.222168338 777.0226458 868.450162088 838.652210026 825.307959848 723.744715252 971.1847178 1019.41530415 849.202769117 941.652036824 928.345847106 1067.34441371 943.260939334 962.390214698 1042.03252802 933.746849841 1031.32278692 950.487300927 1039.01198923 995.484396984 970.007537601 932.957762957 940.825442789 950.875528261 938.342670858 808.841323023 742.947129902 781.249493823 976.911019158 713.439295396 780.660486166 844.188827993 808.280509325 782.678647598 855.255269064 743.638413501 955.305701049 937.990621663 848.210315077 870.22522457 884.927090713 877.30624193 777.759522023 916.018400277 987.632466668 988.510258947 904.554036932 814.890740738 938.54912821 954.833184554 1002.41519939 719.691443232 900.49812395 723.831813479 563.838816469 811.647984604 736.109607347 741.93205111 736.928628953 525.757507759 648.559619394 705.046569597 863.407404526 774.056851792 938.523600282 844.345806652 859.559604411 867.240299872 793.042090711 834.944532118 749.080678948 882.70884036 860.302658302 867.28195401 888.713424466 864.709836689 950.559386918 998.016190371 957.76001255 1114.75738202 856.058733479 1034.35589707 986.126574358 844.686225109 752.838149031 880.423096006 963.175577626 988.13995956 1063.15189356 958.173163633 842.467406283 799.971477895 889.706009777 785.774972053 831.51312121 901.128133144 851.019999529 885.869978694 844.061247438 826.713321812 749.669927207 734.914012354 719.663367305 891.651202519 844.445276192 752.852978755 897.753235528 874.888016869 821.45255482 822.386916881 714.012783461 878.174855886 768.153412467 829.1839136 993.017709819 867.25839069 661.674060131 860.100542693 827.230958618 1004.51347611 1133.69828816 829.456106637 1082.6879982 1097.46617371 644.884787611 698.915435243 961.143079724 898.423918235 869.489686752 999.47541748 760.755473213 824.510184017 807.439253757 910.337041798 1030.78681108 718.200500433 986.129198641 625.988072417 673.694085567 920.493835438 874.630609352 811.822709078 795.073014532 794.903719643 1113.17267923 868.934928666 775.634453653 618.16325443 1059.19321307 997.395895977 1113.31765426 834.508950813 758.189375791 797.862300175 1091.57132658 968.298590627 896.853501252 1004.23532839 711.082851064 793.498461105 1114.46205616 813.514537515 808.86289356 830.652465659 653.655343184 761.110854138 668.303498326 671.685646896 871.365031303 939.848854481 892.023840539 966.267661048 939.785326721 755.819385359 790.605684054 1009.44772948 1018.9152005 905.431491919 1001.63189869 702.583581004 858.883349002 961.942041666 908.34624825 798.996160559 719.084046217 1007.1892933 787.27317543 1080.97293714 822.753457556 945.557572298 1173.08396882 911.779660404 885.466124176 1128.99913075 724.646461118 978.977538306 846.715082447 973.382112085 653.228848917 896.151990822 976.702115922 928.918132988 822.911860987 1015.79305383 728.115568647 961.878531771 874.807465341 964.065483589 749.939525639 1025.50121335 1203.56412633 1067.86824594 874.522286717 945.495682947 665.307848209 1021.19134933 718.616340403 1067.67059503 810.93641217 994.562727466 993.137125758 957.825670815 897.728271066 732.361522625 935.56446306 775.575517193 806.120791201 791.22882475 930.101566592 941.975085504 894.466413899 904.535508706 994.329734555 726.520742493 786.27320725 723.476974957 980.309413739 754.869595493 946.903621617 948.21563463 872.570625148 1012.37920844 844.686727404 953.276498116 951.396171788 864.523095959 841.049847457 747.741374632 900.630584066 884.937841061 772.912707868 930.827470227 678.919360049 918.066538833 786.300119631 812.113026186 903.29067456 859.575902417 1008.39085522 919.552530094 833.255842247 1083.95420896 679.023051085 901.54850209 748.732954886 896.572161701 863.793309686 938.159952333 833.644939614 820.50412003 791.481149214 803.066558458 792.547329517 686.33870779 881.697591508 857.253701288 800.907255618 949.248179401 807.328656358 846.888906731 1274.3007 778.585983668 884.194752986 734.272119937 685.511918725 1095.70668812 887.177850475 822.23299895 751.576042832 900.381206992 939.428363072 701.59013292 618.932378131 787.907387603 793.207419093 1159.40028926 925.876515769 1077.74192681 1022.25807405 690.355650834 834.50020787 792.544823729 719.131857543 789.556932869 641.864788866 1137.43488149 833.10735731 954.53236623 808.666421554 1036.78165203 796.438309625 811.919922463 731.4586275 983.710870118 734.284835455 746.811569709 955.584828416 821.209642353 872.541771168 727.81754779 806.191477371 853.052794168 907.132425629 965.885264809 961.598211388 745.589857181 976.986945042 816.037531409 934.42610263 850.36712086 787.643360215 1087.74318577 797.102513613 948.616472851 1042.61553069 805.127693048 871.561513478 809.307764015 783.456542322 931.927521827 1021.06368522 973.897986471 901.578734197 969.464125283 976.480435907 822.380092495 800.895288999 773.548416925 888.826589129 932.552393053 780.119491523 928.998123 868.2315523 660.826626888 975.630011739 967.428308668 958.212160583 851.418808419 1127.58379017 640.747288252 823.374073746 799.429416152 898.461802364 801.87940063 917.341436556 734.840762967 1014.85202279 932.185098143 980.731644219 786.713757351 781.158841445 1112.88226116 737.801972429 899.390108385 878.942208394 765.695986154 1084.11070265 697.834607442 819.469143515 786.172465395 798.264343951 690.145513958 1064.75921345 876.920532069 892.449306471 977.111610027 652.172355162 901.010576281 998.173985646 716.647079875 771.922995959 794.972452237 742.265728029 877.741373566 758.270255073 1008.84718097 684.856686047 885.373035866 944.171516367 1071.68216901 1307.93151351 1031.23668388 661.509564803 825.04359355 983.428348632 993.942776041 1014.50049119 908.768244431 739.817191019 852.490409962 792.91526267 870.806454787 726.120203935 901.441704573 946.653935653 930.716672826 893.537184614 866.681268726 863.716451181 1007.53934874 803.945888987 917.084200984 902.063774027 819.129848528 995.030435034 900.85629373 914.377785326 898.340868462 1011.1059894 873.878917258 985.548317775 822.287022342 801.374835676 931.706142423 790.361686473 935.997948516 906.559466592 819.895235198 824.001203494 1077.21741935 1038.29979567 882.885320351 895.070712137 1012.17794174 546.411199921 1047.87376472 777.455157261 767.487139893 857.2928494 1081.62902881 963.476641177 890.576656571 785.835976091 970.893970697 823.075174095 891.865900307 967.591408548 730.810158426 796.17612116 897.219072259 892.836080408 996.690462519 1141.52894045 785.816558101 592.764393626 888.701933516 736.54212268 953.108275448 804.656712247 844.921029348 996.332645601 834.487951718 1037.10695976 885.210546176 806.738016719 1160.16201872 813.497920541 773.77617102 971.856158698 990.360057566 917.52137003 1059.30932664 953.120213249 904.074659446 998.833876338 906.44232014 910.816855597 678.492813028 904.239927778 908.709430087 711.879979409 798.50636326 929.601529277 702.694627059 701.846192816 1001.27370164 864.414281475 757.241495586 750.358391103 1076.11891136 591.041596226 769.345372184 1074.2430472 832.108517839 827.96652083 922.696195281 704.225906872 883.08236634 740.21550048 919.665746299 773.968985394 797.415669955 905.720344863 960.644632217 944.700968042 722.03576806 757.272916593 984.384399862 784.694338411 1052.31997009 712.243350693 1085.2299486 852.657998117 925.690777116 858.767382939 843.428513296 992.827421096 1176.46780618 861.020988712 1028.36634916 828.412850605 908.135929301 943.786025613 912.037929911 750.588556774 649.226129026 1103.85720409 936.280510675 953.920941248 858.981771637 617.400959595 878.313591879 829.366351151 1010.00769793 781.485747107 825.836720903 963.317211936 838.322573804 855.581781708 1036.33348198 763.647257462 931.052500615 951.272991576 882.649694204 990.824395774 828.409307689 1191.8706589 861.893547751 841.913149494 993.026965842 747.097583388 740.370146428 821.176964219 1087.24724977 614.341437669 1093.44666272 750.185942004 927.310323787 1006.82104527 1019.59091688 959.43031076 916.010031928 879.778737575 798.520428225 947.363792467 869.818194585 1005.04641115 847.257909766 1083.58142592 949.189611602 793.936053445 865.003048125 914.690437871 899.364673187 748.792618861 896.881626042 875.543127057 814.468276753 825.646314484 865.8309219 1023.94752976 924.061448361 901.029341405 845.039737212 999.417988414 830.593452104 840.78251768 691.984108154 790.380230279 903.394463392 829.369337307 1070.22709709 984.599560035 1084.33359455 983.276541943 727.140214833 1142.21699538 1157.75179484 884.264106443 908.917494561 1093.52614002 919.86158385 986.266821933 974.331752627 859.692086959 997.667464536 721.574967821 900.741092463 1034.38119249 920.326051094 828.171920851 849.509264854 888.350861467 847.280904167 1003.11093483 941.671284482 661.766024162 841.052503354 642.139572338 885.235830692 844.409635126 1041.29195269 499.107042642 1046.74034094 927.213172767 914.830150576 1082.81028339 881.312932671 1017.99676977 772.920908886 827.740159835 711.29815678 856.006113794 827.01583317 677.388943893 703.699400023 796.744166228 775.444830198 873.894149906 864.757828664 709.333205496 797.541180514 823.375664641 759.488834582 780.632957435 903.45441135 808.35901169 912.379065873 913.365635038 907.512223981 950.385869013 875.686880929 770.578935867 748.111095233 701.348053248 824.588599759 859.144820223 787.987082036 793.892864096 918.314134289 963.52565667 805.072402549 880.369166389 814.298168972 907.436857212 836.981545766 879.483139387 755.46644984 739.678567638 999.97955274 940.959956439 877.604625626 674.131361093 1088.73488642 985.165543446 1056.16733265 817.294756385 861.109374443 655.914799982 692.933674168 769.508817796 873.27756265 531.577272976 965.028601347 831.248818935 733.20211715 993.558666741 912.788785588 824.241306581 792.467446895 921.348715188 975.467986759 765.117413137 756.869150074 935.805661153 946.104858714 804.302168244 826.172065604
conv1 0.84167606461
fire2/squeeze1x1 0.149945621509
fire2/expand1x1 0.0816764706508
fire2/expand3x3 0.0816764706508
fire3/squeeze1x1 0.124961196908
fire3/expand1x1 0.0788939068358
fire3/expand3x3 0.0788939068358
fire4/squeeze1x1 0.0988776338966
fire4/expand1x1 0.0589800303352
fire4/expand3x3 0.0589800303352
fire5/squeeze1x1 0.0756231168343
fire5/expand1x1 0.0736928339287
fire5/expand3x3 0.0736928339287
fire6/squeeze1x1 0.10217626392
fire6/expand1x1 0.0610513402992
fire6/expand3x3 0.0610513402992
fire7/squeeze1x1 0.097412247471
fire7/expand1x1 0.0820006931671
fire7/expand3x3 0.0820006931671
fire8/squeeze1x1 0.123884905337
fire8/expand1x1 0.108086366745
fire8/expand3x3 0.108086366745
fire9/squeeze1x1 0.192850990523
fire9/expand1x1 0.105371957837
fire9/expand3x3 0.105371957837
conv10 0.205899675435
