conv0_param_0 106.81247862 0.0 0.0 0.0 0.0 401.162539812 347.167006672 0.0 0.0 0.0 119.294594219 234.924520182 192.609782996 0.0 27.1343312808 145.0318016 212.236257577 0.0 234.095175711 84.8123510803 50.9968867269 36.0147291634 0.0 0.0 104.757853202 62.6817589601 0.0 113.08670588 74.0197435875 0.0 0.0 433.832353123
conv1/dw_param_0 42.0692211632 0.0 0.0 0.0 0.0 35.9848012764 96.1156195192 0.0 0.0 0.0 48.4883970918 35.0773802664 35.616372028 0.0 52.9423933239 75.9592155109 37.7726240618 0.0 23.2944376545 41.6536292719 74.3933222113 114.592146447 0.0 0.0 58.0522076501 32.9069171499 0.0 36.6667798773 76.1828265041 0.0 0.0 23.9832301819
conv1_param_0 62.2967892296 340.009175927 244.764627362 114.332623597 111.084220426 48.3250825087 276.690272815 649.946742475 136.880592264 230.259516075 226.491462774 199.632388939 58.7150299 312.996863871 215.028802994 233.231347459 37.1700331203 236.888713672 602.868343113 111.411036201 297.324455257 157.185007161 21.9425684997 251.113038004 250.054944793 95.9932299005 101.708801615 257.062182994 371.846460179 742.451241003 202.487492655 32.1840056171 173.093588456 148.452152665 244.760719119 65.3044576142 516.90668949 326.26028807 81.1057925889 232.792345091 95.4689520958 168.812991787 176.63295936 138.763298999 48.499597473 5453.74677393 234.621263161 105.889154214 263.127766996 186.405568897 159.839393814 44.4354117484 0.0 37.8183825716 52.843051032 129.145267956 115.61911044 283.588401566 512.381250707 323.917615991 30.7325153329 231.785389591 38.8607860452 120.725560981
conv2/dw_param_0 439.582352019 60.1903177809 83.5455824137 485.688658713 369.882588542 995.153124305 77.8068358651 19.6928318641 453.722631443 76.3074740343 401.455922319 94.9558540172 244.565129115 226.900283553 375.830874324 169.798768467 1268.03337185 266.88035468 28.2426533799 508.968930642 344.379247572 101.716269226 460.506391676 253.092457162 323.43685604 305.57692073 578.445728594 285.327643314 273.306720032 177.767286663 227.428791371 1689.76751353 384.924773421 437.611881516 243.390031491 815.49939121 127.469458722 384.258701791 568.598796478 157.370072552 412.198746248 290.022364064 325.136818448 598.472275976 1249.16147102 58.5879827878 211.275352024 181.551999661 236.323400615 181.688265081 403.467272942 643.552886888 0.0 743.266941544 838.123976835 398.56262593 359.096407159 292.135653255 178.228101 243.217917551 1868.04198282 364.398669103 1672.42842986 152.041134256
conv2_param_0 96.4670026529 105.040459311 145.789043405 255.595926696 92.1496387634 260.557159455 229.172805798 48.8967015262 847.933099964 181.334140357 260.43962325 215.586516286 316.817676193 383.814043405 472.053126254 732.63323534 416.58324215 108.331203797 129.285771054 0.0 405.417248571 123.051816284 240.845826921 508.220346141 166.014083923 352.961087595 237.21098878 102.247363684 135.148160298 147.438192639 194.564841754 369.398852209 659.060780751 319.798787479 170.26674206 217.117230723 128.099609937 251.627202676 198.431091759 195.718675576 186.835107883 332.078259701 326.975727953 290.719593564 781.777715036 221.591570331 308.166849854 369.7510365 174.56204631 471.774683376 99.5213643564 172.084711264 153.524804301 604.438835397 598.42479185 332.319356893 266.628195506 255.894605416 282.599053541 557.745234463 97.0282244858 354.802673892 453.802451808 319.801259434 125.333239531 74.923221494 0.0 367.073474684 233.49496114 87.6563378381 99.860196709 141.500281778 181.696492135 62.8192972562 327.564513157 273.143030973 350.881834678 345.414442502 105.270746234 374.064084549 695.517401756 239.510413282 203.17360969 145.678869688 159.132505437 345.056020138 121.605627298 173.203944814 119.779038332 0.0 229.053467327 223.951718144 210.767731733 127.838509856 198.05360491 501.288668656 487.923921012 431.154928369 50.1808935323 307.459515307 312.486850315 148.760892739 208.761758747 406.273651659 822.074539562 285.959312892 259.804782054 52.2289625306 163.918513197 64.735759133 79.1611856866 556.8103339 119.341994578 167.207813879 316.032756243 193.64863408 126.400260073 511.057716704 78.8373952828 148.299418734 537.871437578 94.2687595239 308.364245573 133.071751795 55.9999369224 0.0 183.201947316 509.39594005
conv3/dw_param_0 90.7487428865 158.827164186 184.419010637 88.5382417398 146.600961122 61.9662543041 133.294707283 273.198226082 50.8878838242 134.834680537 73.5164158794 66.0389580016 35.7180623451 50.9010276974 100.852361619 29.3345510433 63.9758564908 60.0805080325 71.942765241 0.0 39.9078974882 161.254909511 46.8225342748 48.8302597734 76.5497452924 58.7551574888 27.6938772476 120.540718676 94.1268018091 86.3947663265 174.211326114 106.035850331 78.8629625898 57.7724314813 146.408275908 68.2018463833 180.58225265 165.416652912 138.58176602 114.143242668 80.5543824559 844.641941795 63.9430410183 51.3494705191 32.8523032622 118.223447245 48.2422029768 45.2621759495 165.308221435 34.3885520538 123.689266472 114.433388175 47.3565878289 46.3519337445 59.147351105 66.4885582109 45.3753841148 30.0839307932 50.01534779 46.3844375512 169.616195221 37.062877529 21.4390361661 57.248873404 95.3132023439 147.612080752 0.0 44.6650663008 70.2968006623 93.0362948306 67.9547822519 272.188919771 103.369757167 355.344952151 50.3477053501 29.6558703498 64.8689148319 55.9398926919 269.855140521 26.8444898496 34.8501963264 64.5462419854 299.275499282 121.354336506 55.9980059756 26.4303379421 107.300200348 161.128904095 141.035821614 0.0 87.3951895424 141.262757549 62.2690942588 130.152183709 103.399223162 27.818276998 51.5523791108 44.1466239486 435.174330531 73.4645747491 55.226277292 35.2203908769 100.928529819 63.924658955 48.5495389277 66.2052118604 58.7548334508 609.566442849 142.469012699 247.755553553 127.705059561 47.180248154 215.255225432 267.435105512 98.9023635584 74.9387581229 118.474744277 73.441663464 586.954935498 186.197421103 23.0140634329 165.289255091 86.5059782608 110.259159317 120.133658906 0.0 186.124781583 90.5023197866
conv3_param_0 452.390906858 405.671855355 362.732861682 417.934228371 236.346442662 240.000093715 283.884910977 569.502946535 265.192094046 737.544538978 229.484128302 141.145682679 251.816815195 215.719724562 309.099921213 295.188782611 672.673766599 248.01599813 498.675188299 647.861479625 353.693356571 398.090961277 223.138215522 535.982716892 271.684234686 329.778391509 468.308793627 269.00832936 297.428775571 333.012897549 428.819133241 342.255656992 0.0 505.89425021 438.395943569 83.0800530257 361.434713878 584.280479011 165.741771102 285.980326513 300.94532337 708.828452854 242.170339786 270.702433278 232.41432476 418.937653449 306.574215355 297.834945116 430.633265051 140.001496271 398.301449 383.392038904 257.170931794 236.88481587 202.945702402 160.554296229 383.959461557 387.010148474 224.976821555 167.857502984 797.409925173 117.777111566 146.144209406 489.112180858 335.308125788 368.19319967 265.288821422 545.713918147 224.785022423 282.289401871 366.737668898 237.200716265 329.96397957 271.085985347 540.627446916 226.952849721 244.654766149 359.114715375 273.559312389 621.430065595 630.468311347 81.0973095505 481.146427092 258.98917851 299.980181404 53.3864830954 496.587427102 459.044741269 212.288170233 278.29160685 384.630674705 48.847920493 214.844138595 107.479919622 226.995162025 315.89010995 323.47265175 232.913091771 294.675476525 396.983447646 432.889074719 1756.64601087 357.43738817 554.590596859 276.589631964 337.536556436 72.5550246833 271.360318535 195.509258653 203.792851366 227.635636221 176.980732275 319.173436917 304.170802232 303.077252817 58.609307197 425.714677721 363.540890208 574.898443189 638.65033243 464.22242695 239.394968822 220.116938591 366.442491172 230.351920714 227.697814163 208.611856817 266.353869054
conv4/dw_param_0 124.404221475 153.723402458 361.835854519 179.101876777 194.303295887 434.322754422 200.878787313 130.181741398 179.557751108 203.983660678 456.707974746 221.216705024 624.089994988 227.533563903 257.139507748 363.191423479 135.770982247 217.946431799 184.475373776 181.882659704 243.254542557 182.079851349 684.475910902 250.0273627 330.007776928 197.707724895 373.215584379 251.284004908 937.051843346 309.254452858 162.714071376 146.562550867 0.0 197.34091464 265.392610606 1187.31056649 322.137587728 183.70149524 312.897972029 338.754458609 380.420012635 278.549496084 485.757641706 390.986659297 213.662959657 251.102739448 386.700433115 139.411447695 183.660135562 483.971693181 304.78019145 175.626654155 247.287578093 498.610422089 516.429666149 713.421976592 503.875940996 349.502486099 167.925501105 675.036647644 151.738837077 326.868960413 256.467186545 258.453109619 138.937153999 302.694677998 132.668188628 130.556552195 307.551869108 171.586583801 244.244776385 183.083773097 253.093659695 360.724967808 280.9784768 475.680138165 323.010936132 315.280287724 512.451924136 208.911097894 158.846583008 739.048515456 259.058658548 344.232087368 142.47004153 981.122726193 203.15001535 414.250555602 306.579464662 287.823403645 282.496204072 1962.527627 347.420889427 437.515957518 262.15206324 448.16986611 787.225908806 269.397174215 422.743443697 428.623530993 227.842857661 90.5430318409 236.984460753 228.907223184 235.588888845 252.819777668 349.415367227 403.012785645 311.879927103 452.534405265 356.430978906 139.257116277 189.569368416 187.502073015 127.359733286 2092.69562424 143.445352952 356.600722203 242.849422187 193.134402448 228.664191974 237.521299544 228.885953006 267.597584784 535.24178772 415.476381613 205.409842058 290.89200747
conv4_param_0 380.739712826 473.192102044 514.319112357 354.910057132 595.19121532 293.07190157 221.101147425 382.380479003 224.188746005 618.490907062 658.592800969 278.504730952 381.689327465 247.769958725 160.039901469 271.3925665 143.729652268 224.38293111 432.406949581 156.610481647 448.305180721 635.650664967 444.642319754 785.139774688 275.706126132 794.00713382 307.245730232 124.073176808 289.504686111 321.583761209 390.895813564 323.064368869 270.667925046 152.351925808 174.022386397 264.030479586 455.142609354 514.607391635 615.254844229 226.528184265 1027.82271909 594.138820798 129.371099517 160.424044033 271.374402315 882.119378664 224.822853168 97.0685200455 709.802793381 1129.77518605 779.738651657 380.246078986 212.723393532 366.729368416 244.025664821 286.127297055 233.353623476 598.376138942 202.731035995 484.04051916 507.093789697 569.77992915 743.128707153 150.326296186 319.81659601 535.990705531 717.069628944 413.046474034 401.938063393 207.538335303 279.484742241 213.724619162 315.712480103 72.4383360454 190.356913624 691.253932373 519.535287609 308.974507324 1134.22279902 257.330560318 340.978988095 2279.73788443 441.676415117 207.136432959 171.942427261 447.603046809 130.158941749 329.272686475 494.042256519 253.568167348 423.889163276 268.376708972 784.654171356 242.133022415 1036.96752618 243.377326467 693.629241852 391.844147757 1001.81262418 309.813165646 296.631850246 403.936416842 441.38161994 202.640763624 428.764683114 200.57906069 181.80079703 207.854188976 686.346611562 293.53940848 357.048807387 568.094002516 168.832240355 404.634670423 318.762956317 574.47590576 243.747454742 291.525087678 421.141078376 211.127551889 537.164381397 275.665800958 620.067395276 260.274446219 436.41488558 409.970926151 866.659500589 838.451394747 230.023911533 392.13917319 484.790460667 127.274527705 448.804807149 349.669623678 348.675265781 289.579699175 103.687512951 196.052104966 397.451711544 302.077017002 550.31794396 524.351898937 593.093154203 779.356187966 389.128297716 378.429500468 380.455912191 623.12234972 168.683048462 460.242791974 895.342362578 236.986042257 478.912135723 276.187781719 372.576388814 295.155824475 201.953410862 524.758655832 317.635220895 310.816720655 277.236469621 527.690787555 160.45688029 358.428573267 241.624716568 736.219039966 154.906774277 282.152530082 351.291935297 174.211838896 375.372395176 374.545211515 366.210593229 449.326393507 203.957495949 436.673815154 138.097363565 555.329939255 862.949666214 434.347412056 217.871284443 284.517781006 281.986977447 326.029820002 200.287625962 1402.14757333 583.402028827 477.175544956 785.439329538 369.013431446 500.761806187 300.787474675 466.923147908 287.451625924 602.733020374 611.544348456 329.36837764 204.140144704 586.268189303 331.738728243 802.937865677 278.487422227 170.023037426 367.96581712 492.776438202 800.690858052 1107.72242167 347.03701079 221.230256632 379.308755095 218.308787919 349.637348055 470.900314172 318.450142048 462.909040506 275.095380872 614.226279448 832.337193401 385.647210881 333.531783963 364.765075788 493.090044839 266.257993933 181.013819773 326.335817028 279.289737159 549.386436833 802.087231946 550.108728441 545.2429239 1001.90377695 263.738191587 492.132857686 429.916295407 465.937726529 292.681766649 412.581346604 569.348828649 646.310715661 445.970844851 292.733719252 399.773805298 457.094736336 285.803601326 277.161873584 263.793586197 242.040576633 354.69712699 186.043913635 372.300199525 365.961325217 508.691638289 90.889417342 667.851819904 209.34696775 436.836171656
conv5/dw_param_0 150.73549972 99.0492855522 122.309771882 96.8177879917 83.8853336187 176.809799882 183.809653588 98.0307519429 496.667297668 70.2906644633 64.3895483691 131.093563988 67.3746660763 279.062197206 196.639160339 219.525754094 339.586468539 104.717159447 109.887426558 287.293220092 70.3194206228 110.161918039 126.254612958 101.372182895 185.238969634 67.0542533265 200.157426765 131.034550042 125.991703861 111.702465415 121.600769221 178.356165984 184.113191553 199.736344696 379.672250483 79.859878214 67.0570684867 198.403449921 92.6676616367 191.460840998 45.1201409755 54.3573684001 488.917512772 431.204969477 167.57576648 53.9828963891 123.124302065 329.254521615 180.881742307 51.6050343227 188.794552327 188.377082623 331.126827393 291.458731295 82.0075896146 131.748907017 645.867170983 114.61809819 225.243547828 139.826703348 54.7090640991 107.636235783 63.5870620252 200.644999357 110.040621584 75.4406052282 40.7863019388 150.160349232 91.7823623495 181.060642513 153.78845436 159.881564189 164.57798638 158.518039138 609.109668854 41.8941393133 88.3430714273 151.210395 51.8899211262 417.257049306 222.880762238 21.3218941238 81.3881806093 252.758265865 582.073671695 179.299855993 187.970956559 109.679323273 67.912901417 548.498916269 247.1580944 149.407485933 157.742576471 135.813993714 92.7315852827 194.1120847 49.9655101837 93.2135977435 61.4415142105 123.617935808 204.363942241 152.5774084 78.7569557407 495.571958485 67.5440990278 291.292773303 52.8017487296 340.045532162 59.2730655457 80.6007673373 143.769802751 154.933920559 210.471197627 52.2675217709 219.382700315 116.690383946 143.440032055 212.190160131 62.7447465311 294.965865837 106.945618465 134.93732004 71.9728261262 195.156952355 137.887373529 77.771375986 77.2288217803 69.5118140692 295.140288453 73.3169256052 117.448002778 650.727976477 151.274829831 136.490643273 77.0373949312 135.079188612 459.773586306 605.854820341 72.3203627283 154.657496558 79.1142745009 75.7865289825 81.5115272644 71.3257119796 150.390850007 90.1280202334 127.431767632 107.324089262 224.733242225 69.4777737989 51.1124727203 269.158122245 80.8133833568 203.995065914 76.6974679005 150.20039338 195.095589133 108.931075421 171.180209709 165.760235354 292.129945676 58.2452408367 474.058820094 104.827028889 201.340543156 88.2639657513 726.266849684 74.7992860406 316.046913104 142.670909752 287.461553904 150.644188579 140.5892691 112.575111418 732.098878233 96.3388817887 177.989529833 153.115355368 71.1708666826 72.6368955043 267.056351766 102.414972661 292.281582626 112.67943841 242.417651347 51.4400225199 108.706672152 67.3247867839 87.7705704728 142.938517236 155.780541872 129.803074338 155.576232854 413.029299559 226.416275059 105.540705987 72.2757148565 194.026337309 134.872345265 172.131171846 61.7563058948 244.365899757 243.727128931 107.698944071 155.482016658 66.5058912175 70.8705429558 171.936336219 124.876948021 151.033369506 158.79692054 110.666858495 71.8973934464 150.087006246 86.1379289379 189.534344156 118.88870183 37.5441831695 155.954493367 177.233910958 151.785036507 101.804662541 143.245882055 138.323500603 143.416358368 151.943553928 45.7707623603 63.0256513952 150.103828393 51.3406213808 60.0459002135 153.97308041 80.3742747872 206.983768041 121.108267292 98.7863705171 108.741346421 172.387572566 67.0975028606 85.7590923401 113.259612766 106.167694723 469.302213128 138.238648352 125.426643677 242.23539748 201.44095336 112.174171368 156.586588183 60.745830996 96.2169052235 212.932875629 431.016993735 131.667842345 259.584404515 82.6767021272
conv5_param_0 117.769221662 248.940592792 498.781885005 421.174918118 758.645331352 457.183202951 1131.28342408 374.912625405 338.124824765 277.187617932 400.756036479 344.665833434 429.172877774 871.343918083 597.41190013 205.326092062 479.57840623 575.856214486 370.91772082 447.670099627 367.565751021 295.881847585 0.0 886.662927826 194.298370158 255.442132467 507.342462152 417.347687162 374.381376397 339.146428938 425.817537326 183.013699402 594.070654101 492.958566572 309.033100323 376.153462806 348.468267192 217.933234917 256.513855402 698.78604272 139.19455364 260.824937565 484.562793413 257.239299797 257.348214079 465.75419283 516.661490328 884.894198109 463.352626115 244.65662024 446.289611068 282.468116145 343.056362942 217.636260194 341.082014793 362.478067268 592.496169204 733.9776354 411.415094507 337.684013538 372.320431902 303.932752995 312.04013058 798.999531259 770.432933585 287.612302972 405.436187378 213.199010324 223.117232898 853.5534285 397.915582278 757.889686069 395.760788614 763.042057253 301.44519552 499.457033921 387.233638101 367.014514143 292.043958466 347.036049896 679.197563669 524.967881201 665.424878764 372.235516213 388.403957855 482.233042539 511.108592077 444.48356754 1293.80025474 187.954955518 284.231285157 611.386506898 576.226589125 564.547576907 286.867240929 381.027957285 275.920398623 299.710401602 420.788104295 509.245886484 304.288043817 361.355027572 440.999439516 346.599450619 471.956041571 521.322529142 664.674064251 450.836247616 340.039644095 563.314248996 553.692383063 460.531971936 602.147323163 356.278911017 447.934180132 422.359898231 268.646548727 553.006976284 458.227326047 445.887596988 666.234830731 294.652065528 171.952959261 423.657930708 282.45231446 321.905075228 453.682007284 593.548699741 430.096627021 180.810321067 561.130741264 480.659677756 556.223241235 150.571585312 401.984244235 262.810256982 231.031543675 628.568551179 275.981887343 483.242254301 776.595922492 244.364806757 422.042117921 338.14019834 378.272054848 306.362275928 400.859743819 388.974465082 349.281306253 301.111358861 253.868293427 295.226718111 436.941071475 397.353279698 455.803325962 680.25352976 619.484102163 416.172213953 361.572838286 506.401461755 360.80071066 256.365278089 413.370093355 391.887857914 547.392045729 386.799415055 297.022801418 352.879161486 225.355873577 173.190218241 250.33704191 231.321166111 1150.57897365 235.201479534 258.26724282 386.582002192 139.411392965 309.344003373 1107.33807763 439.234108476 363.531524326 291.83689617 379.181682592 615.025794232 475.456064908 267.975567725 394.23950454 383.622280741 284.206698892 225.458672895 205.573560466 287.706518902 300.265700874 859.108014151 439.460136598 906.954806166 191.076153755 458.59559199 772.209680009 432.708503355 583.128403696 521.759795195 160.346344047 546.369726075 497.945704288 284.364375005 443.886446078 466.180249328 313.968295148 292.016661359 257.836421938 441.521145685 301.379234345 272.848747975 408.333808191 457.46511203 170.360404034 350.23583061 245.712264392 670.954607572 119.099962728 577.075185842 347.738240573 338.64115335 158.118127027 746.543757398 553.914881631 419.400761245 245.266197339 322.524049517 226.229028408 257.848450385 232.152031174 462.613503727 348.317079893 296.804135493 479.447776477 142.589801758 490.620326937 219.114590507 321.008523265 190.531883613 434.671851895 304.371371093 470.329131611 279.083123217 171.110127871 550.975716815 315.196429787 191.893903625 1152.42902444 517.922894574 243.580933228 318.886683996 0.0 401.394474141
conv6/dw_param_0 591.711353925 452.804450038 218.75276823 476.561971937 176.402156294 393.542507616 82.2430833725 426.349515503 290.273909601 272.694453807 301.645323535 324.733556365 437.309560338 234.371032633 112.357033897 708.178749201 290.82464884 189.410724542 164.949063276 126.306224358 249.328520197 347.961305487 0.0 150.032167498 675.668127037 574.336500953 277.15424855 165.05092511 352.674293602 209.489215571 217.379717871 690.020409412 146.615104069 140.841324717 141.446954897 321.036406717 459.28385217 506.765015933 552.516723843 133.079331769 1258.77157127 576.725222402 117.539602512 321.366103015 258.391380205 197.463777596 231.187840123 303.895342907 183.133152536 643.567514089 371.328097716 445.184591524 222.813707305 256.761006138 296.227285319 167.666134274 370.801272906 334.776022209 351.885174832 246.053300802 383.739354111 213.764630072 221.574817646 173.688510361 191.357447574 443.763304736 304.384132845 343.102351501 590.030484355 302.113166824 239.288987158 134.84081573 330.700828791 300.650534846 214.796035313 265.978999619 399.846838499 287.654781823 380.643093556 333.213478599 144.745734949 279.638597307 179.411381554 112.191335593 198.598474468 232.631307077 556.71285969 218.324759533 133.104704366 542.659127904 207.590300778 173.290197458 410.716737191 183.692784724 453.855858226 125.155492734 299.646988309 162.043747649 276.626833968 276.47909048 702.919897081 237.017808597 147.657202922 244.24693225 70.4588296085 131.982358385 289.897632308 143.587579601 375.497489407 250.070352334 248.233140626 228.934892626 254.85695059 547.334605015 615.946891761 429.079969294 521.374033599 338.61620892 111.675405488 263.644385667 230.893622048 400.511287478 157.715125906 187.032797485 170.01565716 379.923243861 188.828651034 104.202743194 228.543249751 400.414344438 187.216593313 188.182425915 134.213762882 685.868291603 61.8972374748 223.179514682 166.980030402 110.547797627 334.329965121 345.373598216 92.0435282886 762.890429043 239.241027843 234.157947944 147.097278457 308.999039738 331.710762228 249.348565469 319.687852844 519.017400014 245.864605135 162.551207214 154.186105911 99.6423712484 490.016055239 197.956910243 445.912138811 358.594219981 282.995545626 241.98263118 224.458074704 476.642034233 237.805188952 130.356084002 293.918920723 241.187129269 222.26876946 396.855789631 346.521972374 608.918580355 192.910004454 212.5212969 58.0132616277 205.583160583 544.913282851 454.598274657 466.254769485 226.624969301 157.532742602 323.0241335 305.153855325 227.842199837 274.290376301 282.387160548 246.693656425 420.371311811 293.286009087 215.244091943 302.336489408 362.400817292 429.885719987 627.363203097 290.038767504 37.6473632119 230.35590534 283.806241121 157.692796532 202.067578584 120.348936417 151.479717263 262.404128108 345.219714097 175.465724089 166.366740932 254.365646857 160.372026452 281.923511459 255.85094191 321.054401733 228.612890565 277.203286827 386.210797556 681.019676461 216.619630923 379.886902909 334.943584176 250.792462948 194.255130145 444.905811884 259.740964667 561.608945863 238.622508439 247.775836516 478.047652728 246.760795969 160.645265608 358.055283892 391.216670073 177.408737189 254.023438232 413.503061528 242.794381117 441.263748057 190.827400643 271.375024454 502.325238048 373.428330045 169.000165771 300.71227284 420.875045308 215.268078216 562.001902392 249.688424427 271.776032837 234.448114633 395.307755816 791.99172736 300.431431883 618.515952856 708.464022085 97.8132190446 473.092027301 157.698538767 561.587186563 0.0 410.7069995
conv6_param_0 363.853683685 180.594099311 488.041045074 642.380600388 277.951191647 344.380917408 371.923407784 301.032996547 360.159673969 557.772281979 584.55193915 346.321265113 247.248954008 385.320020992 164.454389804 1214.23124761 305.678298628 362.225477922 292.197229174 694.291761326 342.785956742 522.345463543 289.011255019 370.872850021 421.377529157 606.317550282 214.034246782 293.952941459 342.736304001 356.016829502 508.190436439 305.790758781 286.632050215 458.02101469 214.410947474 709.086992767 547.107069881 119.587535769 560.170732857 575.543482244 425.380068767 326.050349967 381.93786085 558.834205129 270.776517277 792.388538088 318.414806849 795.293213145 250.319778175 675.826449484 464.383955253 510.207729251 364.22662154 366.815168718 371.094533465 463.836539856 434.016648696 399.229243121 401.373453729 1001.17548934 681.648993098 463.573250205 290.268274538 388.04631409 417.96411114 298.207288219 2301.31048933 252.739917093 632.601137013 280.141064346 343.312287641 555.829440154 188.70451267 601.254620207 386.649347374 225.662378244 517.708742271 676.093864023 282.361414231 314.67890347 686.395143609 476.13200439 440.899470279 337.056589411 353.641550425 712.345325463 206.400481403 489.551412163 558.093402373 311.71899876 344.437645772 674.552173281 388.711409604 444.915938141 672.431384876 1092.40911744 472.667771263 326.865375117 604.690525435 780.285118698 495.92930067 248.457414001 570.918552446 157.876872712 294.200304831 151.905964738 292.032670774 208.37756371 415.61232988 458.916259612 574.381477837 714.325107629 335.085753827 461.656072573 411.41783519 618.183117228 496.807770109 520.144728546 357.52138473 442.362635782 482.720852733 161.272936837 278.864897779 130.71731991 380.165649451 867.890631121 229.861868828 740.686906034 371.165254006 917.7098722 365.987663778 280.436107563 682.831732816 171.370260791 299.180402626 790.411602808 1335.0717548 832.730477552 534.941751981 439.468203622 362.89951391 526.026677375 246.265396251 610.950037631 344.101640086 324.67487004 370.466344555 855.565119494 389.346308215 379.251536616 635.207896624 759.833684402 297.10029095 277.626981451 406.740419189 636.041548698 377.448738375 474.849495762 442.895859611 729.886141086 210.445129761 354.322844891 494.160674906 269.320864246 490.431060371 442.194540106 416.554330147 535.862006205 299.928242663 308.205385933 396.854348263 449.839363897 744.175004761 414.642019279 528.256749806 666.438682165 496.966751469 253.260080094 312.92218935 310.249958465 592.113764867 357.595878102 417.205373116 458.372480782 1363.34400074 359.545451009 271.089313653 373.720714987 506.508901914 226.925923133 396.441329205 300.03604618 169.392553158 307.658782071 720.670241934 368.673877129 390.72657227 590.72734752 871.330021332 600.875360547 371.598892758 699.688719421 407.687163853 293.766451344 279.94481161 529.30638194 527.037504343 618.774024667 202.605675129 223.146090866 172.106909675 384.113922506 458.248120166 496.569083651 341.142167491 325.708462991 503.89387493 428.969611741 1278.52064321 1128.23190716 441.136897055 344.345019513 268.730831388 518.473985311 344.244072463 586.393072068 394.507176169 524.077704794 327.179399016 380.817458749 367.693214289 402.589631898 569.307222374 607.477256949 366.328772849 367.905997858 447.203967168 674.746456479 370.6008234 438.386292317 312.037365875 445.720681643 423.413403208 353.551358834 266.157433389 1369.55566836 241.498164996 598.713847285 571.658041293 483.93750736 427.096316473 170.617113036 544.026809331 341.992768689 281.221921464 777.420691799 561.943726017 254.814905102 493.373431989 704.63264954 400.563202909 622.963712188 626.146276139 476.280049231 674.612774639 471.206849828 457.815872714 757.721505204 479.744264454 363.740852112 296.508425458 587.10000819 520.468562458 127.6936254 812.757446686 363.520360329 590.210104551 470.407995962 370.87420567 408.85086084 708.807702352 413.958447883 300.482718735 383.536688647 591.402958768 657.749125202 247.308358596 303.797916181 685.253421754 399.685428427 524.778333299 437.39816559 274.969031976 259.826610679 296.765834886 532.773506181 511.994740458 357.218271407 277.593307295 317.068064815 368.500605879 292.482852632 406.392054904 461.805359826 567.602767172 307.511543483 741.439450918 834.513771766 649.529230518 547.785490451 620.073079468 245.327110308 432.455921271 510.194626678 308.185793512 165.503575129 318.51807428 858.988784137 319.986548801 349.247499385 308.276577091 685.694251507 390.727647038 330.318934549 323.03493215 622.170462863 447.548563557 344.843918744 415.643259892 442.695025768 269.439331789 507.714446454 481.942737043 315.562598118 533.62569465 652.159529915 630.613809844 548.97764128 362.558188014 460.993501498 205.288603863 262.921329109 514.755274432 444.751002602 467.877400988 485.214557577 780.999141094 1072.35812738 592.418701713 692.441856647 287.801438003 397.478996469 829.093652435 504.721114889 271.229245367 213.437991327 453.238272492 312.709164184 344.024830035 439.256881935 631.226955949 319.615273595 317.296002309 495.261346674 492.955658302 496.05567019 853.333452947 572.164159892 343.760604463 595.453232665 816.365432678 1091.62417517 262.12706881 882.358558385 466.824684165 527.912200391 255.514456124 429.195527614 229.576134153 355.215511736 373.968164974 306.211456574 379.184044385 647.803865636 558.554471578 183.883734257 190.558108287 308.766217278 494.299962174 361.182749495 335.844146845 513.943186137 339.238304597 560.349097986 399.19708027 495.616453989 563.926451318 186.30513466 291.529295787 480.050312419 230.740546591 222.183244575 421.11598304 393.875989424 353.7508454 237.675023026 507.234728488 215.389439753 326.048079819 423.650180971 196.255727247 295.008543342 1000.9449132 488.037803289 326.116322787 688.524186775 419.675513632 635.772005692 431.559865763 217.168172274 631.465146753 429.401474152 748.057777257 662.563379607 576.919949925 709.746875755 373.285350009 552.033239519 868.622756649 257.407471342 430.885159654 505.425277426 332.521230723 881.504901021 255.723324688 496.857759476 705.114407669 265.354386519 427.75851301 462.559522745 269.291642272 344.719532508 435.967202401 517.878237367 552.208391368 378.711664736 360.517387843 512.967900361 231.313431413 336.574742248 315.021861183 467.980986065 275.878171159 231.896310327 412.033705559 367.160986174 607.42941548 782.19895444 314.434499885 551.666199848 462.812714659 330.130645318 376.616682282 570.050013196 528.843746839 499.242932841 244.157761625 414.161217603 304.369784101 499.12604177 337.606751671 299.876490722 394.273135142 343.621979871 474.333208333 404.160875915 386.607744923 520.106289125 302.32237596 322.018332939 901.027436281 286.647628902 545.836207235 502.803600532 406.309638016 357.885385649 346.626177233 635.700447468 397.11596163 276.599452177 270.024218972 390.86085656 444.932150401 170.973565979 1132.57350639 290.970184966 235.614653823 235.318475487 425.638522178 537.899749038 538.900334279 224.640386903 371.77697183 297.321779212 400.126389004 659.509522265 304.952821621 598.290238403 338.292345974 689.917297923 505.057117599 663.830412357
conv7/dw_param_0 120.819441738 283.288593716 136.337804477 90.3037621721 510.296655168 123.679731817 107.016575138 233.075616603 279.942531218 96.8933746814 82.3781639255 85.6063084351 167.002043882 113.329094848 276.306492444 75.4995645864 512.086567292 119.285177432 622.102841695 100.143539988 189.954051888 151.600418165 93.0095801281 184.955742699 414.89958222 100.499606672 169.865437195 164.178448883 94.9064782707 117.639606381 134.798401302 88.1224742774 140.571905773 123.845980171 168.14249716 148.344569691 131.575338804 482.941920896 70.747664856 101.561848057 179.55313609 166.063652683 124.848572095 192.076750418 156.733182772 83.2080653041 125.114367234 121.293129434 133.460345792 178.323341498 115.590746953 147.314155979 128.465314229 98.4789006114 81.3544325527 91.4565508223 121.549588682 113.632064464 351.432413378 74.0537841484 65.68687454 70.9914501323 167.921266151 171.867297584 112.721023002 187.5235422 27.8276505212 190.460505241 58.5513717143 155.635211508 161.846795877 103.797840396 70.2655139996 115.296769211 224.13759379 116.945211276 81.3324709606 136.801215727 107.956449506 710.586803292 120.381315692 147.577166064 181.162955361 96.0418729943 171.781513472 71.1175556596 252.276834717 117.62877361 274.277577029 117.007710613 206.806214126 90.0862178354 144.844082991 83.5932141362 69.7780970859 51.0465439963 160.057117089 208.503927626 148.567360351 124.865502439 120.11419535 580.039714647 89.9262491342 180.541857122 118.328955614 351.814958472 120.78707288 93.8405611091 137.559838511 121.069359175 83.3678862253 93.9652764799 108.673494336 147.00191253 130.481262459 131.403224072 169.764797706 121.453531781 109.231224687 158.681378777 88.5891967491 262.396517909 546.719964539 494.282991295 195.393222928 75.756452292 231.532488125 98.7995811545 233.866753099 55.7518051316 140.728079325 140.313808346 52.3830473266 109.471601743 186.99340334 87.6541165099 50.6437811754 89.7536809555 162.641635996 126.759404274 170.261626292 82.4082725635 167.41489398 119.464136646 119.956484983 132.131465792 132.80024123 77.1757572869 104.589732929 134.377965788 175.178399262 117.201656869 587.441179069 243.810014821 104.734197138 137.794704941 90.003732945 170.808133351 364.071687407 73.4384892211 110.726036333 124.054235997 142.09733161 152.278374921 209.606724394 127.116302684 160.369926172 115.724984779 207.628856962 137.296145416 119.028000628 391.334544109 58.7351256989 113.299831383 110.383946191 103.634478548 158.103097422 119.808928867 212.076091163 108.578530675 135.866674429 148.951837327 125.550260021 106.018492053 59.6997674779 210.428170407 344.728623415 270.610310581 109.591860508 227.531158444 138.749961628 236.111488346 118.986563444 132.115276695 123.422636131 137.751151328 213.761799225 175.030696777 59.9099958712 91.3168248395 201.232972717 151.020769741 132.708355413 385.268324013 161.43941301 142.956997696 86.2015067721 90.8785163443 212.613906007 152.371395198 138.47534549 165.040390661 115.089784129 109.174897689 249.104914625 160.494891929 77.4596155496 197.478382082 44.1040261533 68.4029355098 135.350219271 136.774098362 161.540401923 93.0948462653 337.469116292 99.6571076206 166.933496628 82.0802182533 166.99275092 109.455450733 118.53176772 96.4971915946 93.2482073615 82.7919292431 143.344574101 82.0194276172 156.975033994 112.692001161 285.284703018 138.508795935 124.563146491 107.848921463 158.130037759 306.92293466 119.258230931 42.347818455 185.967060006 135.578448825 168.334237297 89.2596441137 164.718626847 553.952432173 240.285932517 147.810338826 112.98064122 73.8721207312 96.6226932178 162.045337421 141.847950401 116.360334434 140.027865639 96.7213364436 203.764981754 126.4749589 115.149991883 167.143030999 119.589374869 115.940256042 167.574606692 147.264204815 123.399019228 66.5079629834 81.1884932243 183.857918219 155.237535736 95.8735414392 114.746476162 112.80771243 153.191666663 75.4416309364 74.9929812244 102.558621314 77.3032964839 88.0271182363 94.4876291956 111.069419663 135.938837852 174.903585131 70.2288983843 171.515616632 98.9333612669 99.7823046753 249.212280338 637.872222518 103.692548895 153.852672593 126.661113972 171.641762723 110.066178569 170.61091061 121.682408673 143.764496558 108.274733539 201.808440638 97.2453649194 260.021250239 93.776395883 77.5055260578 73.5168775361 166.33102608 87.89565847 115.713860748 150.75737412 78.2783312919 126.894247331 113.871833302 206.974418672 64.5445995566 156.980608419 99.818345495 167.152655407 62.4782917988 103.115615936 134.502712771 117.999661293 83.9638159487 206.001456034 228.653713919 74.3787846249 208.750980045 164.543276751 179.734889687 147.380419484 130.177860043 65.564575604 121.547217303 29.0631968694 149.924772709 116.298702329 129.161246239 182.919618372 146.963474372 73.7769374689 255.006622528 112.648770368 147.238733199 68.6941253627 85.0724589815 146.238846774 166.943306202 132.560846844 213.273060662 88.2621376332 91.1086890411 399.567191295 161.056241544 194.490570061 133.99749099 262.401381276 176.03793095 89.0926472926 243.282733829 92.1626008608 87.5006778849 66.4079143459 108.068982566 186.782893484 116.706490662 138.114156739 95.7518015818 50.6472674138 93.8082610193 330.553021432 97.9796593609 125.923423755 137.713196894 555.622026656 110.446313933 202.666340986 156.835871208 134.908288474 284.652470335 134.510346256 136.265443541 129.107604292 253.950079479 137.878129613 74.5414103275 162.838449873 86.2724087927 178.622192359 116.583310717 141.481189573 185.147992992 142.428090609 101.213514982 150.003934151 151.99353193 202.078233925 193.129483288 162.76541882 123.053266016 144.778397854 148.042696366 244.084089676 143.099958179 103.421366313 310.638997374 127.842720868 151.524390503 191.857600616 196.257064938 67.325344138 71.7856287539 136.642957589 153.167494659 66.6776413179 62.6094474012 113.200727602 141.994235746 103.075758979 138.830757041 136.471585244 67.4697282321 140.560341877 92.7538522095 138.570220818 120.686747947 76.0665685245 545.573103714 96.4291511952 96.6939294893 131.336531294 65.9672299247 180.891401474 149.01292311 94.4957168162 238.583284261 90.4973227195 98.277387238 683.534895479 137.243225734 151.610547286 152.985057956 116.860752007 141.752477118 104.565495876 200.119358576 254.155593878 129.187167491 131.508219625 110.76350807 113.632634115 136.612670747 90.5316829342 176.483189586 81.9966638038 106.84574053 215.10534618 84.6150553584 86.3377036793 171.097143328 120.761004113 107.186673578 210.375917041 81.3699730697 217.544044904 144.408952013 301.415132063 126.7590423 131.778509858 326.8617899 76.5879921376 483.709981474 107.571221708 95.104128686 60.8055135797 152.862110141 136.039335406 84.5756982565 120.757883187 170.154456369 54.1907900707 95.5876661911 190.067479416 86.3492921462 198.919063609 253.104182342 135.280027733 119.730577064 544.49132099 135.07042868 126.402914585 113.836656778 51.9629642998 221.636218122 314.852719873 239.821563481 88.5515030977 89.4364196997 141.5851315 119.340644342 104.505059997 387.634278614 98.0880476021 122.654997006 187.750465255 87.185223788 166.434654423 113.725939833 144.127040835 110.679608875
conv7_param_0 396.036934835 577.528597872 714.287451474 598.394288325 378.895044593 1860.10711669 365.308944959 314.070619318 642.821694827 701.970881656 597.116653534 1032.8577051 527.806373651 788.777248841 642.900830274 602.732380997 1190.42075495 355.858547197 461.998115109 453.303649023 581.786358056 356.705315123 655.293184765 426.96909408 311.381279797 548.240293301 775.040910593 625.633003208 709.494764799 654.073158539 524.547079017 1649.34666849 460.08437957 777.849316107 492.750227359 632.880733144 530.644868295 842.131020204 658.536213819 387.657763652 518.525843289 533.635651322 1043.3985455 1149.1820224 446.421313845 1659.97522315 339.979554058 606.546460929 338.490358844 508.180618824 576.965762004 496.106490158 409.491603497 411.156522476 149.993121048 709.438068944 594.587844319 500.809239664 690.862820274 558.451409246 400.183766565 833.519140086 730.707276863 736.976421115 570.536138075 1058.58587499 653.448113564 627.697355162 1425.43872742 322.763691095 343.094091987 1037.16665636 499.094357876 661.409613381 390.745023275 578.659102596 529.696403609 396.641030433 633.589331157 426.09002777 381.081589524 786.832071388 798.719560483 710.281112895 542.028220895 688.816665712 481.82301905 442.012496508 696.821204597 374.267411475 887.449165918 587.156228981 781.127125242 624.143559323 663.429993705 571.46205942 719.812219001 604.787758159 806.526165794 707.367338565 944.762543939 959.760054855 462.83337408 487.696483272 1074.30899147 531.186761929 928.913577009 433.792209741 414.194790321 817.757662065 395.733114322 642.422193604 953.133323857 508.418954614 1092.76165904 401.633641744 663.9010486 621.643507037 427.016713364 1467.40681772 818.26029178 737.384563646 448.273348508 543.887974782 934.159709612 368.169723536 480.19560965 780.398505648 434.380263738 361.822951141 1024.32718374 456.938385239 820.108407789 444.327245079 570.550957307 828.31068185 519.03491076 639.376233308 491.204630824 397.581125748 808.32228847 310.127988286 553.45877755 829.276857156 856.470284255 399.496469847 619.51967584 1156.49287795 574.632347318 776.280518158 690.408442743 716.324474138 1083.76937023 531.526517498 919.968421436 837.795002716 626.570232916 1150.12132699 490.863278621 607.829264022 564.80830539 598.92631868 406.986623748 567.083136833 2027.82353744 623.806147855 695.693795742 488.084869289 775.575164307 452.493320928 413.43594503 482.30797989 630.15449844 413.942524389 576.432402805 361.908960307 683.529797271 482.081874256 569.128924327 574.763717108 338.645593683 981.710838952 477.942083204 643.651256682 1122.74661977 939.646072419 620.625845696 755.145690633 548.589968663 441.56410499 386.55836679 521.750915562 650.60423751 541.341695348 317.573131549 558.927621885 401.034444778 398.173834954 693.317321386 899.324245573 937.211971926 905.145707012 440.081029027 1163.17650551 467.848686857 475.789651009 565.270980651 1101.37954751 1292.7451485 688.605906732 452.178012908 688.132378611 844.127039409 700.986198111 476.108598106 461.269844967 1166.17550212 1122.88670233 361.268423901 1226.13464235 641.291075428 419.691963929 473.678368535 837.555252507 521.142965041 521.829085877 416.333875821 500.181797353 696.925934303 486.935082793 556.475827052 726.0529647 751.702454156 964.222651629 477.811968204 458.446695539 630.44998302 632.860478551 326.803760433 0.0 1143.54549799 862.937433884 542.320144815 894.283397415 983.782292365 643.212469958 693.266113805 947.463632349 325.975327106 580.652276533 669.651578259 737.563559409 291.530572204 654.893334113 878.796387076 492.605377282 646.657953437 553.405590374 596.78170521 445.315549746 420.164695702 849.824455562 467.055180056 549.886509182 338.759305856 627.057547741 296.733970032 1352.16187754 785.706227073 933.649879723 572.112847153 606.481502648 398.526955151 534.923319374 676.023022533 291.757153674 396.134052682 869.742390364 674.333351558 358.614710244 649.142660071 468.996446384 853.277067222 511.359285813 419.124018692 444.074525597 825.54050888 478.84632073 518.081034807 1047.25321148 1343.94080547 457.314985558 320.761363269 769.552521566 1766.64743304 410.502100525 594.362729633 719.6304933 485.795684851 621.194629731 450.110622268 390.66202538 556.811134203 441.29267317 395.360971902 660.718635011 758.648640315 575.85465815 522.149998756 470.639861753 557.874034795 463.828866016 536.534897515 688.978036082 523.733884653 357.346928364 569.282276737 748.841238545 510.156452854 622.16801026 522.650697664 442.1324202 838.881028922 848.747285731 303.215139792 266.090307833 939.255675957 741.757126362 779.641146245 535.106929899 1027.46016407 849.442715912 684.58394574 690.718310512 1024.57845158 683.187459554 425.780522563 416.330703178 845.848205501 493.638903086 519.341476898 547.923821152 559.036910375 530.375342537 573.019393772 613.933730107 458.746264261 612.369845611 563.392521805 382.274554903 464.680948433 632.178173007 415.656517021 485.811468691 792.530968481 635.768685868 424.09198909 397.549932556 365.315584082 378.058753386 322.641993696 576.999119962 499.163459668 369.277275755 743.743411218 825.869770959 447.303905106 1039.58679733 754.015769275 350.811498291 480.358429677 462.401920176 828.390788394 678.448416368 455.104014887 607.593320058 587.605248884 540.256953312 575.975454821 694.929595091 704.96679053 656.590450747 375.878444873 723.157211976 1036.37847059 804.677908218 509.418897216 572.749299085 401.791325788 406.951722115 688.194055474 714.080204166 517.500108718 733.532342268 508.158560876 506.563813308 876.868383922 678.955921452 481.266950452 713.719020921 461.915135517 835.498248486 658.714913748 584.871128975 424.784101197 513.819837444 429.697809227 656.693504712 623.698185669 489.664592602 512.321960451 617.877425344 261.07603904 822.396994962 422.002998397 1060.33267333 494.16554577 387.875258805 758.346158333 599.03753708 702.650830057 672.554491048 619.119190182 941.391802511 486.169455567 1497.87594072 645.731917053 812.918614719 489.615590074 546.061916602 1789.85645952 632.482270802 687.354145194 496.939861176 405.653859902 294.067611608 513.408545719 1223.9647414 752.564668684 1391.52662114 622.449777252 914.605924059 350.469606307 685.337838981 490.652412835 382.56907854 793.131684235 566.94673073 781.402920414 1292.96627106 488.413801941 606.0186087 491.461480984 663.64474074 658.605269769 778.097084911 689.399748728 687.513888137 464.535923756 439.752052167 505.534102867 424.037213745 556.10561564 519.436021489 561.804262944 888.400957946 637.860144489 441.946715164 708.808881325 420.409839064 512.706497652 402.548103097 423.396155089 765.040217092 613.211957237 558.857693811 630.379897489 513.9954746 145.55121178 614.401934061 1020.41301508 372.213244861 1075.27409806 494.048957931 902.867723307 787.635062167 465.689094511 550.95975998 455.071501455 457.347967623 733.576285317 1713.52069013 693.426416499 890.821283152 691.223938913 387.590666055 487.339867469 611.170845859 374.236318272 554.426806261 1239.82386489 993.657243849 569.040880978 410.245977794 482.497036797 1270.19057913 629.539108415 288.404394611 287.127849801 682.471840394 641.729804618 1063.84342271
conv8/dw_param_0 458.376227928 306.768449118 300.723265286 243.316238555 159.602485767 48.6743144223 143.381402801 246.714822865 447.048164379 133.403550376 117.384385627 325.979291879 180.693295703 110.724528784 233.70058578 117.868012786 76.2165360088 335.902757336 696.37045149 142.788577511 105.401736464 353.967815224 127.564494323 191.364768961 286.106338666 227.190268477 198.790154846 101.204419295 213.6296479 216.029053067 272.330981285 59.1036628571 172.305128033 170.431208934 159.049402355 122.689801938 185.810918013 72.105227087 80.3132713973 131.781044603 160.844122383 103.457452056 265.313018422 51.7888760543 97.7818870695 31.7395230842 129.476994128 106.333097316 310.571441565 311.529834225 220.304472745 113.292132349 242.941185082 268.20523032 410.676403987 145.039679842 116.820143686 391.865623252 81.3483385128 169.993615146 118.572215643 178.042923532 220.471382473 155.005379886 115.615296052 270.236704926 166.404381498 82.1427077489 31.1413182236 154.949919918 367.956031226 297.123284664 190.081841195 217.524789553 254.630246139 131.615464347 237.646340439 265.109620326 165.106828763 221.863423467 411.972242664 100.878212663 112.00998903 118.375381106 228.746602092 135.516811361 328.939271235 111.358957332 101.983453334 298.180767224 353.818017664 633.037879509 101.105693115 459.917786625 235.530189712 109.556022154 185.296028536 167.040496321 143.490678656 139.38740718 74.0832450192 82.1547178381 215.897322069 695.361180169 138.323491623 289.06318712 71.6763713451 106.869062997 340.935148992 296.662247493 1166.87706316 198.811096251 67.8937283298 178.176041445 312.051829709 172.460212496 146.798260308 219.506576009 229.356811684 36.3924493044 107.771253108 126.722749874 195.610436112 125.595847964 198.46633888 139.881992659 307.404111905 86.3857713289 291.860321691 281.4425332 196.66988883 192.085217894 159.817513807 151.933336927 204.104808801 268.155898197 202.659305122 351.924231554 265.76619244 102.984538301 141.395591712 142.572894798 223.088359036 187.125110416 516.526690788 182.220557106 208.113077524 144.466798773 202.367045433 81.339351315 182.020883773 77.5286343125 223.870091647 185.504684225 121.936289554 141.849574662 92.8012878116 60.8758795219 222.05491859 135.130597966 373.719469547 108.632648695 190.4440265 116.297800943 60.3115286694 116.727141885 134.553582217 350.707013461 85.3498227395 274.541943284 153.641043198 216.334415628 115.727121843 436.827394963 183.842498697 409.791664447 102.723657562 78.6582890753 200.562294892 176.728319867 148.835720912 94.7269953739 95.0445580854 198.988691103 118.923724952 214.07865395 157.820169249 277.01710566 287.986189896 312.512516633 122.490379472 383.306170254 216.891733312 247.622500191 204.464016668 157.142334815 452.422702136 328.069476551 295.371658061 242.226089582 375.972925514 108.405577994 103.417932801 96.6123361796 200.407570223 512.936873591 168.992351309 43.0217337543 31.6041409591 288.250026076 149.204745519 209.397332376 81.1540697765 298.708944222 157.43688704 173.267030548 123.917415779 63.7759585207 328.727444624 108.879708598 132.729791503 351.689701912 263.295675628 71.5166742736 302.287183875 189.76104199 198.900308931 275.219019725 120.578414271 99.8628270314 304.336156817 298.904007731 158.422100125 138.42377922 131.968674211 326.190162152 142.855016776 208.027515356 295.508502345 0.0 72.4938239749 248.320596107 259.669203614 175.23477433 237.183157342 142.602131483 87.3794412588 236.592241659 257.421932266 102.273532369 335.161681479 134.527034252 128.547096529 140.156201434 266.19908188 106.834200961 226.709075794 176.432830898 301.426772946 252.054054176 97.3665741976 104.188771666 258.168622484 102.987256145 377.673267436 112.588555199 278.242600646 57.1313818862 109.856322161 213.010595513 514.347668113 204.920188603 236.639460152 307.036666612 181.676150513 343.949914251 283.984421488 557.028938386 80.6508077737 366.923502355 334.227018158 418.758737364 251.721408199 79.4434461089 280.081114043 577.70738194 147.276837039 150.949375117 178.823164005 106.267463831 74.1093163898 319.592310219 280.590365509 174.574231882 35.5277969031 244.924775778 141.49078201 134.75275799 172.723937689 273.034596943 159.664066679 118.506465527 148.694669082 99.9445201936 661.562504575 121.337239287 181.787069942 166.788789059 133.505368583 219.321819496 127.862414289 110.600394873 131.033695859 114.288664607 134.643311122 281.980931837 234.188497266 96.2296895991 316.356172293 97.8254520425 185.915686483 517.122971117 443.900410107 66.1064774286 502.064481407 755.942534775 329.797099166 185.870421482 362.638560207 141.063833526 130.363644885 106.74351415 291.928700942 252.207884387 54.6478972767 100.513895944 148.448667133 426.312067014 74.5260015107 314.739331492 343.772196227 204.401701325 200.563861847 381.483186108 376.912249779 187.661435027 145.397658495 290.030950471 349.266505997 643.846043692 364.187867865 147.127719692 347.751435917 128.480551388 121.868806027 97.3488512304 178.504646452 496.861293288 188.196221637 154.07027773 111.249496776 329.77586499 179.032290162 757.579930006 169.522769583 320.281807456 81.7029200759 61.1028975769 112.889594659 123.090245727 335.004962011 107.711411734 129.739859914 305.293988684 548.07832838 307.894497141 348.614680418 174.996454581 184.161249641 471.817358717 269.521402296 166.159652531 401.927713971 275.853223017 89.4855051306 123.789541102 351.384077865 220.261498309 399.186235826 179.163216213 172.235277837 91.1477806201 129.277989553 173.066566056 117.903781022 201.154359519 77.5762648439 111.540722685 401.937267265 374.31093749 173.608013892 177.511133631 294.762531226 152.172403735 208.758711145 267.21622621 153.088512584 191.877314158 77.217391506 230.433309133 90.6683433756 266.23834814 263.569881279 241.939052935 180.275577213 226.106424737 452.099386452 235.892695331 183.700497448 239.372619369 274.309515648 184.560702505 202.323636508 56.0199017679 101.617521332 40.5921368808 299.086814785 260.879977452 336.26466776 129.201667568 51.2979182069 266.891904533 272.626345462 202.085267832 327.526824392 150.487976077 100.668749551 95.3724699314 229.649920678 25.3071462785 241.864764325 152.731433048 98.3081213696 393.554174304 508.799262796 227.39755316 178.567073913 143.372150439 222.780392959 105.207851019 102.717071268 500.685495991 188.791089605 164.740149969 552.668134253 132.362288037 183.705961679 114.143780766 148.184584844 189.117628467 168.694467112 581.066678884 75.6802923459 184.540050189 175.087293329 158.991735022 373.66002582 257.400365871 150.047603686 356.976455575 369.378808032 506.007723915 578.257384958 169.385267922 93.2342282485 224.146600923 103.926384814 157.676914192 649.641072485 544.431357383 208.1336709 127.966820857 112.086978433 135.948994557 248.88348312 546.471355191 240.899524952 117.229216952 104.460116917 525.763572803 88.2480197994 62.6814417953 124.439764724 158.591816696 124.001677018 828.369210433 336.904059478 110.064381916 226.700271588 299.434605033 45.3002909313 43.162527544 279.131383799 152.001403942 128.055226512 36.0296277057 253.408966728 339.865373714 693.000102777 128.456523714 347.967897294 87.6262512931
conv8_param_0 97.430366192 718.38852861 439.239496019 517.463598639 657.878034653 403.835015121 413.144143476 665.536077744 357.946139575 907.685615067 380.2643678 528.356828614 459.805882097 418.73408972 1410.93514946 619.974748624 501.136987888 372.938610153 646.901256698 421.413740633 455.797134414 448.964060121 610.150637768 478.223294165 343.567680387 559.786104397 611.224713978 380.161952749 630.099571371 303.327931995 1129.99889928 434.844436898 743.16233751 533.45011066 548.296266427 281.455080462 603.350481448 398.147458933 296.582715698 757.621481084 769.95379984 368.763429896 1191.12042001 555.493141608 485.952405682 561.298110778 739.027495888 795.109211318 597.32204797 901.302905622 182.724600375 530.399866573 558.172278029 505.34334451 1121.4172077 455.940167957 775.710766736 427.734812444 409.435892548 458.094573981 1010.6991539 336.11863294 384.901444519 507.144723844 1188.58852582 288.534037285 374.830809356 1084.04699668 341.755415208 359.538291927 504.630087747 442.715721867 1193.61748602 560.022396623 249.248429641 455.24724592 597.187111173 1315.80025086 724.183369732 409.230019535 912.626925304 1091.30562323 804.564951894 492.653385389 441.892775323 506.694697331 302.109568587 789.359491369 323.35473753 497.980152137 537.802979614 662.955842255 599.024779807 623.537430094 611.133332258 490.112821298 524.81746644 442.723586892 552.974863687 497.339516349 598.909483764 355.067259938 458.315788025 470.326328493 501.479977401 295.535718353 473.466960519 625.234484452 408.729178172 594.327375294 268.115001572 539.477463205 732.943344806 404.359607013 482.908099287 288.666240811 368.2924178 471.985366659 273.845363883 258.046558449 439.736941228 740.019215713 384.397799556 661.805540582 518.997709738 318.179629158 510.187602266 270.446676364 573.350408488 594.497139373 259.909554871 642.667989179 526.574302957 501.200702672 362.703717136 440.600563203 282.456994869 488.031152176 578.364473431 526.736469153 514.980618677 687.102455416 594.045727052 899.207158861 492.441149855 430.534199047 452.296027886 960.907495852 804.196677901 524.898465698 1269.11502739 395.278494908 726.443521974 820.223639708 513.24468313 370.044983246 1131.61665599 556.070856476 310.492015059 415.467146031 331.930847611 360.26103536 507.733683085 463.394799128 549.912657915 325.252635142 1400.69121046 612.526302445 873.8402108 635.306809819 217.373552675 309.366752837 639.949022885 377.352111209 804.205708005 400.639123805 1119.31041399 583.515905361 208.210306726 136.031805311 706.489142035 564.657203932 430.869170723 506.711868454 287.4888012 340.588924699 405.060634772 984.348245808 588.701123045 1624.85542542 399.658102126 846.205631677 569.201598659 656.983463689 680.923317343 414.337676117 497.871529578 812.119913391 426.791631488 545.58183482 389.210751771 393.746210664 472.608588133 777.256774483 584.539190029 717.586130662 382.228951527 506.32679212 398.305841957 461.360734416 573.09468366 888.498389088 268.49773056 388.82529512 412.580268084 881.231011529 334.355987229 554.620551419 472.963804405 605.248257204 601.557116027 331.995962834 513.239985217 362.130516835 804.027040691 286.364738765 368.944550608 833.496968084 230.117817115 489.991038667 870.811526294 692.995425876 569.346356443 508.111633508 425.583984173 472.226639734 730.94654307 542.022774453 458.671113225 661.84572987 314.352018758 528.303738896 496.085641161 330.827218798 228.717554156 192.055437847 553.40850103 376.171990958 1174.16070735 512.599526243 867.010038824 512.475773886 272.293394576 599.266923854 570.632935319 1110.06648592 576.662124229 689.171133918 717.871294829 360.914323463 415.37687769 493.412277516 407.392084205 517.888716485 387.730317246 528.666572919 424.723220511 789.982059635 524.460249832 252.203645277 1030.06231539 372.895728994 823.735125903 458.774909112 425.801794629 590.988644992 395.027571755 295.184734007 1313.98353872 569.660841209 375.848044743 523.965936292 370.849353674 566.515009831 526.928411821 180.165366735 331.556659341 632.303304655 387.672716571 586.486082971 777.248622961 543.167342044 540.274933361 613.543390851 652.841414048 593.801577456 347.015646275 405.188233013 464.498150144 453.498926596 448.601130016 340.972440158 393.03978974 361.165699075 352.999447814 284.370940733 613.603818518 978.871284006 535.40900091 466.47270288 367.483528787 417.85853628 707.262499417 595.380396893 377.253195674 852.359285136 312.958729215 442.756751854 779.452837978 317.567664683 505.593062051 354.505596129 435.231176569 445.570476126 627.005603954 859.885248222 632.674723122 358.544316824 335.829193063 389.366336753 291.221248549 542.78793301 573.582195881 426.670870284 423.698958494 511.29765523 430.574307238 601.467371016 409.169704481 321.069955503 674.995268125 359.880274256 324.249583618 91.199442267 476.11466224 1283.07809669 352.709205075 478.441818927 330.856320405 1063.25720378 858.334085604 320.517862157 541.930373971 441.342124246 521.195453943 660.12776425 732.671402063 361.881269436 640.147873803 717.856601948 473.239501287 354.134131117 726.207256103 521.477073048 353.599294895 118.969675136 470.919932581 594.679448315 189.153590352 389.423730102 511.249042281 388.488725984 414.28345812 518.264829196 535.875078885 397.880584459 390.834400954 245.649630691 477.395038328 852.9907257 563.62005346 311.475322011 320.83434325 513.933206975 637.84630067 356.234980625 448.896855583 376.16050196 171.788424573 347.145597869 341.46390601 583.247801211 405.980227125 490.733945711 455.049585455 463.265281354 333.730769189 257.15063331 492.120468103 442.847394359 511.574234763 482.818806741 413.361953588 471.434914377 659.953151738 590.476099051 946.506121376 338.863097146 580.848240327 203.067962135 416.917242559 695.279267079 330.022830163 354.278659186 386.445700027 464.506149941 409.631892247 272.032036537 514.73382336 105.509609927 387.999182012 400.560002512 390.86730969 423.418872418 752.538288409 505.541419536 414.822360507 384.77699038 695.228960227 503.0508731 341.530571037 313.561579338 336.828085879 383.282968181 369.856842036 340.956207814 446.402748259 453.417234953 688.67306624 408.20531629 286.341398227 609.759639611 458.066900311 477.313332844 631.453076217 515.41382069 1354.50315203 405.489850509 702.979904575 632.295705294 414.945153285 341.254365386 581.33468442 543.689341436 694.370613289 530.648370432 343.194669651 404.181499272 254.961385199 618.134247172 469.484416357 408.925953573 476.156317444 330.323850653 816.686554312 423.714840992 665.463118707 483.623301099 657.066580485 572.988073765 385.62519017 579.074952366 1036.79174189 638.357679353 561.382147287 422.516978014 708.071492839 504.729125414 326.872445497 528.713372559 428.147887102 315.085006963 309.288120822 407.777437289 1219.54815954 630.790140052 408.38123568 936.333587224 460.272618301 425.855196879 413.886158632 458.472392759 800.007446238 593.071734478 719.592275729 378.391697535 374.93782706 405.264221603 464.076121584 187.157244198 432.983904232 1173.51765882 332.309612994 420.079000323 461.790246604 219.977928146 522.665986363 433.817469616 1102.88151681 201.877829746 616.519169089 353.22249394
conv9/dw_param_0 222.692449038 156.284750881 158.938033674 402.318404402 130.718450657 809.986380014 336.720694843 247.950366787 142.869720267 108.358540735 337.292023852 357.859779584 138.569508882 307.469675503 59.8915796746 198.496605576 147.391552463 168.040058194 222.369583247 276.167717171 380.707228859 136.270114731 230.954513577 169.603989928 213.125416432 131.333187908 90.8428234173 279.13780152 173.633790678 275.404517437 148.669208556 306.076921077 188.24282624 189.404629452 353.718281761 323.126027035 418.900260281 296.197059488 247.263702049 147.625570526 130.507772254 454.195923973 89.1462790337 108.351851221 192.8388929 225.391583982 140.703796323 90.494524603 253.825590765 122.566985212 524.457700265 285.947588825 631.507163303 244.567262566 150.892654226 175.792564245 451.183552718 128.629852733 182.148230615 103.160737859 71.3427542405 261.171803385 394.606285624 340.355445215 71.302072643 349.357130712 1028.00601449 68.6174184857 466.231099995 173.490559095 202.829633047 333.454244549 30.6724398876 69.2996857114 275.096695028 294.618779011 228.114180293 62.8349253904 108.199011237 256.510582008 207.361261896 140.085764024 108.6174973 240.770575612 229.175763739 314.465545892 213.633481972 163.944621095 344.475595731 290.478620534 114.748577239 214.143007137 197.26662735 105.484391159 362.941703208 88.915163664 103.66166476 231.229237046 206.11478451 133.947495783 353.492204763 83.3993756906 174.99593717 177.310486893 168.592795388 254.26863286 177.534384383 210.597033622 286.494268014 154.651502199 166.223182443 199.28174165 636.871776102 352.152177145 260.721914004 379.359506633 421.761921488 182.183257318 497.47531677 45.9152990599 74.1935512986 408.616657767 183.211162717 195.347864474 370.693314101 286.277149625 297.008496575 471.7570827 215.2694484 149.698515954 185.619342894 323.281783748 384.629702649 488.819423786 400.628803501 297.148084578 264.519386039 169.347505166 131.871438145 388.002679427 245.639747059 143.000853962 203.380672738 102.90983885 190.516142052 302.253071887 556.118134357 133.540335709 412.450048292 99.4074403214 99.5086013244 339.792231241 111.889749623 354.777093527 304.539511978 285.663090716 100.204868982 162.58756268 264.599340596 134.279483875 97.6188276448 234.696855345 154.418128852 99.1104890462 136.760587601 103.49094905 66.9510114389 332.607085164 147.13170226 221.072288355 348.438948021 377.275740244 310.154374664 260.006289578 328.955877712 318.84526377 52.3128467216 404.792566901 383.988904418 197.639284119 224.633945084 181.880594773 239.735405461 207.828765299 111.454114908 160.410927785 127.974898809 121.407331164 527.02052491 60.7655804623 749.948500196 246.873043427 229.229932194 68.1566125277 195.25647709 146.504696188 520.287140397 106.339624789 125.276262046 218.964353426 266.851860405 229.990715126 102.946115575 398.502693724 222.231399271 335.985598723 208.891579157 273.99548456 520.231944567 218.628171315 149.83203856 41.5923347434 213.808217408 445.872294709 163.303106881 118.688144958 256.598143195 336.462916749 90.5544297757 161.718906718 219.881562553 126.955444714 215.274124557 245.329596042 111.453998308 311.29936917 443.415051843 129.361022228 373.836675606 178.829887859 193.09960609 251.787295858 429.78756109 244.83305589 474.40238316 528.049475462 132.303909241 318.461993588 365.493301597 174.670403101 333.212280072 75.3911425883 144.515350208 188.267293333 457.930894918 300.332339629 163.75706877 425.441350291 78.0331284001 295.309207779 64.0793035151 248.897845306 251.511660193 218.923047348 113.178551733 95.5368688609 302.459040076 222.336679974 134.621984038 526.332037145 225.314718145 526.691060363 529.043927869 208.446487173 298.877174014 204.299004166 96.8562446201 65.8560313057 367.522701793 280.298500756 258.128260416 240.151521661 120.611818372 448.350366647 264.407730952 103.267804349 124.663078496 280.829769526 52.0354661648 623.284122011 459.483871371 230.679293307 450.680001244 141.768039258 289.290837972 161.780006885 492.960847593 142.342227842 374.947822896 206.071885572 242.617306657 453.369864389 223.688181695 193.164605628 310.927277136 190.880977689 310.465820012 539.197084645 498.065186571 293.96224886 190.444230765 423.042920054 244.91928585 441.335313782 410.588719472 368.203984426 186.691457615 176.795041091 88.2577650817 328.690223011 363.793672055 156.69043272 198.473641239 280.491908155 265.341366734 160.256484212 193.789957132 484.843908016 139.516133293 127.643191062 136.13124886 113.70117924 236.512693413 231.038633225 177.37172738 121.745344956 333.332305821 290.959675435 227.396679487 182.010497242 485.130540409 144.666956176 104.941284477 229.404545032 221.165247007 170.989660321 583.281330694 106.109335063 134.882351761 177.203428789 142.2212881 495.05893593 291.586366548 245.809833725 190.811746918 79.8766795064 228.678892316 162.697596348 307.800848093 35.1142848441 120.647276716 281.869861896 393.923540572 119.113585169 351.241119699 196.973623807 134.824527549 126.614343275 149.989140445 327.263220545 769.699997625 246.456275744 148.937646014 76.9128408717 195.268162029 761.170399824 237.224510773 298.35659071 547.53049434 272.602801568 165.52673124 117.949742833 409.155718643 193.961356955 157.983115647 156.711510917 163.839395278 218.114921556 236.154850703 47.8024111349 424.275534736 117.026964509 215.391486467 463.946222727 165.080349424 228.657811779 228.912830318 78.6215210442 253.404054262 478.327753084 175.869699493 187.400569421 155.039780496 301.108465281 297.98077025 155.520079927 216.909573912 548.302580433 216.681907202 421.705033786 118.161923105 189.154211662 247.778199236 234.406923999 206.511467279 218.321940843 93.6729979463 283.497730608 234.630176629 311.797685516 129.675830998 101.434118627 336.335264015 614.877284852 172.121785954 322.54992636 406.502538988 337.780185456 143.128315387 1051.94005979 138.427511357 95.2260221046 419.393826877 158.367570415 79.3350528066 198.640243905 369.893568815 225.822405369 138.081988323 331.201228738 116.439502683 200.79220016 334.286140667 183.805372377 568.847296652 93.2112652519 152.120798414 103.311666992 209.281887619 264.56323352 186.74036393 95.2941816921 179.563758552 322.685237078 82.5555574326 262.980211067 55.8695211613 117.417414977 443.025889085 123.720005639 127.567350712 423.305141949 111.232724029 317.595924017 414.046089232 558.647062471 364.282852377 90.2431560978 119.092067666 196.6713774 87.9492087939 103.822592979 592.725395551 253.82843313 161.358404811 299.882293986 340.28040701 127.689194639 168.146040002 190.773324155 363.085127417 89.7286440829 179.662098663 187.635010102 128.483340482 456.100815807 301.341960076 103.931616354 122.810203447 324.603050227 147.792970883 165.43852584 358.589180761 363.332195156 30.5917900825 64.4776557621 318.328393583 199.961337859 265.866291632 373.925440472 153.222457093 170.923285542 190.878292992 129.690851469 134.243764948 446.538354672 271.928091847 102.560457732 348.582314102 348.670701178 194.71295046 118.468894767 518.382691272 179.648934984 139.947325791 251.897612152 232.505092901 158.447982786 239.348822193 170.371165421 64.5973593594 192.554256722
conv9_param_0 221.635088451 1048.27208106 434.104941553 484.079998482 245.608826906 334.59071013 687.842478834 248.381617088 472.457054644 438.397476985 316.86959778 371.303411321 454.837629199 354.953661337 406.313202136 519.536934449 308.977464449 223.102538065 558.234721836 350.022547942 679.128992524 289.598197747 454.407960806 416.982311623 764.500417779 157.17013123 609.974218383 378.163092036 633.977400099 595.581102328 396.799510143 518.883895726 459.719869258 262.6134927 348.26820281 369.031646356 597.853724236 652.208038952 959.694023066 396.803685289 467.733095491 764.992149133 390.469800623 507.937632589 185.969283696 320.137465023 658.908941685 263.303224191 338.261867904 96.3176383115 461.856662079 258.62532105 441.328000766 717.311214481 357.170067639 322.220794604 523.327782372 718.213089071 586.699009406 426.716970265 601.657208626 454.191615546 315.939900871 570.458617009 418.788820473 445.194079336 245.14150065 519.848945386 255.260493164 782.076575332 294.179406234 654.127475113 262.734959711 404.851098298 411.640230191 407.733700006 174.195217744 471.126519432 270.942721544 590.538737687 329.640382875 418.872507994 293.267298772 319.921879658 220.128991253 597.793926828 378.619805877 431.390969385 301.434278167 763.013776069 1467.88056103 573.091369564 335.174835929 313.953583723 214.655292969 303.774224307 487.084578197 791.276499833 317.726232861 479.489585361 279.301214512 398.809178517 488.961887272 283.669424337 358.146072629 358.985659571 209.241975383 506.579168953 389.252276348 521.352282488 376.237186043 728.803196367 302.149518111 162.842183419 354.031746285 97.7180194933 357.378365298 361.043852284 326.933810181 269.70303478 321.811386503 584.003748445 441.94066518 262.441765497 336.341794339 1005.67519296 688.712967527 337.7790074 442.576727227 373.548889928 400.346331695 68.2897934839 358.969541677 177.806034539 820.309374317 516.421999627 520.203747765 479.406729944 363.020977615 364.88226165 362.206543293 460.786585651 397.136908561 413.013047176 446.960060263 477.180353899 650.818214883 326.620908197 301.464857279 581.714325808 199.882871074 0.0 356.96323861 341.226684689 375.593897265 384.70602397 407.958729031 483.408737563 358.873166922 233.576255999 350.083048479 471.014040407 321.878742554 395.832436333 509.960146425 615.358392258 373.280183712 408.743644537 430.36632169 408.379591969 519.264682779 135.095598345 250.953239239 409.686986973 834.802313242 370.757172186 690.943583947 576.369641531 469.409635944 367.033385778 390.175601747 221.374672827 344.945190031 515.184578215 331.945869945 779.941158491 816.087696128 538.737403793 517.018822224 582.616610334 398.185777857 401.342040635 539.642140106 416.897501479 608.497616865 225.23869045 354.9121558 340.819290182 446.981063307 420.381554644 491.053275098 388.633880794 485.984438144 500.495439426 754.703554122 303.088418848 344.282424813 491.188947533 400.017653516 516.041400651 515.105708404 417.782789683 423.559732188 406.02157737 722.065375236 297.950810507 407.989077177 438.840270615 290.692563289 452.936271525 363.835044413 238.596215058 369.125913273 743.592348459 482.751585557 1007.35667041 472.511432039 470.289579598 86.8500110096 539.912891766 283.104758675 321.711170314 363.68053628 477.053430293 449.068524843 387.12662629 688.650808117 389.706709777 577.898227892 370.063107319 319.612876428 452.004581764 319.727909025 481.10237343 584.564728922 419.88028354 380.44643568 637.187124146 462.217751694 349.298684556 734.519234102 142.082360308 635.604160932 498.003837799 252.835797843 202.154406335 420.077633787 352.254059932 416.438600167 560.127364907 403.857786839 502.789955983 631.047951814 548.994084682 298.164848546 302.364162455 262.825542071 192.626917313 305.597541573 451.740613854 365.954568321 428.78366574 265.48950088 143.563189747 330.73286002 711.993091613 469.34909471 439.290163503 327.719362208 403.4955429 967.03105841 398.028717124 484.633330854 353.474494653 445.79733805 220.892398865 575.538468541 298.544668422 471.221126708 455.880515034 360.323878221 368.253748829 317.994052946 424.283011666 197.152455377 579.231704623 295.108138171 491.716670788 253.547136218 353.785529772 334.855230123 430.24518005 225.501026483 213.954489195 244.635271806 608.655839184 304.630707618 313.43775274 311.745132042 576.814176424 532.983306581 526.187077006 1110.41105957 203.203081254 662.297552604 208.393664194 366.854136192 583.602730629 401.292568369 358.590629145 462.912862191 343.716573979 431.079692246 421.666018446 818.249607812 394.523173514 508.895173213 447.977831398 253.384315907 409.141655197 232.707909588 525.172192775 428.43366356 798.716716106 466.722888201 251.672141418 301.519697709 699.600213192 183.155931442 564.001572593 749.866417404 223.062014654 405.262217482 128.848070883 559.132962609 472.777684659 378.184637926 600.269082686 387.126661458 631.173290789 685.63919951 322.722088607 472.750096626 288.079054051 328.613423032 402.25293283 485.0122145 518.783836257 436.90845845 341.959479842 171.244361921 350.328859928 290.562103354 656.179972682 604.54679329 284.860332292 535.626638666 697.354240369 312.023154693 462.508064237 581.708806984 257.48503511 377.881878351 253.572060149 272.971913905 349.782333837 312.378960409 436.928751422 376.146423914 324.790927161 332.350043542 535.698011749 232.568233635 322.0177976 369.499394083 258.552527887 318.681549296 297.380186028 450.539010033 259.224739701 916.976453676 402.554833832 699.732377722 532.085294961 298.635154705 676.08989522 506.048704695 214.660418258 422.728346819 449.477151243 491.714911907 461.402046019 377.066429907 295.70507023 406.582861784 424.896933241 1395.99394582 309.906105148 418.768037563 223.307903747 253.181595784 904.314188707 864.094835612 359.960527618 354.961230344 284.794519643 284.636385296 626.100002476 703.783599831 500.416859819 524.707901888 155.800669633 344.097527865 688.377150839 436.310193557 624.341534622 773.003910176 350.458797818 376.111864125 599.018043512 507.947380272 447.233441634 792.1125914 405.845094955 385.61587313 380.573575713 1073.474588 565.990038823 441.816218942 735.804309175 779.660474202 449.674459636 562.423763263 555.572334187 293.576799856 237.757344964 582.399989941 422.909832371 295.351309182 274.782366111 511.336429533 520.835032901 287.958517449 99.4967429123 626.264521231 317.830452651 283.601518376 433.59923663 436.437010042 75.0918435991 359.885592974 367.202178769 395.877298288 314.686223322 391.829303657 402.96678735 623.425502274 370.157162486 349.856365406 385.978627678 343.488588998 683.50107331 602.889666035 1497.70418991 493.898763924 278.787252551 289.000847319 179.514802786 362.422423006 795.968665296 252.451394574 492.892312134 99.4290015981 406.177035235 448.071284063 453.961693223 391.154725762 410.452400129 552.506659031 429.907751199 387.557707536 460.943786856 247.837137749 358.065272311 285.077213185 411.223416755 396.07021019 347.598147932 252.451245019 597.821391894 318.160220894 446.428001576 623.525843198 382.447672433 327.075536 843.831515786 438.515446833 342.632330745 289.514717078 473.566457185 311.724129294 446.393816751
conv10/dw_param_0 83.6302701493 222.000340496 305.299675436 319.036850913 253.964275617 523.264229158 237.636586756 329.531486115 365.353513137 123.510048646 198.330612885 510.809155388 217.019618995 214.275514418 178.495360115 177.588112176 332.922359809 217.688468686 187.521710279 173.89354127 89.0731682846 229.840817565 585.760010667 138.911148507 217.579566311 235.109216933 307.770014867 272.715884267 338.874145382 305.943953425 310.795706811 146.862886158 148.078963719 246.608770088 156.389985992 224.284320966 214.320905635 108.20564892 102.826463602 102.737318149 246.160013808 90.0856846005 186.174188508 250.091661891 262.644860647 355.895310604 337.33880306 159.191036138 223.790828101 309.356219846 453.749975936 259.515953965 180.137492504 315.59033811 314.79855022 334.902441234 250.644717626 390.304395477 490.857907236 112.885061135 344.99523352 105.390746476 397.049804564 92.7959204934 308.417562566 105.072574765 323.054988699 88.4005865861 200.970794571 157.8804173 321.09697862 138.865501669 97.436559283 229.362169275 259.655375098 350.471681613 175.507291475 339.680396896 408.869651052 593.880110553 670.947846613 202.446282537 340.462637906 155.24742147 124.99088878 240.040244895 280.886023132 450.989452251 272.750427903 294.624950912 32.4263879234 151.986701507 267.087886152 403.254992861 165.028809434 313.76426254 387.709010409 436.010649048 179.209734473 247.495569149 132.026986539 329.806032629 198.109309296 222.15407919 225.164546207 301.291721538 444.41672426 204.160526586 215.135296642 159.442852814 137.85767427 96.8413565476 318.795339979 290.044413402 387.880236809 433.29776223 416.868953638 253.901661098 378.126348869 467.462903485 536.226359471 193.85073093 293.138792964 767.33263474 458.786861988 55.8982139805 375.978531509 357.060086025 245.200827929 216.905466781 133.139919466 144.69260686 405.20942372 310.03162249 81.4604009291 155.669858156 151.859139687 621.864037297 80.0159960908 324.250299109 138.534596939 309.38654063 183.082199939 258.383624977 250.730723876 406.166659931 176.05369824 760.668903232 161.46019776 108.536860702 248.590525261 0.0 203.593060486 275.507129616 530.013456013 125.867901189 257.471049337 289.397810976 198.250026332 235.012931022 231.736030325 63.2103971014 147.910679074 284.189129048 97.5193727803 280.277963552 115.926138727 359.429575666 168.547505066 444.829183145 316.403573046 95.6789729802 438.990901273 607.954438508 58.3053988551 243.79397429 176.717956935 140.912859677 277.500881001 123.954210091 202.453322854 301.073619039 257.444746509 171.710537219 704.72954287 131.525429387 195.553812655 287.168443994 114.104952891 116.264180318 338.910771395 162.932724519 201.189953922 117.229410447 212.11930931 120.898717968 270.566634817 218.58021994 250.598789221 530.64166355 116.368303613 208.414007351 270.669850535 136.112934491 97.2234359107 267.725776102 221.359516711 114.395284311 576.953263528 156.51265213 196.850696953 372.421984804 273.222941528 308.402139138 94.622525431 204.743204731 353.405576998 460.297178212 112.295981948 210.548836619 230.037570279 212.100516647 117.215648085 119.320488028 389.275602257 100.312382749 272.011286385 423.446893815 146.434940356 240.670630805 177.909722131 506.822936481 197.567208486 318.595801058 126.587323245 295.770295157 124.003365721 231.379619977 164.494154172 365.195303054 353.995602108 557.16294437 544.446555725 207.203006307 228.384509731 385.024865986 240.069859927 163.6318993 125.229109865 531.579162818 174.114009153 559.946786426 421.836821292 512.858165792 219.274059845 170.490926449 143.587231254 250.486485915 219.584191017 402.551145209 225.236523746 108.272862848 381.195616702 279.543814002 229.8810638 106.39103408 301.333415359 544.010488517 390.280588678 466.146745974 253.341233691 107.266968136 286.960486184 339.62027135 161.61650545 285.053033323 117.653806308 497.44471311 368.428571725 414.238273872 104.27580056 123.970566927 316.305052716 344.507538091 431.322373887 300.21482647 397.875643649 224.055101384 342.077707934 265.703919286 388.767510542 344.971243228 128.38170978 861.503329081 286.669843028 109.836965876 317.939295221 205.429686028 106.923249843 177.806494511 598.163134066 241.222981313 458.027316033 235.374598974 240.523977878 252.002242904 266.841734287 710.738206158 492.322530244 344.251414093 128.673034695 446.421080012 112.025925035 278.598464751 134.099492372 478.251471034 135.951779025 276.891216661 238.405147665 137.246063471 293.882536579 329.440819229 154.02188641 287.921395683 111.08362971 114.636129549 80.2676642576 285.823480153 201.867654536 251.496965096 223.524856011 117.278565999 174.232267176 109.487554981 112.526181759 280.195936941 420.981235204 214.520134295 501.973404701 475.543238382 135.994618696 159.121738479 220.975557628 390.771968454 245.565121583 80.593365091 197.046123376 206.060466142 439.712620696 186.187300871 440.183810222 347.705724709 328.458842067 249.131070118 173.418629615 335.348603162 401.288184861 494.104122616 149.314187089 175.281610648 217.745174839 569.309161837 133.745713051 61.6355281536 157.968896376 630.033475916 584.996862725 133.651357746 475.954386967 207.698439971 247.531739719 238.897064233 525.099585081 143.578919818 405.960231946 139.348235992 122.106361443 334.708076907 223.337091979 142.996669618 434.482791163 291.160242392 181.668575856 196.718206244 468.206452339 481.455246343 213.827120788 265.259526663 455.194484017 146.451225538 65.8517448574 348.636099673 459.883886954 118.208584846 122.769020008 568.128236024 231.590318865 324.71084135 270.733493051 171.248243138 391.792738644 124.191271817 298.98214644 697.469061749 128.522757121 425.247289024 80.0816167786 569.670474551 498.183794357 402.260906766 612.162196204 110.361328123 57.3704697875 349.424707501 103.301899824 253.445017394 198.10827779 205.146253712 455.179265576 583.472961777 158.988697935 554.41815042 512.808731128 293.327151919 45.6576336239 376.638718085 178.309060127 113.207006731 116.310320041 180.775237422 109.92526281 238.019941022 277.711003517 173.833019314 107.114392718 156.941769159 58.4704618996 218.961900724 139.254604319 144.444665054 216.321698746 211.794538745 59.8635393009 169.005031745 183.059203455 117.245408255 89.7641700532 99.850453555 303.727198006 385.364657373 313.202500526 250.853169221 373.942699733 307.225196456 297.234740661 118.169944361 196.339006141 253.060443935 429.382869435 125.283525046 306.143217322 203.083891303 159.809446692 249.612985881 290.66212802 523.998859389 254.929263475 392.751081873 181.215187772 144.759964761 332.202908057 207.794248524 125.127372198 69.4241450237 195.415587453 245.59883332 226.96967604 473.886223835 309.404443913 152.957503183 292.738203642 371.139554897 133.968112705 144.911532752 215.714985348 196.810349272 172.866550866 119.724723983 242.08639187 292.016441242 94.8646290683 392.281110811 303.646559721 338.854366854 208.894405359 159.977249617 541.251245545 387.702590596 94.2987733009 295.037301467 168.35207324 429.701838807 157.095504223 164.803248935 383.214860641 39.7297162762 114.385495188 257.629742428 488.972042367 326.935264957 309.754996996 383.716065016
conv10_param_0 580.58159266 213.486643273 354.166094371 494.703018766 671.323127354 547.674010412 251.945149979 549.783783285 336.646904883 303.782583175 390.097773509 426.088451432 482.89097138 367.463977101 805.63136096 369.467358237 279.241513299 240.14727215 560.089855943 721.748569938 382.424093704 370.831217047 436.996094591 342.854325166 300.026181208 568.762756416 478.601624033 258.505224108 339.447268658 403.139211172 382.807582862 324.932411228 297.229993062 673.794162308 659.265058593 503.733468185 287.502940801 197.60379867 526.028560423 843.811715748 474.106656876 278.127720897 440.677291259 505.378583796 298.428173596 591.599594875 632.938966444 398.603038163 370.668905484 490.319725604 747.663447195 496.36647003 373.684698897 359.107815531 262.674374076 379.092023702 448.531012636 344.458972453 348.690928982 283.524269349 224.795362353 1068.74293461 573.347322855 213.887071541 1140.40406267 250.831493472 455.493175533 279.792989268 215.47604539 532.755755527 739.412895024 189.178613923 581.584760325 305.214177784 325.1976324 341.970511372 464.922620849 181.745808096 401.349033498 500.722500884 437.58487477 273.445529294 330.927542044 568.221452355 233.771251127 335.179001281 315.737813486 360.558994547 495.5136999 300.285187904 469.488554282 332.419524124 589.837910501 257.842397018 876.575459129 285.149853712 503.654166238 264.154063577 359.475601471 385.826331594 416.778360531 613.912591696 411.878430602 469.024423998 689.699558043 553.690908252 566.424912306 379.368591342 499.348409827 835.489239094 181.421375779 633.609161389 410.593981069 308.012601489 408.114657903 321.764902724 1040.35206048 687.636809323 244.670189668 371.30661422 481.819586957 351.729034594 637.924024786 430.684490958 783.570708842 593.803397798 874.646855574 581.794936403 255.206361994 436.365415355 352.585907412 410.373307615 374.228595074 269.40323728 1264.51964378 776.775489885 158.783441859 399.532276943 581.469335308 302.40263426 583.916323758 255.993156556 560.241836952 429.466819772 378.155809946 166.421550835 333.010269179 485.329002506 458.005212865 343.664960659 309.201496765 651.405574259 612.939988546 314.953596258 231.615518747 952.753262601 83.7429915813 589.753382692 521.935405697 649.282363994 428.986410069 365.562843953 662.946199062 233.967240073 295.74012146 408.53948524 362.515224334 85.5992444053 704.722317192 379.260413632 649.453552339 271.326938041 370.121122714 340.164015172 168.242523704 722.858330695 485.33060545 250.906518145 218.278752404 572.381226989 207.667771554 287.046425143 517.787058619 441.640574017 305.806646305 204.126650303 475.421108995 496.921375787 275.897229078 840.865801467 208.1823753 183.674257829 368.348382838 565.332322971 386.269225048 297.21347094 483.867337134 507.181240992 591.652409216 327.55315778 540.760298512 274.09158403 509.124173702 600.490105767 492.969515664 432.736185873 111.014431989 275.456036537 446.5797687 393.476227788 258.046355314 395.382981363 368.585738697 309.810665498 304.180420545 723.577461854 399.683666536 456.911047041 434.605356091 511.403715676 347.262515865 348.834559648 446.792528541 780.072865769 407.969977238 445.767679524 676.528354127 351.644400405 292.239289586 566.438050528 386.163935312 430.971877789 321.872664525 488.316922157 450.94053569 465.970180798 538.384935223 244.606092277 205.916506603 470.461123594 202.563049615 328.115677713 317.961025232 436.596282949 286.294824733 631.962498194 534.251648642 353.851980644 229.663188477 278.239167043 103.457421915 579.16219265 292.702513309 385.821545896 542.443610328 286.532043766 676.524756129 423.888109156 370.597342602 383.536895762 271.297918199 237.818460246 365.956391087 666.294728127 289.716821868 794.186111532 635.657302183 378.218136257 286.122840019 515.335690837 494.322266892 492.012739136 230.618696564 445.853774758 198.250303022 268.990143328 622.526886181 377.66971946 273.691118534 425.119087554 692.00669465 362.094515441 414.12712714 581.176356092 135.665041115 488.15872866 765.836069451 450.33899114 199.223531924 229.70391732 563.196210655 500.632557324 270.018367454 416.145147052 343.768175072 345.990677587 297.143319027 930.336807586 619.065135729 250.804212161 301.935049938 949.92688746 764.767957586 434.516815273 219.897674357 647.98013763 240.12957198 545.093253145 151.088921309 377.687225686 204.381898612 353.385208783 837.571467544 621.525368642 362.032837385 869.123225899 719.040548287 551.170621481 407.802411935 663.66933936 453.548399814 443.323900115 145.476619485 232.303667851 204.310934471 425.596862893 348.379897264 530.08416513 525.989149084 432.387074452 189.012792544 466.835014514 1271.24444265 373.063818198 195.785396624 149.708129541 349.228065546 245.669485318 455.219915186 296.101851392 839.984527332 590.162819024 359.582191293 393.822335224 262.206858029 381.195412108 468.385540346 249.22318233 285.572849069 443.655334962 442.394231099 319.228261901 395.250228144 673.16867821 349.617985541 369.962515428 269.247931775 419.068005168 277.224980983 644.954768094 367.17553857 413.682654116 366.533043782 239.163339638 458.835568984 183.521687785 731.500941195 415.709391781 358.933984613 345.715150851 636.346524833 513.076044867 305.002236586 706.670442728 324.905779133 554.424389812 512.306316272 613.266097521 340.394567347 546.68314263 344.758855524 366.50442016 483.137610019 612.731203495 305.022561609 382.015959925 482.938418115 363.006907281 363.524887867 385.454623605 478.559808622 374.418086165 243.054447477 581.86976938 367.538519152 295.465024518 415.998453702 632.00378424 717.898928748 342.963843154 476.177759681 418.16204373 202.699194333 304.46103037 270.720284038 359.676275786 211.850342855 322.290784004 937.893490624 547.46518232 480.953215833 361.436859765 468.086005244 327.62283832 254.864800415 284.71098882 497.864026074 642.902721617 168.062338816 663.564239517 381.148122654 779.634299671 326.571147717 385.806490934 390.651353199 365.04498493 104.064954856 642.030346517 1108.842432 500.779166033 272.927927045 338.142076534 590.617392337 378.764209192 560.443611598 596.443083624 416.244450229 196.630812851 227.751286128 249.650567825 431.02933143 269.661903818 511.726585553 216.16256772 257.975277575 344.121035532 300.367183853 460.638603547 702.937347479 633.742682717 334.785227448 436.909712707 476.620017086 178.17550506 566.514068421 340.487311025 272.21586997 399.916670733 607.245523298 304.160185884 158.59691629 295.232956417 319.674878712 470.676561441 205.033435062 547.617917952 367.955300482 399.492462549 271.837699592 465.066110693 362.175020759 400.190869451 712.989398887 105.723617951 301.629886793 510.523493935 388.664363971 368.618195778 459.530645223 345.747491829 289.668769853 124.42068277 573.492036218 322.351366922 836.495231006 603.531679865 269.264213084 434.931779584 473.906882372 229.050118577 666.624721403 470.913271506 121.839160899 522.526818473 519.632659084 291.546887397 306.072964 409.763884443 334.041161078 315.393132571 445.209056018 528.591520581 212.033017224 319.186657268 433.928082447 280.816056615 463.736143702 171.815908281 363.059668924 1200.67600554 162.422859056 377.297986862
conv11/dw_param_0 316.137978596 497.317925168 350.254685857 296.433986839 277.107263805 131.632799777 392.433956568 279.055399212 385.233948325 649.195419053 204.054065401 114.061132128 320.497203423 245.2187192 116.654952042 281.19161857 431.89788049 539.27033378 306.957047609 394.717436558 362.639609446 556.51779558 203.111594265 789.934101113 192.201881817 92.6969466787 257.367564513 711.85887149 561.43170106 244.943950229 356.106706341 240.125620922 673.329395399 134.984790231 120.390647855 561.48758898 322.972354093 703.900722779 167.356049608 57.6120283018 99.1865042335 473.829211404 107.762292284 327.848048343 341.933989303 121.093152503 438.402528312 581.655490208 377.841337086 588.1830774 341.270434821 240.95313794 246.472583001 350.891311304 562.004718879 93.317119582 72.3689148072 183.614664586 449.393489772 879.724432841 1059.47583999 99.308678705 865.545763304 263.935844472 143.105398047 195.776186054 382.158681914 239.026775921 498.391974854 106.967169457 299.344033231 559.180725946 410.045523441 258.828445193 477.807628686 758.081136531 337.272349489 466.788327019 868.968683249 256.350395897 435.178241276 81.5693561388 646.813082906 599.330472221 221.530171555 241.926718691 346.095546902 130.795555997 498.097438571 863.373468375 340.386138608 22.3105033013 93.8128125892 387.978940639 119.890540329 487.007926683 487.633588646 1045.16436389 202.715875725 323.251105896 219.398445403 232.446145139 199.815764551 293.277269236 259.766076155 143.613729774 361.123738022 494.591860115 179.718547114 118.639822346 236.810860969 321.261925458 319.845689144 709.224949984 699.656381324 659.916768725 149.873868581 164.962012631 209.011555194 135.811942045 395.413248373 732.63997406 117.503666057 238.244964103 242.917642423 263.556253604 116.279839602 453.515866941 112.475715254 224.712622142 285.164661049 228.021048461 196.641247322 1071.73223324 77.3686598432 119.738234027 253.97017853 224.948960589 117.769065437 229.243028185 339.496054069 267.628995009 350.811180613 466.39847037 106.080649329 193.564842982 157.87624102 328.916979549 277.738225702 457.290203059 76.6327591738 108.545298307 151.56195278 580.768841643 335.946238673 112.530472549 488.817293073 232.783875895 123.451054154 237.204254768 159.849082876 252.064937846 270.404271631 117.758052616 601.127779682 216.513951171 226.836149569 427.146404605 562.616342137 557.455906285 155.633949646 407.296998366 410.710245346 136.569187016 361.666831796 158.460190744 155.963009349 228.606267958 560.760104909 435.695478265 256.507941736 264.108993004 40.8562195224 318.594943571 302.392698885 1055.37229635 86.6188712872 335.570055845 323.188174446 350.081840564 432.796000991 395.704635526 405.339429038 666.120482658 622.096075846 192.314903399 173.946422508 253.568348406 375.353780396 501.205890157 162.524648607 141.171671111 303.053867175 126.524090929 131.416377847 413.111101288 616.220422134 152.854883425 195.337047479 358.096835768 271.195275792 322.645633512 341.964611336 358.899734342 406.880965573 157.451522635 127.277348314 341.594167891 199.745482257 189.8108598 410.57123453 383.077306248 177.878724927 107.853845648 356.52046845 298.280198312 97.1788540692 578.435011026 240.785812586 104.777171146 293.720589535 337.272216021 323.863186874 235.294438181 275.311781802 90.3573373185 262.138227025 281.325200757 192.822837641 214.295060889 608.43336933 357.412235868 221.162193804 244.589076439 480.950230368 99.7972787888 161.606613208 377.107806189 371.526646455 157.018610632 372.940339965 376.588359077 1044.86542936 182.510438363 84.4586899671 290.876817787 293.158676763 667.250374167 332.194672943 482.498894244 599.304764693 305.471777995 500.877875214 201.401481634 956.842063381 141.099798453 208.349078063 182.031520311 954.71649202 250.905424944 675.164507121 163.241914102 197.728475552 403.757036663 245.394808039 343.210369506 149.421630706 217.294323339 288.988990118 249.773453454 505.021444326 923.935328191 76.0718317001 180.020423601 285.335858455 154.94951426 189.041955086 545.894627565 668.933410293 97.6687386354 220.655750832 501.643321774 368.360832437 128.487338394 456.833851443 416.74391939 146.084400836 139.031230025 162.668406718 632.2526926 1057.8014393 41.6340660558 129.143287582 62.4007536683 204.776380677 195.999859074 361.268209511 318.843784675 262.631538875 348.162382693 907.475601898 242.751312074 81.9600825945 161.832290545 182.515097217 71.2721926561 84.1635812442 547.705686263 155.831138854 209.304912929 623.472156787 249.989667234 230.389281995 416.457239624 275.860348046 274.073479821 224.795362353 105.402789705 77.2519837751 547.596982996 331.951222465 355.540565284 52.4766591263 249.530286974 424.330202662 183.904033577 244.693932764 211.919559727 213.66085996 811.21930077 85.7489937694 194.834771066 176.192860767 312.198257237 300.704124519 434.070583979 244.817780609 351.402796156 906.418894482 175.804167933 386.911866638 586.230605812 524.402067773 210.62084892 421.380529181 188.49330301 410.807248556 346.239663196 205.749976728 96.6287840528 345.004422769 303.589126193 323.760090045 198.656763973 134.730365371 447.664926535 104.84396822 222.465378375 354.589016893 331.031937642 143.787635205 194.331224885 472.707934068 149.542042965 523.420312341 120.719309275 125.707337305 68.6016930178 226.325533887 787.510321373 345.253472921 583.296300458 137.584425389 628.116888583 376.411094722 393.721909402 238.786170639 561.086559658 304.717796091 295.604949117 391.860110023 803.985628522 451.587377083 196.62393578 314.945426007 1064.85040695 167.126682537 234.515541684 81.6549454151 575.619203665 243.171007009 381.289548605 206.770711799 795.973422928 382.553623821 373.665759644 533.077282212 262.133147662 111.742183289 275.249702348 329.464149911 964.606243257 226.135509175 1166.71301326 327.637876282 117.095484163 199.995854231 41.5828311806 229.814415955 299.310813471 410.23156286 673.4376116 556.559516027 403.44572931 694.532672388 296.959816609 482.708932512 298.869460212 64.7595428021 247.286630999 307.619139001 308.060875201 133.986848615 390.492056075 378.96671401 194.272717881 183.756025997 438.337140665 344.325376237 257.317135136 767.623385441 979.505891407 232.653761758 544.857127459 439.290389925 253.869775576 251.16552049 272.887064837 27.4311186054 209.635142485 257.570242682 229.855248051 231.849527532 201.687997835 110.289624535 314.295958159 108.009543864 551.816894307 104.284109248 218.874944067 185.330196928 168.868796625 301.61855044 200.015585905 254.188400314 344.262927735 553.548320405 382.547236236 220.832668585 160.034876938 219.102175529 292.922443769 294.244995955 274.948008762 482.67891585 60.525070717 390.800816815 342.744298195 241.30717857 362.050769536 454.358639009 162.314643247 267.593484689 522.815106089 39.2913850796 160.493779727 599.401748393 154.423858911 324.570044547 218.854126107 391.901733333 231.176778364 323.852972684 73.3740107951 271.144578913 112.095528861 209.975954588 381.183648314 870.01007203 861.28428551 336.04505359 403.090057448 205.427032022 150.0380838 290.500877928 273.335469946 268.339935435 156.719164547 99.0455008274 54.6094588926 403.574643421 248.382572588
