conv0_param_0 27.1343312808
conv1/dw_param_0 23.2944376545
conv1_param_0 21.9425684997
conv2/dw_param_0 19.6928318641
conv2_param_0 48.8967015262
conv3/dw_param_0 21.4390361661
conv3_param_0 48.847920493
conv4/dw_param_0 90.5430318409
conv4_param_0 72.4383360454
conv5/dw_param_0 21.3218941238
conv5_param_0 117.769221662
conv6/dw_param_0 37.6473632119
conv6_param_0 119.587535769
conv7/dw_param_0 27.8276505212
conv7_param_0 145.55121178
conv8/dw_param_0 25.3071462785
conv8_param_0 91.199442267
conv9/dw_param_0 30.5917900825
conv9_param_0 68.2897934839
conv10/dw_param_0 32.4263879234
conv10_param_0 83.7429915813
conv11/dw_param_0 22.3105033013
conv11_param_0 140.123323673
conv12/dw_param_0 6.2146890293
conv12_param_0 133.902477286
conv13/dw_param_0 2.69677908927
conv13_param_0 139.46880996
conv14_1_param_0 217.114642238
conv14_2_param_0 135.036341695
conv15_1_param_0 363.399615913
conv15_2_param_0 157.428430349
conv16_1_param_0 283.463748659
conv16_2_param_0 140.088296847
conv17_1_param_0 181.295474825
conv17_2_param_0 98.4925936862
conv11_mbox_loc_param_0 78.3555422285
conv11_mbox_conf_param_0 23.8404454112
conv13_mbox_loc_param_0 137.15521692
conv13_mbox_conf_param_0 20.8723271414
conv14_2_mbox_loc_param_0 148.255007027
conv14_2_mbox_conf_param_0 21.0791147728
conv15_2_mbox_loc_param_0 156.434490254
conv15_2_mbox_conf_param_0 22.8982352066
conv16_2_mbox_loc_param_0 163.664553431
conv16_2_mbox_conf_param_0 28.246942679
conv17_2_mbox_loc_param_0 262.461097438
conv17_2_mbox_conf_param_0 41.0664206634
conv0 127.143944195
conv1/dw 15.1715267639
conv1 11.9477029573
conv2/dw 2.74206006323
conv2 10.9838523191
conv3/dw 4.66820368312
conv3 6.36224071994
conv4/dw 3.33747668331
conv4 14.600561468
conv5/dw 8.57752197269
conv5 13.5694608844
conv6/dw 9.70984103453
conv6 15.8097305534
conv7/dw 10.184651602
conv7 14.1541742239
conv8/dw 13.4718005348
conv8 17.6474245386
conv9/dw 11.8197736564
conv9 18.428027045
conv10/dw 8.05356438199
conv10 18.7905330088
conv11/dw 11.5969978769
conv11 18.4089544812
conv12/dw 12.4620138365
conv12 14.1591085138
conv13/dw 15.0894739432
conv13 19.8071657036
conv14_1 6.04971075847
conv14_2 25.674922045
conv15_1 26.8457423321
conv15_2 35.4228365402
conv16_1 21.0559195639
conv16_2 35.5541988473
conv17_1 23.092208271
conv17_2 19.6009972596
conv11_mbox_loc 12.4620138365
conv11_mbox_conf 12.4620138365
conv13_mbox_loc 6.04971075847
conv13_mbox_conf 6.04971075847
conv14_2_mbox_loc 26.8457423321
conv14_2_mbox_conf 26.8457423321
conv15_2_mbox_loc 21.0559195639
conv15_2_mbox_conf 21.0559195639
conv16_2_mbox_loc 23.092208271
conv16_2_mbox_conf 23.092208271
conv17_2_mbox_loc 11.6307035503
conv17_2_mbox_conf 11.6307035503
