conv1_param_0 139.749236045
fire2/squeeze1x1_param_0 82.6285194768
fire2/expand1x1_param_0 143.07808755
fire2/expand3x3_param_0 164.383034846
fire3/squeeze1x1_param_0 163.219942939
fire3/expand1x1_param_0 129.886822693
fire3/expand3x3_param_0 160.520404269
fire4/squeeze1x1_param_0 115.287698509
fire4/expand1x1_param_0 211.796538762
fire4/expand3x3_param_0 194.589540508
fire5/squeeze1x1_param_0 184.051739226
fire5/expand1x1_param_0 183.806910418
fire5/expand3x3_param_0 157.407077468
fire6/squeeze1x1_param_0 176.584973772
fire6/expand1x1_param_0 255.395883341
fire6/expand3x3_param_0 194.381503133
fire7/squeeze1x1_param_0 221.43269462
fire7/expand1x1_param_0 269.926248041
fire7/expand3x3_param_0 271.731685442
fire8/squeeze1x1_param_0 176.317447571
fire8/expand1x1_param_0 210.850075629
fire8/expand3x3_param_0 226.162728618
fire9/squeeze1x1_param_0 265.846189473
fire9/expand1x1_param_0 251.499458688
fire9/expand3x3_param_0 332.326406027
fire10/squeeze1x1_param_0 299.9226276
fire10/expand1x1_param_0 309.316272866
fire10/expand3x3_param_0 477.790699961
fire11/squeeze1x1_param_0 505.712101939
fire11/expand1x1_param_0 375.159708177
fire11/expand3x3_param_0 468.87358056
conv12_1_param_0 431.464828898
conv12_2_param_0 433.547623812
conv13_1_param_0 330.162029002
conv13_2_param_0 329.135736221
fire5_mbox_loc_param_0 461.516928157
fire5_mbox_conf_param_0 200.282618065
fire9_mbox_loc_param_0 220.11057168
fire9_mbox_conf_param_0 61.8932746698
fire10_mbox_loc_param_0 240.674110482
fire10_mbox_conf_param_0 61.3541571139
fire11_mbox_loc_param_0 211.426527097
fire11_mbox_conf_param_0 58.7505370445
conv12_2_mbox_loc_param_0 289.209026085
conv12_2_mbox_conf_param_0 73.1614672519
conv13_2_mbox_loc_param_0 471.487752574
conv13_2_mbox_conf_param_0 75.6992480476
conv1 0.841264989609
fire2/squeeze1x1 0.216154709917
fire2/expand1x1 0.116409230734
fire2/expand3x3 0.116409230734
fire3/squeeze1x1 0.171161399466
fire3/expand1x1 0.147365649218
fire3/expand3x3 0.147365649218
fire4/squeeze1x1 0.160050460042
fire4/expand1x1 0.10347526349
fire4/expand3x3 0.10347526349
fire5/squeeze1x1 0.137107634122
fire5/expand1x1 0.110263771499
fire5/expand3x3 0.110263771499
fire6/squeeze1x1 0.127203124614
fire6/expand1x1 0.0738156785451
fire6/expand3x3 0.0738156785451
fire7/squeeze1x1 0.107333293206
fire7/expand1x1 0.0893498167681
fire7/expand3x3 0.0893498167681
fire8/squeeze1x1 0.13422319898
fire8/expand1x1 0.0985903737
fire8/expand3x3 0.0985903737
fire9/squeeze1x1 0.149748223976
fire9/expand1x1 0.0789381104439
fire9/expand3x3 0.0789381104439
fire10/squeeze1x1 27.1997969213
fire10/expand1x1 18.2748008677
fire10/expand3x3 18.2748008677
fire11/squeeze1x1 30.2000688542
fire11/expand1x1 33.1726109332
fire11/expand3x3 33.1726109332
conv12_1 34.7411118304
conv12_2 36.0055421726
conv13_1 31.3558765418
conv13_2 50.2075999383
fire5_mbox_loc 44.5925336844
fire5_mbox_conf 44.5925336844
fire9_mbox_loc 33.2468208134
fire9_mbox_conf 33.2468208134
fire10_mbox_loc 33.2212558908
fire10_mbox_conf 33.2212558908
fire11_mbox_loc 34.7411118304
fire11_mbox_conf 34.7411118304
conv12_2_mbox_loc 31.3558765418
conv12_2_mbox_conf 31.3558765418
conv13_2_mbox_loc 20.532498296
conv13_2_mbox_conf 20.532498296
