conv1_param_0 188.557090139 270.891722971 189.861532755 313.513342449 267.808876014 220.127217382 176.498042557 369.301597445 262.556392493 142.643315999 139.749236045 201.010761359 372.576323665 385.440538555 454.857534192 155.091071383 316.440789536 243.427292382 357.707841529 268.090324538 225.216811036 229.810177388 306.314643146 190.71890274 423.430358218 216.577421493 388.760310843 191.684758107 458.23146501 441.574033942 405.355854261 184.666210094 271.890217271 355.947511641 531.037461306 221.407844134 212.434889307 148.753280092 513.488845653 499.652336636 191.10321408 256.351166953 245.434127163 199.123458695 194.884294214 212.807442955 193.919855196 182.349588104 242.784172621 176.021119497 160.879074375 284.625757999 182.351492031 190.88559486 174.939801825 239.012431032 469.377372916 212.084218292 267.903395637 249.274936076 222.821629664 191.382817024 190.259567486 265.969587037
fire2/squeeze1x1_param_0 208.075113454 82.6285194768 133.939505063 104.943413965 252.254105909 163.074771934 100.808635064 165.074018666 173.492550925 187.255439747 263.342486951 175.608155407 170.388318339 144.327606353 226.340127412 164.231117275
fire2/expand1x1_param_0 330.556098336 298.900422636 255.939129265 229.0435691 1590.46606442 240.364216287 256.341559931 294.446172426 292.038174415 279.708437227 216.07884973 205.498694455 283.582154994 311.980643114 219.748016297 340.490385215 403.267280685 151.728453104 300.420905521 250.600469232 207.603670424 159.340309926 195.215546099 529.686000839 371.344859158 305.11105396 235.748232226 289.252802548 143.07808755 251.122804656 145.950692693 272.521336206 216.735201995 173.424699096 377.078241242 349.927899665 239.131666573 339.51060587 251.604590769 275.41987858 196.208214899 209.126537613 357.112000876 510.749371363 237.233940106 191.50060833 161.539079231 191.453237012 348.866230254 257.262299113 213.728242256 290.895681031 229.520219629 221.849678685 325.114642276 279.646653273 428.291265725 166.004926452 484.570397243 181.969895419 237.292011735 397.343387326 359.000932082 536.861612035
fire2/expand3x3_param_0 244.991040325 517.219000938 333.498451429 595.89624635 417.701747894 407.37732391 402.362507187 195.87699179 363.628773126 533.230267652 213.218936971 301.725692707 190.316922854 597.438115593 715.091904823 294.390579972 273.690556041 221.256124141 344.390992426 396.525583611 221.93691186 303.3595444 651.103753667 429.611776251 384.862719917 528.479817648 229.103562519 294.679572303 458.340681813 214.085063867 254.460957134 212.528080264 396.142154124 365.451175188 349.945457321 286.967829383 447.161592698 237.685813924 266.759216699 432.529048398 251.791610249 405.054436 288.093232297 227.294069656 241.536628561 177.752189652 345.701520647 188.516667709 609.605421229 435.610411276 212.526787152 357.81278456 259.25516133 491.579062214 468.867905828 219.948612264 215.749846367 371.19813466 657.039277768 369.014294217 302.945564371 229.666159089 349.995237536 164.383034846
fire3/squeeze1x1_param_0 256.048375897 184.728858268 248.741055821 201.902889618 193.426271106 204.665187226 181.358017537 218.988815951 163.219942939 212.018163833 263.590977613 234.139987532 207.730130059 192.778995974 168.477190612 262.443850494
fire3/expand1x1_param_0 418.75137157 225.74091649 331.266521512 258.858962565 316.023522153 288.057068845 396.701659544 185.294239877 351.555195501 318.622171054 152.524283372 239.613519303 215.747705454 362.672324068 370.450306398 326.77990289 271.944959231 157.120711879 236.537400428 169.613886342 412.277666535 220.705783205 252.797490802 336.045981083 272.099101138 376.280407262 330.421588574 265.980211516 306.285471803 342.820647758 215.87299853 348.969220883 390.918117607 281.403523008 234.408445499 183.002334782 251.055933095 330.727777728 159.323319631 382.492641388 266.636687118 475.76298514 362.293782184 282.650506364 263.331339888 271.31781685 275.537039168 231.607764353 330.23689307 308.5061153 328.781339621 258.668021168 206.22009416 284.375817785 305.495406901 388.262123064 129.886822693 422.252342327 326.692496767 343.169740789 415.385056516 280.142832312 318.920166846 262.132567176
fire3/expand3x3_param_0 341.971910945 337.377475122 498.23598337 366.500385472 381.225285178 336.410378056 387.940194721 442.804967206 378.437700501 337.999580893 314.811619937 422.804471233 276.78564746 426.555642551 291.931480777 429.727187892 416.260510658 738.578360364 338.64723529 363.357382061 433.781258821 199.474519775 310.625592544 454.047548162 391.311725395 469.040324204 326.05214615 316.016069651 294.386065151 403.608432998 346.183942748 336.694782211 356.155069988 166.970308103 357.383190713 400.307971867 377.779369323 480.76775312 454.735412955 260.422036182 370.19748648 421.100169936 385.447232312 254.866964918 266.977347654 465.560376599 295.013975911 529.289551835 316.899029138 509.801313272 348.648336353 308.249684239 409.155915067 458.574963716 353.822365501 471.894110178 607.387078817 199.398729718 452.36953641 374.229055171 339.261882251 160.520404269 341.432853811 375.398650775
fire4/squeeze1x1_param_0 237.751561471 293.427331888 257.333435105 115.287698509 310.485997498 270.562563483 252.381481862 260.073761027 169.954523284 279.60624966 255.846748416 413.192654978 327.14513903 313.219397788 384.021500958 197.011142048 366.108498857 330.661337283 267.677914855 222.407626741 281.126265976 232.735997106 268.655423445 260.441819811 247.93706581 264.980181204 170.74534739 241.550127934 328.052429108 148.465961945 187.37916134 208.401593069
fire4/expand1x1_param_0 589.161021698 469.528695935 532.121140045 383.144744822 649.696042147 609.999626964 602.984059402 598.909988797 408.950166462 644.249314994 513.760957082 455.26854866 455.862129668 672.882427991 472.391221314 251.076434615 255.157845374 371.017993021 217.739100151 384.076844699 480.407979614 372.820172508 508.561025587 627.634859419 406.869699642 409.215007872 336.591251308 351.591423189 601.902166122 624.210390521 608.779919381 410.862065727 463.082638822 535.704341978 372.825032517 319.739016198 283.209933997 368.183497111 379.634706172 426.164597603 439.891593795 424.991429588 400.560040163 730.267443578 430.515017618 250.224502855 690.257582217 579.333089759 522.302473061 379.184010645 346.39699232 249.274119512 425.92836481 496.037192783 285.701720232 612.054973901 313.16661716 404.510261947 581.429468973 582.354305646 310.521201275 496.199263447 443.101298782 432.410986254 324.522290907 693.516358345 419.184624133 527.761760634 328.992626137 278.700409017 500.967730271 380.70525619 443.855099569 518.004361099 412.760978853 422.797381907 556.946090855 389.700009812 312.188079454 517.867034935 636.40995974 631.454620097 441.752465115 474.740838339 282.992219232 642.76448893 381.765341251 268.566330276 513.976256501 388.670709326 363.470967872 224.228665192 284.816504577 497.016598933 496.768388121 240.408612395 516.130183981 211.796538762 526.37605116 724.127809005 338.984343798 476.319124579 633.137529005 499.49578951 535.387778247 379.080355648 416.425130332 303.735943969 511.922348147 393.102912785 601.473780486 309.732212911 375.623163682 349.402618273 362.146058111 484.775625463 283.104138015 607.420584032 648.198899446 719.116384908 611.359842442 603.986329489 629.111729516 330.733835427 457.265325113 420.925763633 461.978131179 298.920760284
fire4/expand3x3_param_0 376.725621535 431.317528054 541.254407856 727.114408242 431.423593739 689.757608571 475.036456324 470.297364901 664.17137359 727.700594818 636.336737502 544.099778819 302.388664838 537.250252982 377.982934318 387.751696989 546.557494529 584.439781997 554.340692671 574.495383687 569.656462525 701.06450205 307.05923284 246.811646342 440.065077471 556.730933486 564.900098394 495.332097118 431.949101236 389.942210142 447.453966267 519.08062127 847.666857229 616.702920538 560.157810125 429.37252937 550.195165956 821.636120645 573.788249158 664.033415674 569.564944395 475.835181124 305.002149266 326.426107882 551.425880616 220.099294056 564.768445371 757.82768764 660.412986079 381.082168862 628.936707587 671.908527122 615.043192315 424.329737883 460.23816924 704.03160946 511.446158315 548.347558706 679.291756555 718.499175855 218.785652625 617.777864051 603.590536147 467.032657665 579.873174252 242.342296798 366.107523807 512.120722356 378.057210545 456.582950117 374.618274414 723.655241658 261.848341394 374.152628947 759.78748765 252.075703167 299.370572286 194.589540508 734.627244514 504.604811576 500.535826131 519.529555423 565.708729649 588.981143925 518.060565272 543.602058063 591.347275806 365.105910639 655.068249623 840.863810427 272.126624388 540.505732186 461.534372857 634.611141611 738.60037852 574.074173004 693.66582399 652.871619742 590.27836928 230.684862714 525.805707641 405.088858911 425.214404042 495.175310518 425.556231693 626.428067491 429.23028507 345.681329728 264.161857942 528.985676565 791.099491869 504.156476145 451.651320806 489.909189224 488.626781492 436.448765971 242.971409466 783.687430778 517.786020537 428.940207039 556.095528504 333.707457518 490.637555639 425.022118158 477.610076607 671.56942025 674.437087376 438.922715887
fire5/squeeze1x1_param_0 325.642107612 386.724366656 284.122811571 277.223141446 395.608278988 272.451694315 302.269215696 378.325485002 281.636629703 335.332690747 511.615016565 306.645758153 314.633342144 401.77037743 252.212452039 407.305446048 367.763501184 259.180988602 299.847688754 392.747027771 279.36434766 376.636887218 184.051739226 262.721353447 473.835006866 229.558078277 414.140569462 432.40304461 333.505863883 462.259367357 439.386731229 299.438287118
fire5/expand1x1_param_0 672.578693079 255.927785509 365.941400948 821.502437328 322.822911252 495.827224502 526.270806847 465.059867956 207.827711182 370714.444751 397.900423231 367.686837439 570.876448772 542.260623941 563.593591182 299.853701895 582.525141125 526.216381044 383.76624029 471.055068199 271.052827473 432.915153092 439.415954502 363.186718523 366.029913969 383.450479168 367.701336367 311.831133714 567.867423199 360.473503789 415.747555927 537.478067539 519.398889562 466.389945865 409.398524348 470.957560789 613.112349974 451.562876502 215.800191928 375.972228923 382.626787188 601.565310733 494.019060727 482.255253878 237.05530647 324.425393233 540.112471422 562.312070777 463.088627293 626.048309176 376.971765772 421.891781432 397.899828782 385.052837215 370.818632175 431.323945532 430.608766228 462.420284882 659.419765898 340.652443627 183.806910418 463.814579215 343.836686216 599.783159352 408.976266223 375.746735438 322.219332754 618.231098103 254.834912696 424.492853303 384.752428802 594.319252265 371.916721068 345.967503639 508.850418621 304.737276914 377.344225462 410.558616233 459.364651041 438.934108787 366.761562499 351.058102766 455.439723834 257.639991429 445.194590945 670.18520923 440.548636572 345.291127251 377.26882629 495.729111742 537.105986797 353.794018347 493.827735597 343.897065223 553.831734122 466.449777114 585.389104067 808.531249001 371.435261123 431.615203051 224.712740637 285.187161222 540.628578606 317.909812629 513.850413476 449.067673032 561.615570202 464.460686411 364.578177802 714.556939062 449.120775436 201.086814183 321.060497277 435.55484618 578.620838434 495.697799971 525.653094182 473.895762374 252.856381047 612.812532549 336.538220712 464.834480418 387.849276405 436.931618573 316.601926991 274.085325732 253.801765779 564.003401428
fire5/expand3x3_param_0 369.587296934 164.629143358 629.259111283 716.087403267 567.60598029 526.066711289 753.160278312 342.80294288 525.459131261 539.449941465 241.795707245 746.566383836 811.574792769 635.171397907 347.766562135 514.866071251 360.15294698 535.555520171 542.150415435 550.763295991 645.532222624 733.825584957 634.334452701 551.941648284 633.227047483 446.88141015 679.413054834 688.969347553 575.065436066 445.193986316 437.857791691 473.996546534 619.695893309 723.509587144 688.738847403 427.327890486 715.869008496 534.384902938 490.329034481 705.909253647 527.584461698 462.473681275 269.925068308 538.083472513 547.780702248 604.278984501 713.416303373 586.652607825 776.929076311 515.569901983 496.77597446 467.334945799 569.18688745 383.941403659 377.648198732 577.012636111 479.479388716 698.792115876 916.048232221 478.273639171 571.908302228 370.484574347 157.407077468 567.524491716 577.382348946 757.252193238 758.5614689 403.362632172 382.11756047 789.679615713 652.648893445 488.99796502 390.893160198 646.191639354 454.324924179 295.763192495 587.417210112 521.681134723 619.537419175 679.236266204 644.822481651 554.079954794 569.882795386 727.091270717 388.419039202 588.536562693 555.970848345 561.436508981 468.222657254 610.111327586 253.193630097 557.667720082 626.668455462 591.715954982 458.375488355 591.947291374 704.737409703 746.824788676 649.808585639 634.367597302 520.222164249 687.874344749 637.982616845 703.35606885 423.096430627 537.630639126 633.792213931 621.551522045 670.524660124 450.2924043 750.348085521 673.092547814 584.129349704 656.085867638 690.355874512 771.276204335 453.827389349 535.262729879 565.287252316 657.180982769 543.950110018 730.159460218 557.66972701 529.89107 584.474931698 559.578593708 225.773854265 508.94625715
fire6/squeeze1x1_param_0 334.163619075 380.64863568 328.357429089 340.170640714 350.144461803 415.640705863 273.566214039 390.887638443 376.241271867 496.920680439 390.920556145 256.547443404 294.996882377 321.054643616 358.52422673 340.00768386 395.532967695 298.218494809 389.19077478 176.584973772 331.604106014 318.566101332 446.149718197 340.306167937 360.252538177 244.721952734 303.668803473 388.146163086 414.015597578 479.10925837 317.912658658 213.438076849 410.959576624 278.501163468 388.831894083 204.6213371 379.457806706 431.40573053 293.875949884 391.26979621 289.933411177 241.703491389 330.509873889 436.62008102 348.789847917 352.358856907 306.79952374 322.042473748
fire6/expand1x1_param_0 501.167693916 607.176997958 713.122971673 602.063015946 666.504089 652.331539991 618.40106411 577.179100719 557.632509979 627.406476796 592.299471847 558.99929066 616.133999125 558.570065996 638.767794353 565.034847047 586.293597183 739.048643628 580.683332249 613.459968993 547.579110384 449.368184166 536.228181302 422.11435764 556.669843684 303.79722313 601.243380085 661.067173958 525.472381648 530.117070256 522.413468895 468.344821818 457.993103793 703.309693733 475.885715409 472.244589467 487.605299725 558.974250324 713.247879753 707.564832836 788.634996752 636.680662374 536.17548817 630.913461746 460.764912859 581.689233868 255.395883341 524.562091437 662.934906053 360.588771807 579.111269778 565.297825652 693.517825595 565.095388766 526.699588155 609.575554798 629.553198518 733.242551065 692.990692692 448.524592207 482.076802406 517.725378581 510.677453168 659.01695424 600.261599678 611.193987386 339.474742531 586.305696947 516.163348843 676.302559972 313.879839199 695.317101267 650.491865098 471.487648243 470.337437341 532.646446895 549.013216847 514.408359624 686.111455502 674.886230131 479.231457839 640.360800913 305.324918426 408.616892854 482.931084331 490.650548575 456.303104102 499.31897943 603.171654217 498.525084753 529.090203126 557.02001908 419.139807401 709.935470436 390.046357475 406.186404435 817.989507868 636.492562862 549.681662992 558.235635929 529.39416565 617.405879392 556.427943426 472.171333833 580.904695466 603.833306009 489.832997499 602.458298402 714.317983187 405.516359396 517.430297897 440.048808984 724.0742868 405.469633543 575.796340528 563.830237253 655.370532453 448.624837954 580.751587372 520.320873419 705.180041615 691.310730858 620.390521945 516.307154214 640.159990542 521.641222728 527.440540925 471.366393627 582.611592123 560.223608133 702.538118439 567.744216641 667.373471726 560.844423261 728.199180176 846.880323218 456.309455987 502.50341365 559.23568956 624.59895303 547.805806038 702.109438223 732.429368964 567.707873922 398.363219895 720.738011577 649.099500009 545.50853713 640.394722643 602.631504265 560.292883957 496.580425184 585.637007024 421.550975671 378.929073235 581.952966205 634.190252632 733.68578702 467.716051753 626.525508556 706.391881375 610.737747876 639.620759199 519.672549479 519.807189124 478.619631634 404.615883257 454.912791814 545.026186029 646.654371763 511.698012868 376.463867387 369.446473858 523.384601345 488.1585609 721.359257883 472.856060626 701.817295839 518.652093318 606.851195165 486.598136627 475.691873065 680.651906475 546.384227194 487.559051342 409.346534897 582.631984122 433.450475071 735.620515282 596.55430022 641.361195101 495.685518533
fire6/expand3x3_param_0 576.64390364 338.074126023 330.241474032 626.787911975 795.90117251 511.801872958 793.149103448 703.074661902 507.59065309 581.665335013 300.369301017 545.673842737 567.333221591 554.549640137 595.183318045 625.760013521 810.372998652 713.443296756 533.974198676 642.116592163 717.001220349 514.395537155 574.914032844 489.229876157 325.914521079 521.52946971 536.969849752 942.403591623 641.608835849 564.569528825 551.796494483 646.381153042 609.907083554 194.381503133 573.732550749 691.730813411 501.666825671 754.429718783 688.103099862 531.580455876 341.414635502 759.025781043 718.07475932 655.94195884 990.643697707 642.493577986 730.934757829 525.384695304 477.205789476 774.860453443 623.552028371 317.917331001 686.209288692 680.274596784 306.684621008 494.354494745 799.703956922 737.746920711 423.061483413 827.958718764 788.258776136 747.797403213 320.114450599 455.623498358 505.60218006 858.542722918 727.173282205 718.174658795 749.944474817 850.152006856 738.570359906 698.780771764 699.103993989 503.340477847 448.817853321 820.811668457 279.9303575 866.9344587 725.86417997 801.145382895 536.427105159 673.686843274 409.173043937 764.257598905 688.144546414 787.530623629 665.026270987 650.794957217 816.705414859 575.137732749 464.903803256 839.740130241 611.198151294 447.727576023 528.707665642 771.566389472 500.74403566 261.730537881 686.786691038 426.709663672 787.626545932 749.777954388 716.200231595 528.929834344 637.217041998 655.905411011 597.481799181 719.99500969 453.283011916 768.421714276 580.274454255 669.036699176 659.559998629 544.243656539 611.776301356 660.675970531 591.698454916 682.539667113 263.200753616 476.53873652 807.103195789 644.592683137 859.652979551 621.326457267 864.343974356 500.181445101 533.994472985 779.333311936 440.630586023 444.289443888 645.589971161 467.997226773 392.715394168 558.019554327 367.760676497 708.786658338 978.084932743 577.677035265 491.485797656 355.959226278 804.726837948 287.975914274 372.271936429 624.957431778 740.07634222 809.361793164 669.287886686 687.022310262 658.331319446 238.232044713 947.908006444 542.103103338 575.96486752 439.969528687 705.234658371 672.574606211 557.141418954 1116.36619734 707.786418361 565.862686226 779.78031466 592.512933842 649.672171296 575.843958569 371.667406906 757.148189892 608.308605412 420.450281613 673.640890293 487.735612249 425.42278985 408.868513391 754.557960408 653.157962467 727.770066068 673.652391262 550.253883669 632.795400063 390.148024354 539.995128223 884.956218328 572.149487196 530.575462845 842.143501895 724.646276281 559.599719978 610.636842696 699.196734095 629.519160139 514.932702907 314.373098821 983.248069227
fire7/squeeze1x1_param_0 408.148938379 445.830032286 312.095297829 512.572582285 466.489502923 293.853496539 221.43269462 479.890889623 320.510244391 386.433434743 312.040244825 553.674613919 275.868277082 378.499918063 367.827496727 354.580549135 332.174035159 386.303855793 318.307279059 435.894245792 382.539818663 292.636664872 525.656854945 508.141443046 314.141929299 612.741643774 426.870808612 460.368088531 260.818041253 428.801485053 342.659110295 439.542316264 448.346875969 236.43149333 461.13412682 433.87391752 257.265514065 413.67277528 503.191831063 440.35866213 358.658867329 425.370769788 459.326624502 463.19941678 271.99237959 321.073826037 415.429438333 333.223614312
fire7/expand1x1_param_0 318.801159244 526.013528878 625.051986277 574.461346582 413.307269081 542.769163127 549.405277609 325.537477376 462.428213266 533.645708607 571.599382126 663.658228413 553.954988531 512.128384793 524.156702873 269.926248041 567.994392848 629.70962707 751.82260752 512.534329197 672.982848259 486.286293658 527.194901315 622.164967242 549.073557325 446.301155914 583.41081463 483.71607607 629.661522713 450.414245198 343.427329283 618.417172888 568.427765746 537.568888058 556.694968878 444.339476254 555.981692609 529.758598311 588.044731503 666.892312021 495.824801497 639.935088246 651.442667975 581.574045177 477.553181506 699.928160263 663.89380847 660.375733659 529.418927893 566.29822939 697.422032915 646.517316671 565.996616569 572.627581756 597.252604826 480.838654825 449.662217683 564.360998447 602.210888207 457.79167523 534.309491199 514.435527983 593.716943856 343.42406345 493.844560767 540.234830932 646.460333769 600.122838496 468.554306846 540.737551663 578.609014496 602.988453487 529.657197833 514.539756903 788.314989474 478.407711621 490.262469678 527.718723574 528.290705544 368.404014549 557.594094079 678.142065035 583.424073707 539.601140815 347.814304908 572.762270438 343.714106609 332.859922666 482.72850823 556.891612745 510.485087427 684.351039837 777.70977154 664.400015186 566.255073794 476.098278794 525.983468365 525.149314655 325.727234572 792.337045856 446.999864581 669.29314257 575.806454812 502.124349811 597.410936986 666.359429413 669.97958639 314.581872095 449.266563953 486.082390568 728.821768606 624.390522023 454.040049676 622.427911982 694.873616757 493.044632703 415.776072078 547.109422967 451.21484407 748.923689328 601.899955727 739.935373315 759.093857645 547.19218016 601.871009548 717.749416538 585.647671197 625.595989292 610.54830465 510.518876287 397.100789437 509.115566878 744.170391349 612.155029294 792.670648609 531.549523679 718.351956502 479.88516124 652.213329468 469.720135649 554.468285919 502.589110877 611.437912709 611.76650872 509.72807655 395.165891836 579.02376947 598.367106674 388.121982544 524.5800429 454.869478024 535.926196492 518.146800197 589.158374443 838.763714751 425.648470601 569.784995395 538.970776095 580.38015698 554.120229709 423.393336627 375.709599063 461.303549788 471.901896439 614.471391168 667.804409464 765.586487172 716.149078348 472.781408765 724.730818433 659.707950615 612.824077209 580.621184584 508.456535175 629.146374048 582.111598737 638.569369172 922.975280044 673.84056241 519.565819173 617.920385895 401.171112604 679.895969562 651.254753405 482.939567459 454.023698998 282.788893957 504.493518993 608.816579237 565.377925889 633.799095187 609.160953721
fire7/expand3x3_param_0 649.104888523 884.263922954 833.223420284 649.039540285 644.987811577 568.738769332 640.003421832 555.310038677 689.918191498 721.43735539 766.145452493 479.525304015 762.784734757 782.201897753 849.259210012 483.34332562 719.214935741 862.42896331 587.344262584 507.160597594 478.105094843 552.563005205 478.735719111 693.702127673 668.863168971 799.390575609 821.885150508 607.317050139 771.189596084 689.787084118 766.978185265 819.249294305 593.186114748 554.38439522 702.240180281 763.024978992 690.982292234 630.727820469 402.368243918 479.887214795 688.859200459 613.797594178 564.858054094 552.798795091 707.263086336 544.716615532 630.847475607 833.258530613 576.689984058 856.609995174 699.258631873 629.700182405 583.725720695 602.980817205 419.865638672 783.347808943 501.689268634 539.988422482 528.511016297 737.952480534 489.486463926 747.803767646 482.825972999 791.66626985 723.653767004 461.318481349 768.253051486 529.855821188 609.085770792 527.769538771 271.731685442 820.99645056 320.233213601 375.151286294 662.838338178 759.327181912 773.957037105 648.290755411 753.389302679 735.677853693 769.802541385 437.909400894 667.596636491 471.648060896 528.104084795 779.729092623 511.994033042 554.293968855 497.458185225 623.020043629 658.702949887 758.610285125 806.314654953 710.221923932 842.010715677 733.885487585 578.440310872 569.920903418 666.135216568 398.352867559 1018.39246611 625.414427387 742.718584074 541.216668773 666.02142315 619.347564206 474.680024591 467.006401346 583.828525309 524.934706901 599.322591155 491.053558025 639.476640956 662.19098311 422.150110396 623.086634427 644.229641005 642.790278803 666.56356564 934.5016134 686.064178539 924.131986485 682.662292242 942.947858 581.568092487 556.424746633 832.562741474 426.652629577 782.956402777 721.186941435 707.530059269 535.149197976 634.822150301 844.168091438 687.001709277 698.585401455 456.922511048 655.477690423 798.917743629 614.862956848 368.969850785 478.95234397 589.821011165 840.910768298 776.842185244 571.047081627 518.159747363 533.72501071 691.520568066 716.790285565 382.680011365 695.637580673 700.868890267 598.206629834 651.924822191 607.403051773 764.157760247 544.388757858 687.26429816 597.943862286 653.949047404 544.259609032 630.135955407 617.924507555 799.861115068 725.848601731 693.820550387 697.893749789 804.468352684 794.39523066 792.93687738 589.024332254 741.152982826 576.140659341 475.290825489 654.327399635 610.144522518 602.73024975 777.169243165 616.314000145 724.37571382 439.271461811 551.908944494 836.21208177 398.298210187 797.427308987 575.870649902 546.752862973 576.909288822 632.889333514 690.70817862 487.419912806
fire8/squeeze1x1_param_0 414.160412569 350.913589169 176.317447571 345.932257099 280.216646386 321.34892118 344.695803596 514.175326452 290.162771195 352.250099957 434.146690892 389.953485921 593.528652428 377.025829916 346.876869258 311.205774064 340.610975307 487.509019244 508.578171698 428.359675487 296.609035753 418.865920454 391.873190682 444.440223732 324.474501905 473.373920835 182.659436208 601.499080124 337.651370901 253.570219352 381.233879668 422.162865769 333.973094925 475.516175636 278.182170714 283.437937628 400.812463806 440.063941364 403.111334315 462.825130197 422.220169904 356.597290542 386.298252825 262.721661192 414.768015598 308.577043267 666.991735175 461.057692626 438.662558194 282.951031041 404.303557489 454.521082839 330.672421667 298.197376201 395.681928921 413.393832831 367.270632064 388.770383402 437.727540441 300.951168077 490.760564178 440.295737656 485.16340362 434.008736368
fire8/expand1x1_param_0 897.257516067 927.444229842 806.268125251 635.803782897 422.742059772 633.060496581 610.288962516 889.315075446 1050.81622435 534.688943256 712.386111639 603.179338021 1101.5110743 649.05036484 695.162670657 797.457079595 1059.85403088 638.495170884 1322.71473047 747.230157469 638.767794353 531.620477469 686.926238266 923.918401258 712.649994904 748.753740814 709.175378339 912.440993687 1242.91894728 829.655300815 617.336159776 1164.81605842 793.99470678 1025.34286353 1303.94389943 578.733366796 752.345575817 1368.35718529 951.261100003 721.270800367 827.175159741 980.76177715 1133.75363574 886.533160898 907.292342639 588.981591651 690.66653463 701.697167722 349.64540923 819.442827863 748.127052706 665.707105692 1219.93900724 987.508077675 1072.58161163 713.054478794 931.990195477 703.36059641 593.579207323 799.505983566 783.053372293 780.89831512 1135.56483488 1158.68342811 602.887704263 947.490596939 663.583407164 966.194487375 728.0332823 1349.41588683 889.255875751 855.278957098 836.781447519 356.348894401 1232.76412515 1040.13799568 855.323590293 1232.93461335 920.856848509 749.654892924 818.202475989 646.820887968 812.218281622 732.924814033 1157.49353563 705.300606539 803.762334227 592.084148111 1083.54443723 799.093622722 654.438488128 802.371381935 812.221609997 1211.1045808 1162.50745122 847.312323442 428.432199055 881.670137316 799.750182324 956.873969049 886.411544657 840.552080135 619.929788443 836.619548929 760.974056709 621.740054819 1747.64601806 857.086456681 797.253877841 1088.33539038 1231.45867305 763.355408188 603.392727139 1110.70214322 1160.54566888 489.397925916 774.056429986 719.283767426 519.096428991 825.699827416 864.654920051 735.408574109 1161.25882431 1270.85944958 618.406224212 692.865962774 759.899670151 372.190911159 833.087731611 675.652325653 637.38578745 567.660571068 767.381688222 778.0196624 709.198746965 543.116114393 738.84913403 1122.68605635 977.73619764 928.600738843 873.19873879 1852.41248416 1144.42020671 210.850075629 719.312845791 917.070879203 797.00180996 1263.37210708 515.222729603 694.431150262 632.436323053 875.619046249 704.524600918 658.911183095 563.234769617 870.584345137 276.263913899 803.794626509 623.916979205 773.270279593 839.023567269 672.11443481 1538.88689022 1148.73632417 812.451720954 1145.29048321 652.240282489 897.468401632 582.423511393 686.670435764 743.668845511 362.589623028 868.328678957 705.82419376 1014.09490185 682.121662484 762.095981885 542.501755576 959.62173354 487.673488856 818.916633485 696.432191302 1016.83615014 896.110438223 983.843617035 744.435527884 847.949044414 1025.79176158 786.332329862 672.42379834 1420.14266502 473.216693814 714.987702682 978.872295843 668.263359327 395.322021162 470.77166417 591.33065912 804.440030426 774.986785764 494.592778577 894.430743272 977.7540323 747.02548651 328.675671348 1114.04812007 1039.69256383 1014.93214808 619.291759887 666.853855477 629.58286885 1019.27296809 1313.10543583 566.77846376 1038.5541062 1547.05077827 1012.47518096 818.431587592 900.968000447 853.624812455 1034.99330459 773.854999689 887.175172328 838.169640035 476.291600812 829.373776228 713.998786437 1123.66030012 953.824325983 929.846560507 899.931991922 832.644811451 1128.354315 823.156258689 615.859477403 625.43131669 724.754792064 705.132142215 714.994120704 628.32925126 768.033935124 524.320512 1270.22825126 744.441054925 364.232941195 574.5913211 910.420379477 590.698810913 645.213153927 828.679783728 645.405221975 1098.56722894 936.856754169 841.203751157 1331.11061501 503.6130367
fire8/expand3x3_param_0 881.238665362 769.130143939 715.318891032 904.017697598 765.852585594 687.362959339 851.8582622 917.536186578 1022.87163107 783.956023243 529.80944485 602.866210904 524.993621656 757.267062803 893.369811827 783.205924881 928.765785064 572.61830981 908.368224602 792.356124458 804.04122496 699.739788685 788.283054065 622.748544296 665.87452786 983.368664178 468.872084481 613.892294886 697.813238663 721.110850533 871.326547214 961.611881763 579.516539372 667.105077186 755.670010787 775.715073472 758.165230026 813.135311612 898.944346687 737.768059088 880.395721125 909.226326561 833.670055149 837.331680708 631.530887812 834.25351998 727.139470386 826.146919319 803.327247979 767.344724805 699.878500316 1055.04411618 703.944559454 934.335239498 698.723369327 883.694647861 889.019155766 880.047272195 823.902748293 538.318794576 669.191088074 842.987455916 757.494754444 717.898868277 711.055917353 800.938340395 853.295776205 828.467286489 392.889043616 739.182158659 904.524948917 822.488502538 614.850137621 743.757754987 713.386445816 432.806330771 703.45150823 893.431620998 668.93551041 689.847829553 492.351994913 762.296040765 986.218774944 1015.07067504 629.679898268 1064.79027469 862.909999775 879.64589354 707.911580592 591.226303067 811.432852154 962.240813506 817.570021321 953.395078533 719.714841511 1133.01691537 694.640282022 651.51582219 886.219737286 792.875724817 860.475243642 683.108115551 876.173817606 766.787389162 870.598929559 576.433416453 654.515232055 784.300503203 849.871741631 775.712955399 813.968660945 589.720614786 831.131198054 656.158755017 707.555023054 716.71162384 1069.87034232 595.95999861 703.745187343 622.696811468 906.868820866 503.376330257 721.875478804 699.514485162 705.16037932 848.421153604 906.256394246 769.361137179 814.59321816 704.510973419 708.072492886 1034.13224641 651.616840851 536.849607102 838.143510844 715.22416589 842.976616737 772.323461443 994.341799237 662.145761905 805.770898095 656.645742741 898.303751978 855.88628199 751.753839553 685.502104405 724.361184427 678.827108686 964.347135407 678.478337566 626.619801047 670.288463355 559.584068014 608.463992731 907.14854997 778.031949532 764.687675985 1029.30303516 372.315389866 708.251605565 796.500310738 996.222125023 631.19554109 812.415476798 886.352269989 803.865587681 602.83474125 737.222298217 1004.18669795 653.898623463 874.020511752 754.858430195 670.880191714 891.13536166 712.00796182 896.253674316 702.203035329 718.721542371 895.519790678 868.259237375 872.293598556 329.137820775 747.347902253 819.234804628 976.131949442 746.168920584 711.646672685 688.417129054 587.909978884 577.297716481 855.718023951 851.689030714 848.121434605 625.158721018 769.14145778 815.434007001 805.114078864 464.770804795 850.988049779 823.770794694 828.507151622 605.323226556 742.556291893 226.162728618 1023.53318535 789.997510108 836.992395715 938.876049744 875.668616712 795.259077341 634.097206418 573.834608368 503.679049596 503.151489891 903.994876515 628.362141878 853.089595557 811.531826733 709.567951283 696.438508158 729.435059096 989.122761198 829.996421876 788.401548899 873.639923834 825.458634117 904.195223592 611.899240972 893.108247708 916.678898767 1013.92141835 593.78891811 607.687112385 764.319283041 610.748339165 570.516316645 870.949102341 844.65307497 838.597582708 686.231555026 569.128088224 688.067046534 803.306047389 881.95342636 685.371236915 721.713488367 567.091890793 848.610803575 936.905364357 947.439828948 855.924875515 854.571028557 803.174401631 782.078943596 1022.22404999 640.699264891
fire9/squeeze1x1_param_0 435.040119043 386.852647569 329.01101613 402.403655711 415.949727765 445.094430989 497.171189638 459.273902804 425.471891473 448.87108578 396.955343264 389.195075703 351.630849948 362.199400988 441.215045456 405.675176579 421.663014356 406.45775662 361.543941192 383.983610597 464.400757006 485.847803111 463.157480676 540.267775446 408.068425516 432.521278016 489.697116341 451.172804782 349.966925458 345.249584866 398.776075754 431.931807403 436.538364276 444.875017891 434.098750597 406.621696495 496.495549857 381.220101387 436.404248758 321.443722852 397.109892614 327.326994871 301.457947649 393.910941677 278.815306387 331.058940573 370.087532637 426.478588315 463.159393562 448.086454957 269.224474499 454.361158134 476.944616101 454.523603766 377.71621662 483.03125899 404.286757168 349.783711951 265.846189473 312.280733186 352.893363573 431.142234521 488.701029154 364.127061453
fire9/expand1x1_param_0 292.442548361 466.007175006 517.480156358 449.528264054 454.767781314 509.903367537 429.961103843 388.872592641 369.59441303 449.683475454 468.903710527 370.808080901 423.372304517 443.828749734 520.549623692 397.841432837 394.437285179 353.535050629 440.481514489 507.483901838 251.499458688 490.131592816 346.888446242 362.844543457 449.803325267 404.818138655 467.306913147 508.106423257 414.240126152 486.140615298 519.853987029 442.030882113 349.362572555 369.924105109 387.72262676 480.357617468 373.599683896 433.898921834 331.158786794 480.065833281 459.082325492 450.959098872 394.135840217 462.506307319 429.572496718 393.703030702 502.922161305 340.632702032 451.863287751 416.037686375 367.860042685 397.964151022 516.296551344 444.051249866 437.636239877 408.570742477 469.487002551 513.802088287 341.306897279 320.533195214 478.34847852 371.904776467 407.283295959 457.872146675 476.638408994 384.277378644 464.227180641 470.118212519 680.148919828 390.251924284 330.228294514 480.759237642 319.592046566 413.19545946 388.304931532 499.27013146 473.466013634 500.636203851 476.46536798 562.413408505 456.616169161 412.092118276 439.783411813 504.553549956 463.776569505 536.806157116 393.706668076 495.186013053 394.797484992 325.327002808 550.5150504 463.893495757 486.293896182 481.450568426 461.447912061 439.290480495 375.709300942 463.920211277 359.285934555 510.697527018 429.807067901 511.75436249 463.360183438 480.192525363 390.854797982 405.395650462 551.904977413 465.850168416 434.52926553 451.426736175 326.326220938 486.437389839 490.049414643 361.109753171 464.546963317 395.007981799 499.330914998 400.944491174 361.80439647 495.13066407 391.135805239 540.359849612 369.927798062 477.267733242 656.293611575 421.967855522 494.514664113 490.341616132 362.82140461 537.060058632 455.743708838 313.430513906 503.54840964 381.131793982 584.160217937 504.513109618 390.828522417 391.870487995 432.106911205 477.649531123 433.857573502 394.894105611 344.649693525 386.208662435 376.905782507 389.747948145 481.667643322 347.050068178 530.407227527 430.379013355 431.705101751 516.332396428 383.5155986 445.551841485 399.905524458 343.087020611 453.284747675 484.963697139 297.603380547 489.429065158 395.028926646 546.321149432 433.96869292 346.28386415 570.457586083 469.013118988 398.27565164 416.361496126 471.791763033 372.980782979 335.215966722 485.840269919 302.938672841 552.654121903 409.330256498 459.794719444 382.067198759 516.159034981 398.846019732 490.067392286 394.32253365 493.463071556 590.832182829 550.803837701 428.99807035 502.542702734 527.916909147 484.169978212 352.103265245 438.120869137 331.111673279 412.053666023 416.152990401 439.7697056 293.940167554 421.92453045 362.294675422 544.179056768 401.012518641 492.627073738 322.949786893 576.699895626 472.820803964 482.680391992 363.013462994 388.193189432 447.475485633 311.991949469 534.58323251 469.489071527 536.859650629 371.995548707 534.292843853 552.796285247 389.735614927 507.975535617 532.216805943 560.132555454 393.185318678 380.496099199 532.978040393 365.918682388 466.318086979 461.53462279 479.208931382 450.714798047 417.297132699 629.811908144 488.198994506 529.097363541 415.178538606 506.634216051 545.185549697 409.848970139 452.88582474 567.950826967 550.25505602 382.389983484 443.672055981 328.7264303 483.119370394 413.373662122 417.121288802 315.907509226 459.170920024 410.504196351 344.915427744 405.396383218 367.247716515 399.952327974 506.144813231 469.520004892 398.574144818 431.362017765 482.902517536 541.214812888
fire9/expand3x3_param_0 742.402154134 837.487353712 545.224541914 688.123211372 760.594163358 706.35435447 847.947863323 849.518663827 722.684500767 900.673984647 936.797749001 771.186525721 859.857140335 816.392880464 776.34486558 665.975677286 675.451257345 691.625787011 735.692078559 649.028518392 660.195057662 977.31284363 1044.12593987 332.326406027 964.260287944 851.139152463 609.724872605 820.463283686 1000.20874524 746.87734197 700.121176753 782.326685853 668.350245902 653.007479897 571.573430245 839.617447377 717.410116556 546.902253421 628.934897524 819.104735489 722.507691944 811.44776247 803.333229777 1020.12422334 772.334939414 761.761126918 480.898723355 634.593233131 919.23010106 877.44940103 759.382253828 782.200461988 719.464467749 800.988999451 637.198033356 817.245540273 634.898145893 826.392521494 720.715278073 766.206064111 711.10059046 723.121686568 907.197216126 689.092789782 681.416717589 805.564960695 676.841365248 693.288671279 858.531480031 675.530117544 922.215362628 518.566573585 694.092335632 972.418787794 801.359012323 691.96253437 792.628407684 884.302549091 874.3803502 802.078475803 672.343646179 880.686927943 746.763867526 939.943073775 746.785067743 526.76251357 757.969894738 733.985283824 701.934747971 985.635964803 928.928865025 817.470431002 767.631128903 732.166046937 890.556370142 839.028440525 693.140946502 668.621846565 745.34162697 801.316669091 655.096496542 696.143502426 772.589081896 830.290906643 761.041803685 873.671268595 573.823133766 487.66366666 634.709396349 829.660792727 639.633624058 713.126432463 1020.07971913 766.603514323 671.707298289 790.627026342 655.437313057 915.824589195 919.709015944 966.255391635 881.127697792 761.015165522 805.937309032 638.556068662 821.76699503 735.175636904 642.688294856 731.317408027 721.0323357 717.918945016 856.660536472 662.690524739 814.411695967 961.447320623 738.299150934 789.810826848 760.463794072 753.73243393 802.826002298 848.357223925 846.303859187 625.488416632 834.403720833 713.826679874 783.168212957 628.257459761 697.04927993 833.533894902 853.05603871 807.910588263 953.565216165 898.094177158 833.848598449 553.529985306 881.997236083 868.858569707 901.450094891 787.796832813 700.941403209 598.705015105 768.974837867 805.477484398 805.014458348 856.510221603 768.599669702 975.826724986 822.225383889 807.356417587 780.972733479 937.271956949 507.717047549 794.458987628 610.015824949 557.179335396 804.03993546 802.057114636 1026.99594447 939.256089999 886.473869965 774.131870334 826.883361948 725.376194187 819.061047195 678.508477469 755.823541081 761.439083002 666.574513417 779.105266468 644.95393839 670.764929901 856.133203108 772.116566529 999.089363296 739.193570246 815.51070577 720.287509699 839.521427344 756.635587244 698.671761017 808.452789869 796.906943714 874.362409547 741.443901527 687.864240602 624.389698641 573.198943108 489.210162738 752.920218596 800.007446238 827.321376808 677.788014144 664.324871248 873.904454646 737.923089577 875.247221883 618.875075736 873.591746844 703.7994077 943.615911795 1099.14541122 849.001183227 825.521238065 429.074568875 825.694547805 882.700246763 831.373609655 743.317893204 693.397870201 601.110015256 1097.87381664 823.502956188 757.165678754 499.852248091 803.611746983 782.382918129 852.141884175 924.79952534 361.349450846 797.41216339 666.715406909 556.119767274 882.409808481 693.760063349 716.786728838 890.421274932 663.990218584 753.711370662 837.973504826 958.286716073 695.809093447 726.80357039 724.250632383 693.513480296 766.102616883 627.709883543 923.780705172
fire10/squeeze1x1_param_0 642.20247386 307.615719293 349.684285951 903.284356084 613.452992439 704.762992695 741.66043336 323.663745266 707.799878966 610.708601845 782.978197245 608.489101875 713.71979791 664.83215067 663.99968525 623.709550752 635.778218597 479.859385207 690.21112956 707.906523862 712.741893597 595.250326843 660.106597274 641.149772731 647.896003685 798.951744878 851.873332851 692.515956144 649.807099335 688.196889542 616.223006288 653.170626785 839.209369246 823.663558786 749.620672398 634.559970457 702.29208565 736.867655154 713.685731529 473.062249449 739.258199814 678.108234907 529.777763412 805.842437232 747.928650553 904.642080378 299.9226276 776.213141576 852.751244884 595.944538476 627.023732557 654.288218664 787.254922568 322.669355393 658.329946453 378.580249638 690.821157635 900.076452408 750.87343599 764.569480001 732.39022047 433.482441593 336.284808557 720.285074768 533.497894665 663.761600431 714.55118787 731.822660193 373.012092351 876.363012756 700.420254829 668.41571398 439.806877744 893.58187167 620.002395384 609.688234129 318.81656701 599.810216533 330.665391208 780.693523207 821.662577358 412.528905107 612.310936458 338.7126434 663.483757822 656.63263977 696.443459287 732.518884943 761.234442227 644.818432424 597.599227866 606.493759491 369.615955315 822.167323684 570.910406564 636.999725105
fire10/expand1x1_param_0 424.538822162 504.509466124 493.441872771 565.010274408 587.349241223 526.407099446 557.030649469 506.854584413 519.929813713 628.511860851 465.627881032 438.743491195 585.598176618 482.139253579 487.086805181 446.353278745 647.949988763 590.996964101 597.121548212 499.169774491 442.926656436 452.254410857 538.360551407 508.867493103 474.055444985 535.549328068 536.560028275 436.902232066 528.184923411 487.906938221 448.504859981 571.531613191 547.019036883 489.324252986 531.328660397 573.733323191 503.446860845 488.238036348 592.961895001 505.350056376 560.901449384 466.281757676 509.788414521 536.948638486 464.010278884 418.618913828 654.714438112 610.861671441 614.457480771 504.648075406 535.944866791 564.662553594 487.326547712 543.463509502 527.869890758 490.671903678 441.465754703 548.904453572 494.513803327 539.856189201 540.874988244 540.405178891 480.515454162 484.554638846 522.027156135 562.888969845 465.60936242 510.443782418 544.016183328 510.942548992 515.809601784 447.70697313 535.117647484 568.906607495 535.622296295 456.174980375 467.845142781 578.049482129 512.284083471 524.977937787 484.315083209 538.006707704 462.773612579 491.135677118 485.051079547 415.812341512 548.298065375 575.587870928 499.040703185 474.251650205 540.327750255 535.630139543 535.136799096 489.35605719 601.554526037 566.725926722 380.705698338 485.243122308 581.162168631 558.117121207 505.669615547 435.564239603 481.386011584 496.982110377 550.385964387 569.287524266 475.756717501 487.664001501 492.988164456 530.088945681 538.652417924 583.426110547 565.10692913 480.271160003 516.28688716 410.368012154 474.032084224 456.24350272 498.903345993 614.32678038 527.33284763 523.262687108 473.889438438 536.508587051 504.756028295 505.788331296 551.062783324 473.641041327 519.858299455 552.103294076 544.781308179 496.067103775 559.183734356 539.292274865 540.934479963 548.788983971 502.771566675 494.150475056 491.833920049 494.360229678 560.708935849 564.984093414 585.236556863 544.708503922 495.41887892 537.428822362 455.831945771 436.355942662 580.574948391 545.162324426 607.09093059 506.108024414 417.533908385 575.576326101 496.241791319 546.729994985 532.034708125 453.366198649 483.490019979 558.793132165 618.128732963 548.170263635 520.431600559 474.287437309 443.82172364 606.276877935 474.844680773 485.542342346 538.226122998 578.136021507 500.133602189 506.745069257 481.382966365 560.383878236 447.695496542 525.527496169 424.494502427 533.045842192 457.864226164 552.854483623 410.78847783 466.121659858 504.609591745 562.073731627 508.612983377 587.526138864 484.532105016 446.927293831 498.883487749 516.81431688 560.204091723 488.557597378 613.004794597 526.004893433 433.031158558 509.60726062 535.900215264 553.939938762 504.167331844 496.809681452 520.606635986 466.78249813 513.881055116 497.904512779 435.963589672 565.047696092 448.425004685 489.753058275 531.337405279 309.316272866 436.863981773 456.652720587 475.162732654 562.647875705 541.864668519 593.445460217 538.767645618 532.027501197 497.530203731 586.991641655 463.210846062 523.403983037 497.025294282 427.703387482 554.476005427 501.103869673 542.764877 550.378180633 545.453794965 516.006939324 522.295847458 578.788114466 463.885466552 550.875111609 484.495140852 473.233247406 565.176593478 550.493680012 529.145422168 528.269126609 557.399359857 629.249540752 422.226528694 529.135993711 482.685859264 517.887048609 538.559767581 483.448826891 559.821770858 523.953180509 610.74685111 463.05229626 471.115477447 564.193627692 460.52739316 522.279780269 430.746831523 556.002004075 522.999996686 571.186042375 555.419183748 515.157299544 459.921261252 576.604267108 586.921224857 476.82043212 558.936162519 502.371191468 409.699118468 518.958586465 525.311834575 574.981714155 506.258760244 555.72748961 500.500906241 551.021704738 487.489444262 481.722201297 516.55539829 529.35480733 474.015580153 594.381962834 521.08736447 597.768979834 541.855573686 495.271016819 482.849333198 549.598151125 503.015720168 465.937318969 426.344140942 575.295971833 527.321362941 450.539772168 494.008523111 557.559586302 505.339329462 587.664970197 487.777594966 423.778172178 520.829431137 520.29990888 421.458169656 527.168129372 429.993599054 525.788645299 534.507530138 534.697228828 499.541636589 500.833136357 552.55888542 558.653507266 595.401442979 552.532126222 543.834910729 509.743624635 566.477995971 596.894176826 540.483692253 592.598130987 585.042400344 503.156836656 508.146502533 545.755921538 580.0469783 546.096520417 401.319589524 473.401739497 525.029649597 488.683095577 471.978518585 512.29510725 526.391916214 537.967484588 594.055540275 545.401018282 536.504365458 564.168792057 616.899328628 506.4587575 489.557598609 451.498622962 569.52779734 531.319253345 464.088605001 495.431435142 525.746578059 485.053398397 508.458294531 488.700020356 504.843033906 534.322186755 540.090223971 512.416739025 497.445526062 491.522192136 453.120198984 476.614846283 544.616960433 598.134378271 365.14598632 523.934627752 566.078456505 523.458310849 497.453191166 528.009433615 539.662300376 510.249332091 574.629286614 419.414341715 502.248036284 465.10148937 495.84164764 498.414766993 474.675847522 526.207836403 496.127456428 455.158894877 469.073728472 545.045774613 544.145598795 489.489724985 433.102719654 519.807759779
fire10/expand3x3_param_0 892.827288494 741.577251081 933.524809835 893.712211024 941.735379654 875.906200994 800.362121541 900.169330774 760.729330397 945.924459234 970.678677832 825.887777551 806.141911875 673.353014847 836.322528201 963.031699792 957.076087701 901.799575893 820.485794514 799.482959305 960.772959285 842.98211967 818.202475989 1007.72054438 771.11996069 734.668912353 706.012931658 897.750871409 751.801518224 909.870457761 886.602328307 876.039268495 961.187847215 797.767826376 878.272862483 850.135725054 829.627680831 804.058368114 765.562143036 1005.17822175 811.656177965 950.874149127 846.57925303 855.00182059 912.631225197 915.409485546 781.337588561 938.933661983 627.63180891 970.814123168 608.163799278 1024.43060669 884.034437699 885.465848194 732.15862507 813.265198962 946.029561392 958.389087163 477.790699961 916.776122845 740.561405161 729.451415985 805.041072103 683.650365568 871.845923477 818.73601098 805.301751782 897.822651592 690.261998619 936.664113821 989.356420878 1019.74352956 889.438139528 974.27851309 816.553146692 860.731339482 881.41346407 903.662471401 821.624318649 766.252424695 865.22372404 769.459561469 847.754967843 1043.69350982 740.179629281 817.449339788 924.183995209 771.721975565 756.488911481 967.800718229 979.87661879 767.040999688 934.358286534 955.028984036 927.727911422 700.772133645 927.343721 998.549856166 674.868701819 804.482552528 1019.35080605 865.582595615 674.294032071 970.300515603 991.472525366 861.339558255 961.549934209 1032.94226379 1078.3387737 930.246230286 1000.57381587 910.682939407 669.712670495 952.828462327 845.365454505 667.945038199 928.135161371 834.973979688 913.651150074 982.478909413 868.847763607 1040.03854774 961.188606022 854.305825286 993.567701197 899.507527553 904.19982811 989.090849672 750.96553233 734.454227908 915.73730749 961.469880717 604.865618368 1073.44937244 961.835219576 856.686455192 811.39546289 832.696876116 807.096011256 1068.32114568 814.143763935 810.355662228 882.89785037 1032.71277953 885.952764644 1041.1476396 1014.71971685 838.493298951 908.657017128 693.561112259 869.430347545 857.255770703 968.927710353 1015.13874359 1036.33568722 844.023131242 825.425057368 761.635189749 918.474751989 971.741805329 961.812642334 843.088440431 794.544086911 1013.00684694 1135.31335356 580.97284423 858.076908742 735.351023878 928.235639663 989.62902934 772.330040238 762.859974068 904.701329725 833.861488499 615.714168123 901.436365361 805.521715034 680.569020037 844.117842964 924.062450248 1114.4847904 1082.11943933 549.506940931 937.340918292 711.247345223 825.526995227 916.99875095 967.968451056 892.673925512 873.042743502 726.86103025 1083.802722 776.476280593 585.720197878 791.35577513 668.909679885 848.244167145 834.14378259 912.921561692 869.068722074 704.723890513 746.18904175 1024.43620936 1013.84772393 1016.5685973 755.052967566 875.487455353 1040.98912576 749.934906466 861.81528402 861.389788618 1005.95591998 936.282876362 979.457600387 747.261539346 796.15313954 895.553195666 862.226981468 826.476424964 887.27482877 901.615740292 997.186774574 817.9888013 1016.01138509 742.61808139 982.666271271 869.321092346 958.816911613 803.974783183 757.249300132 955.071792432 965.23833403 834.60047672 826.41984635 979.201141195 690.128357592 645.37824444 939.051183909 682.558689435 710.971866444 932.19794501 1035.42754787 903.670711479 915.68791755 1048.50988763 947.673069567 856.994069094 760.945249214 760.577465993 731.908948081 1029.20278964 926.456032441 1060.44633199 847.81155379 757.941449049 761.089716301 892.231992599 832.362230198 770.143113101 820.746931381 989.024507839 862.666052744 1061.94404376 935.991986524 741.536537931 897.844310845 989.281775567 806.479382737 793.612321719 920.035753776 661.819621695 1075.30964239 759.557061966 882.4596026 792.013070945 974.794446383 926.889684604 913.529030409 809.821678618 878.104825791 931.347044948 948.58036453 638.114309177 852.189598915 970.22816572 898.751437367 915.080620971 985.923976223 665.182396462 885.451497345 899.054062282 897.14106129 789.262781077 934.024471657 948.809519505 869.821745458 838.53487734 837.072217248 945.776767705 738.04284044 941.850897854 762.432700095 728.174978138 998.677627699 945.030618265 702.116147692 590.825178998 1019.18399015 886.254663825 902.081628255 609.510469198 931.335035698 931.921000175 578.278297253 876.858009165 771.338049364 926.234426109 882.59238393 820.677858144 847.785157319 830.839680732 755.544204007 908.304912354 730.298418049 774.773460989 901.080973344 802.52535855 831.471019477 992.880278185 800.476456936 950.321226739 802.971831722 938.431731907 701.582393947 753.069506034 901.813698177 940.768221231 859.381666936 945.393425926 809.375858834 925.437178709 812.489517451 752.778769491 890.328444 821.763984134 751.29884252 961.266986396 911.170813543 1010.85571024 744.403602697 982.944047162 823.420212206 601.376082735 696.550921831 812.316209152 927.929117526 1100.64441614 818.015180668 705.55803911 761.903792549 959.013053556 920.615040023 909.210419255 905.03392306 988.168716302 887.554984182 1086.2557641 832.401739377 1011.86285683 947.960406189 908.615652944 869.676893377 874.485228049 764.449126409 971.624266593 1033.03391076 655.013978067 721.24760599 942.361598715 797.373145611 932.513314052 1006.92191488 895.649754797 971.111793399
fire11/squeeze1x1_param_0 895.465407043 649.09757203 579.982519733 913.747634961 822.453659004 724.174632042 644.923972858 646.735288027 839.57303228 738.32025701 746.119014325 735.286250987 647.117030353 922.252186106 711.49310068 775.50395849 759.43205546 505.712101939 776.727634881 638.535209984 761.260755763 786.256959158 945.163507093 654.602149824 960.420007029 626.941954566 864.878928985 762.811292129 923.372464845 806.638299322 763.232770875 890.602993085 709.410728244 735.328945255 795.724912749 717.433729082 869.466446815 623.136336288 742.455509733 824.827688298 817.569315477 900.590803874 882.71560565 733.074410595 640.216156658 764.528877859 783.47454745 784.592411696 796.403331264 584.171108676 836.224552714 870.833770445 717.516354959 912.993147752 682.256971743 791.199958039 848.323193957 794.976159835 839.725237624 785.751355456 659.046460052 687.730027966 868.669590286 676.468589365 793.721040696 869.440813364 807.654722678 866.447164399 814.203418788 809.97221614 712.976157683 771.624857892 690.177873075 711.56004636 822.875789849 652.645445008 879.402737647 1035.62262637 796.424466757 739.224857753 922.142821994 731.848927767 807.416688203 561.355377098 640.830973033 621.647723857 648.743117515 780.046377968 634.0934323 733.962655065 753.144704387 832.011364709 809.585825926 779.164669394 685.396259942 688.510893123
fire11/expand1x1_param_0 562.039816155 609.417159044 586.562935058 510.326996659 561.349165596 576.836858429 492.516219793 556.434664075 577.223116569 549.199126419 557.383976547 601.312184698 556.69835059 645.961843285 515.05076602 631.204983918 383.320547985 557.677134521 536.648815451 558.585771114 577.874678706 624.033378524 491.078570029 551.767594337 499.22918843 491.099622831 510.689907338 501.694997817 587.585317471 537.427399029 453.825262785 428.417425339 572.125444039 547.446193058 498.539665277 509.10708199 519.469295951 515.34369907 469.097171093 520.830513287 600.016454712 463.783534961 482.239645696 584.565811467 502.455954941 525.592832057 593.63551817 541.594193341 571.144205435 550.050006202 484.084342701 547.521700753 497.225313306 577.48950483 561.911345151 520.426801936 561.823483621 564.585460928 578.317536408 561.931314146 557.192776756 564.254997893 560.248944672 550.6462604 604.52946941 612.809271923 581.69860339 534.602245288 609.272695818 463.131557592 418.397830394 517.247754056 600.595049299 533.51813282 502.166952626 505.791993285 509.658243808 546.250733893 476.726923243 530.666575678 669.805040388 543.349901796 562.871980957 474.70434822 596.288601469 535.491014902 525.87098294 570.19032008 533.668798359 491.247156265 564.799434646 542.525203653 583.083761904 567.635429274 505.306612188 475.782479615 475.049430453 570.407037078 589.820113159 614.518398796 522.32247892 517.503282385 492.193450592 582.204926662 556.822120409 664.219201339 589.088088337 550.081886491 530.991506454 554.039865813 483.85519541 477.003822377 550.268946978 452.062361376 614.007150956 588.599928673 530.070780045 512.744005261 528.976483619 535.521801863 585.47129947 474.812036662 541.799633402 517.97974216 552.476144476 541.14849055 608.794269688 403.862992163 497.426654653 455.040304592 505.486609639 552.855918118 595.608239563 578.70857065 507.149612611 506.751517105 534.104369123 451.845656165 542.580188536 574.856681043 570.475341447 435.094442286 535.107534641 515.786377164 419.869030895 462.827492743 513.297478744 567.146646906 554.044187796 555.47033312 471.690400066 560.094383255 554.893178307 593.675628591 572.796375966 587.603101736 499.096812941 491.770861828 601.21169793 581.579997988 488.439161575 490.150873168 571.692782397 469.910850636 549.257029964 623.188187743 566.320693973 627.023686427 528.449212469 551.75923565 467.138992669 490.940074018 524.42384823 525.374364042 554.364057534 585.903687646 528.784817839 429.580767775 483.548832395 585.980830341 579.53770047 547.73592252 522.685635418 506.207522838 604.933966449 534.383629707 604.820247551 551.290233626 566.677355587 541.229316622 604.518020758 532.866508302 648.8805252 524.56415773 615.145425936 558.466119652 395.290044749 465.73515516 535.885524011 611.65472802 548.827892541 515.167544277 607.505142694 571.619393901 563.564895464 487.64313062 571.926608566 563.819867942 502.768066927 537.797923173 507.773249794 586.471473666 595.205680346 637.774942932 512.23091118 545.210660324 554.452378638 597.621394933 576.340994189 478.660758552 495.560144311 552.074254502 555.412885751 564.998251075 552.598473726 436.250609013 567.720315391 504.524518274 525.206044399 592.857539813 469.988641736 556.103003109 456.386914349 560.357387378 569.251972252 554.008137319 540.125410014 529.748851643 643.100937824 501.24874997 465.916432465 420.098753963 545.049225417 375.159708177 598.00822129 564.53104865 556.4317215 591.004832636 534.409196014 534.170382088 549.005613332 541.268363713 507.72110047 578.876526501 589.374631754 527.123819792 431.234729156 558.928721523 518.764163699 666.697518165 592.391236712 440.980272572 518.551050518 514.137640169 491.8747945 498.549055586 604.728753989 664.623216747 573.688872531 530.001722432 545.055778579 565.06665231 565.880720289 516.478925072 478.612052151 506.903661593 556.785853025 659.048039885 480.485438789 504.946582752 520.356930025 632.857048087 494.991310788 515.881068067 543.463093651 521.142996907 603.140835593 494.324101817 415.070040204 620.314573389 636.099368172 546.605096583 553.949767824 526.95985112 502.555741193 463.84335565 629.167181177 564.909683723 500.297010272 508.234256715 482.674651491 579.402760931 526.963858679 554.534449799 542.44174602 572.079821366 458.314013521 587.361425078 538.280375853 580.685864326 515.298270448 569.450093457 588.388098315 577.315118081 622.894416178 558.658890249 554.781711943 538.770949266 510.765624621 465.840543615 454.500237787 563.199374078 462.305353858 473.63156568 511.503404121 528.423295865 533.017572679 600.851892444 565.781885196 563.405147287 525.153488873 617.351408199 498.563637512 659.243844921 484.780202771 467.52593404 606.082605849 537.60011788 591.308751139 544.222040492 496.022989212 628.948264387 481.626760166 548.081465233 471.970520704 492.882050561 601.492500316 548.788029879 547.738351421 565.999097358 477.358192537 691.137168759 548.886177369 514.548144259 545.525925653 491.77795578 530.444002347 479.688641655 514.29478039 429.946267876 490.476331026 456.168339247 526.482931177 590.204178119 485.328449769 507.001361906 522.522910152 469.178515534 495.167945601 521.495420255 484.801105071 523.418705081 489.647938519 573.397391355 598.097062829 471.650879791 511.795726217 494.154085067 562.568695643 576.565377106 559.616107713 527.36860998 539.166862809 469.985531671
fire11/expand3x3_param_0 837.257978378 888.12739444 1038.05180475 833.574412195 948.933858637 836.65872412 809.688042659 911.146558403 911.231408329 984.034794649 862.187817542 831.074223476 942.945875814 971.12805935 998.277339367 886.343697482 815.249458522 885.597419319 903.63641075 874.321238531 703.405468848 861.325543549 739.66020827 827.074178901 839.160948709 901.558515655 865.993149542 863.450178372 910.560930892 944.536700207 953.325760859 774.108315617 915.434459814 781.089040564 931.312849932 713.280292582 753.800497662 862.562070013 800.052279787 659.846364682 709.904543499 688.579480526 872.496394775 737.765249083 765.993483485 909.922039343 708.33572093 752.436638649 956.915976052 802.447229566 862.064156161 801.894867297 787.248232489 730.618516239 721.57735039 834.516876816 949.398543557 896.863316414 856.100782289 880.156513472 882.063415271 862.424948927 642.319261433 870.579898764 801.157507609 884.894841237 1013.70916883 911.407198286 790.497890108 747.390173622 771.804160402 928.450922418 969.745851302 751.21580175 782.179500421 834.546947971 745.617644213 843.659946319 774.505984755 918.883031119 823.571232493 868.32089387 632.500952185 706.691185474 924.10853938 872.115972614 683.989050494 990.178723537 907.450480278 836.934779127 706.465366035 853.352335288 922.030690846 785.662624796 889.655673145 818.557826631 751.94140613 736.421140238 814.064833858 847.439877619 846.495085898 800.626623432 899.593641771 832.91382806 769.031248771 969.215627537 801.392995627 767.097679552 974.122280848 694.166279966 763.676475192 872.0377152 888.85671562 894.849864998 919.088050177 795.300634359 808.570906183 842.046570485 831.102750311 816.402186543 1000.75345465 776.54674528 755.001330824 722.94227218 810.560048054 925.018035996 601.434264671 823.858546695 613.606292419 733.0257992 1043.47985647 770.898927232 721.418241615 775.801853807 878.560130594 950.053002292 765.695023087 596.957222934 939.416040964 874.914870675 854.663665773 768.823894413 864.803632189 826.640434514 836.42733979 823.13455507 955.562329377 713.658122216 881.966386283 718.448117637 766.942226914 897.4538481 553.47638907 678.317528655 808.09673238 806.152968265 896.240762343 909.181903891 830.907639944 907.384687552 916.427749866 853.722204554 897.150599434 908.936299678 685.403039623 794.079706623 939.125684869 996.359551581 742.520322847 831.768418758 989.334485472 819.127880365 869.192362536 784.900006133 938.744302544 986.229844738 858.835660658 928.468420425 827.30483346 644.921142382 718.95180942 954.759807185 885.97551277 768.642507729 833.496397497 897.087802514 938.475132048 867.628756429 1052.35342833 957.701573503 837.195555415 708.933402983 982.218715066 858.827092896 815.865752255 622.002004926 844.641439553 901.134802605 749.9903403 674.41018984 928.752526579 841.2131333 687.270505219 695.584894391 875.060394879 850.945057359 878.274491586 702.519008543 670.796605793 738.335223867 843.620613786 751.719029323 922.810286876 901.444374203 983.977194999 898.137238977 927.934775184 830.046296552 817.037221154 745.854896708 899.060985599 911.738206506 803.130428391 810.077533314 820.569450835 852.989786632 833.866465144 657.723846801 948.178607438 840.197093783 826.501511162 825.901863254 711.435847467 898.99545546 869.11533793 711.293051552 927.36602078 880.810437409 780.526650406 942.320338857 816.542350797 741.395463712 830.760638472 1012.11051005 827.38354074 758.208396723 837.575665448 762.302245291 924.378553719 747.732059218 938.348042971 992.05879608 468.87358056 1158.70304015 844.239419427 812.767832694 777.797069754 899.044957808 869.243512999 761.651389061 860.117121626 914.763970721 697.024538906 875.272030312 699.276187826 793.326439142 884.033429034 765.127510214 786.047897424 912.810488614 982.454559885 822.594876914 855.042050008 881.064118134 868.375215455 821.700681188 837.570973676 730.744616639 936.015732151 812.519029045 792.611011334 977.051345711 765.449451237 839.856890111 796.370588348 839.898603846 949.868447607 929.066986195 771.821913507 990.782123335 952.901330042 839.288374471 941.633622234 913.073059659 991.171004509 927.445239077 864.05716621 825.118595967 1015.06039906 875.116910843 1006.56634433 830.071599936 763.765647569 814.445861416 869.763426042 649.898866562 939.157868801 512.947863739 952.514853579 786.442764242 944.018725248 997.193774987 1008.40946781 621.288954768 738.819991839 668.499913563 1009.9494112 817.49348361 854.39746284 878.80544852 876.991907493 970.45607677 672.313202914 958.472401042 913.375227638 897.230028881 939.362407321 790.909204866 858.365033262 953.767647021 762.650815471 967.905461992 1057.24231725 922.284920555 875.298817804 797.924896721 913.561344385 884.12366781 807.999896095 902.607068883 838.844369879 792.223477214 878.228426495 818.049099499 988.797658487 651.847537828 826.626403781 713.119272244 760.547195404 850.593124736 1086.05408566 818.724213502 811.01195846 921.179523867 737.77872453 845.513224819 796.164444248 801.81625755 767.078417124 1035.40377357 824.072669941 871.77030045 1071.33892047 1015.50910933 926.772365025 926.876882829 850.557472135 822.933076107 873.049272004 887.308729993 710.660037484 787.243724021 783.79950214 767.836941 768.05462987 759.084460049 909.283461659 773.477161583 760.299623589 819.177874613 875.572719584 913.075309523 887.301247484 811.71492766
conv12_1_param_0 639.532063363 470.917434656 572.188436791 727.967367126 765.044062789 615.041594491 626.829400584 634.566632162 596.675249407 805.63486403 588.362467961 619.420530021 658.808297707 533.964195913 546.230358442 708.080022737 626.140296056 772.66906985 682.760128717 607.035324153 645.159965775 540.1962752 633.932272216 581.82615419 660.633772432 610.325410995 561.482854165 552.568271456 675.443816634 636.836703825 738.474239953 685.764044551 687.608182955 633.33193343 665.918126571 630.330245517 740.252725346 682.883216089 661.057124167 535.404224823 627.27588876 719.124333512 581.38064512 631.061081564 676.940282368 579.520598085 655.887037674 658.443415663 780.203474782 776.843318172 674.069513387 732.13485095 752.321668004 717.992004794 552.411115312 649.181820557 674.302514449 713.073509903 689.131736738 552.4139081 728.993949646 615.994793245 537.25868586 738.895125724 611.983117738 682.798472513 721.824306421 726.898039954 537.233692799 732.444916232 725.747853878 585.416044244 697.187497127 670.315982074 581.761418743 669.309068401 650.591324875 603.299828591 597.419019118 700.808551108 587.088401354 609.802002264 638.565206723 615.375453707 608.947338232 626.912486509 603.440746614 634.778462256 620.706978657 691.927479841 683.137737347 703.333664088 614.798156477 693.784742594 520.090642003 657.174192505 708.862410844 602.685923216 622.24500396 599.123862938 567.320155101 659.89939623 476.944242438 718.617976373 694.90285128 705.633044603 620.249070281 548.36851581 604.585518324 431.464828898 575.082198895 643.807378381 574.559480425 692.200875717 693.391608383 611.655957122 662.691761398 557.013830342 555.253890554 674.78972883 695.37610132 482.885006995 714.67060399 579.708227828 585.32707067 632.808743586 644.329679159 563.34664281
conv12_2_param_0 800.393389515 788.763816999 835.762637773 770.347489409 701.145765204 767.461292569 670.720008059 624.626922198 628.817822521 636.071359068 797.872831842 675.327463102 679.908769902 741.332265427 802.265415686 689.950026617 766.686543652 742.570978098 803.277201239 633.181414828 690.67431451 673.348758968 640.324573587 632.875375654 757.019402583 763.999250597 831.381232914 616.721127664 743.558808914 742.898365974 678.129115305 704.026200917 631.62762926 637.960745038 726.207256103 675.704231955 795.323047268 773.130619656 602.577734188 713.708621388 653.565218485 621.073176931 586.204316362 697.259535483 679.108104619 725.059808491 832.639523998 678.921415171 632.683130028 682.801317017 660.899905233 684.810792382 746.466994676 778.33953832 790.061661666 704.520640736 760.755744836 478.201130694 693.426529335 685.057556943 739.010194092 711.417616272 739.062614616 625.483458989 638.254133535 762.713196076 656.758328414 775.104488732 695.43244437 779.174570762 574.307203966 726.015979152 761.437246255 636.131035671 753.32670661 581.118382092 673.626567876 791.039943925 640.359357515 664.5133588 663.004939227 757.256701144 688.206447745 683.78792786 741.883420338 782.055118074 684.604456968 648.467687228 686.066553278 806.264616671 754.071140896 791.32050705 640.688620768 666.83908976 693.42043625 549.078403531 559.271175816 708.233419495 744.567874301 762.136666784 578.77160654 750.602438632 751.823270725 684.605501809 824.744837522 533.966972562 611.17330018 619.846243861 822.515093552 740.598471762 676.344958695 796.115211613 618.901366106 797.076794865 732.758646222 633.331415738 745.289615428 706.452307485 736.074959406 770.328341929 793.239459439 654.594507776 676.286728901 797.545807699 589.43389799 699.668443142 726.21950819 705.323078423 785.64575013 766.263791817 814.757140241 702.163927446 737.117475992 666.11506824 670.677942177 770.570575464 773.202021598 735.945678275 663.436242497 669.532583014 639.211609994 865.198691466 616.793922281 858.996316208 679.869990692 617.229888906 747.255708276 809.329282584 734.636869492 579.681219005 684.766885497 699.486698401 583.180474475 643.775914569 742.680140041 680.07841992 658.007756667 433.547623812 775.959930041 580.237516775 741.333619563 688.433811184 704.138401592 764.331483971 801.682686507 710.330898451 678.326490476 658.699997171 625.177109849 776.301730415 641.164242661 670.487576924 644.984687676 710.056306459 635.048015023 735.187622717 675.78722361 565.2334919 877.936401205 778.319565023 780.884864084 619.580340633 741.907379722 775.368287271 789.723957711 673.04928025 773.336023505 654.985234903 674.680970861 713.816934834 703.588965538 793.352876482 643.60376909 679.688898842 790.316173549 707.652956838 578.08080898 815.695684831 683.694622992 689.176595269 818.924816879 698.030415518 657.285134626 745.732010302 832.863364032 599.6167333 654.916583683 767.248153093 875.868304861 700.443913496 743.7276402 754.258931244 807.889298229 447.235459933 696.473964351 764.691655359 761.044997672 742.954513046 678.909192784 680.280569631 712.068281752 709.310182201 647.951466584 832.038412591 712.954567227 684.016937129 796.892637489 609.988843339 772.83757502 675.93337919 773.66175049 639.10294657 771.837360771 729.476077566 727.131281575 759.995010664 843.300328016 620.695315901 637.730656661 630.482489716 805.747587766 820.685681645 633.936563097 635.733497873 769.208584157 760.435500136 661.386927024 686.226029747 721.621033596 828.671968214 728.302227934 715.741678063 702.737792144 685.388984336 694.774543618 719.104128626
conv13_1_param_0 448.258353565 488.04495763 514.215469194 468.29839795 433.140886439 440.054534627 500.385658159 515.222511579 476.17685513 447.485494253 434.912559407 525.355742888 361.19554602 393.975474005 379.106761547 397.930556686 399.785469314 459.189127938 502.320264213 469.066912996 429.313094473 441.481121906 498.519136145 418.521721785 460.098040082 451.556608226 387.390111228 516.189139735 450.856901029 494.32163614 330.162029002 431.033604012 502.933972973 474.021116535 456.675721137 475.425352231 539.287122132 490.549391328 544.741787433 457.599759808 490.009744511 463.487939496 488.855816993 451.372035292 439.348180578 401.120927325 425.496701447 393.232304046 504.398096185 421.524413801 423.421943651 454.993177258 514.565230461 448.079293413 386.446611193 413.554266048 354.004071359 359.223089813 491.538690474 409.431486679 466.846470485 381.732545266 544.045110643 444.711829817
conv13_2_param_0 594.782578062 329.135736221 587.336369793 526.754602306 693.418461662 689.919643563 579.738709421 682.448505873 692.518038136 649.641072485 587.764424608 725.785491981 435.916228312 695.090044505 424.815056276 632.244062622 552.139418993 725.05956176 575.832170036 532.422575878 558.531227993 536.025730264 641.639556822 648.675077315 704.637368321 543.7171934 678.850196212 768.050200131 601.289446043 631.995348514 617.26171715 633.356924844 597.470364605 701.013527543 703.580659664 622.435957859 555.870876179 677.41807175 596.487581985 646.688521943 627.595020256 498.140350684 441.61814768 529.258787068 537.155105117 650.791031408 652.1958112 596.771258494 617.194577701 581.619488057 671.972151101 559.742685695 471.877963651 564.376844038 655.631331187 662.338522289 648.82564405 573.767467211 691.769722252 661.448881909 565.153507531 653.129031601 686.640451498 610.402780107 583.479113307 665.891696122 535.020398611 422.490755031 735.392964226 557.060431279 612.672753311 649.391102665 650.65350889 540.736728284 667.296399814 532.019995572 598.981375466 636.97077976 596.874195494 621.900474772 650.36161532 673.724547505 586.513891091 669.242374187 679.178674103 592.426772871 496.136525034 699.747027451 622.691352041 721.811224085 670.578261301 581.9646093 597.541617946 618.503788785 623.144446052 595.562332466 665.783966926 649.359882331 522.281348537 550.58468457 684.69603012 545.336701783 551.444040905 561.584448267 598.606490887 673.74547837 496.319989974 660.346211032 482.676947675 604.272600793 621.681279089 690.523505624 518.157321689 628.136516615 651.917840915 581.565195556 643.816764627 659.140702697 548.227633039 564.401099979 618.821603073 545.685721495 653.936754284 594.270353008 569.097268144 636.97139863 601.778493961 695.196125746
fire5_mbox_loc_param_0 924.476515506 1367.7910522 624.690010795 730.693369399 622.743675493 993.927823248 496.822945423 655.442807312 795.988959969 1713.31745649 547.798306348 844.64629458 1270.55669917 805.439043471 657.524378043 461.516928157
fire5_mbox_conf_param_0 391.183630666 327.588384677 271.961117093 397.948765302 422.015326951 402.119928646 261.712792112 549.576887301 234.031537431 409.340872698 314.632714926 218.815445795 222.652400181 243.086752285 263.822068048 627.961018908 400.157010868 430.90437408 225.259621529 279.827860748 285.707562492 440.966811072 395.811479724 409.85397628 471.315615603 419.188706354 416.167661915 331.298945746 590.033997259 326.116896797 507.217884143 391.511290575 304.685246448 359.88714303 308.11580272 332.965619259 568.367417603 533.83472908 484.150835468 340.308885562 310.642756368 407.37292329 358.038407136 317.665078818 262.924508613 456.151248996 380.145945843 296.243656787 234.735406722 504.932343015 223.461701714 280.165154802 331.830948784 202.537748599 226.004208649 234.970453385 235.304442301 491.974454442 274.303883035 400.099265329 251.610533058 247.875570957 275.786472771 446.710940402 302.238494631 343.834328092 372.442588481 352.776011502 612.557823536 296.736614844 479.57036459 215.765554982 503.597265215 336.834555482 218.936094425 200.282618065 281.629984892 266.05444054 536.793951809 393.822153247 444.586513985 211.733082968 249.369956482 324.137833086
fire9_mbox_loc_param_0 521.31318608 479.475666239 628.427887107 564.85045459 252.363665995 220.11057168 253.144898196 302.766938155 403.985011248 721.140381903 516.09746091 640.940080315 687.850195222 390.572082163 870.027568076 402.721995554 400.152840007 789.157325892 527.095457746 750.142429462 575.578502868 343.079618078 709.162868495 334.213282707
fire9_mbox_conf_param_0 288.676937313 84.7884629144 83.3641938898 89.6231243535 88.9030692016 91.6190448016 77.056133743 88.8435797312 83.1122266388 159.49760032 89.0616934386 86.7106274832 75.6021231973 76.3405937472 80.0541043432 129.465059548 91.9914145635 72.1986725812 97.610062469 84.6624681648 74.9093715008 296.136523431 92.1629277505 75.8721850069 99.3072993977 113.432372853 87.469721372 76.4136439131 98.5637788574 92.7928895262 191.70033119 96.3493894062 104.091767361 90.755089779 75.9222973069 93.9295280711 183.804722284 118.567755255 72.9789156065 114.180248736 79.4911934305 80.0844701996 277.700525123 84.7729316911 91.0631310442 100.146853658 102.023476198 95.8211988213 97.1398397332 100.420165338 77.4737599018 150.143133532 83.4423768039 84.6589428213 101.608692074 90.6457012405 95.3635315596 103.265542127 93.003263114 88.7951292058 82.5092858776 88.6349891793 91.5848542912 342.322934049 94.9898217155 73.8621949905 94.394892422 79.387981947 109.432087444 83.3180216646 67.924012046 81.2038528019 154.97564976 83.2088126798 70.6613611499 80.9798348772 75.8715474046 83.790044733 155.715307645 91.5596668402 70.6029331127 85.5721890221 88.1522971864 81.979848416 286.247843374 84.0853158523 113.614759519 107.751545621 108.515313717 93.4332760729 99.1463229096 98.0592740681 82.4563326404 149.516364895 97.0011556155 110.620790769 100.077688647 124.153135762 116.8453716 118.099219229 106.330529001 108.418739416 97.3699558178 111.411245919 103.322508207 332.870036882 115.872703232 75.4160232887 91.0044245947 77.6466857971 114.310872918 96.7150144353 75.4287421616 76.6209094943 164.186381148 88.1438149266 77.1938754904 90.8771054533 79.213435379 83.8101691043 159.852968423 87.1476886075 61.8932746698 94.6902022534 94.9471204912 81.3804776206
fire10_mbox_loc_param_0 382.645546248 390.095488064 520.66105256 499.337643634 308.001715275 311.460911569 426.302386072 308.853381044 329.714551344 567.253585774 386.287852746 631.48521855 363.718468041 240.674110482 477.726585257 308.453660757 351.670169466 445.601972212 331.853533839 577.858967255 400.328391919 276.134413953 306.512295915 252.567712468
fire10_mbox_conf_param_0 275.634383678 80.158097309 73.1962365011 74.3359632097 89.8910119385 76.3114750881 78.8114189401 87.7231817658 73.1707532434 114.341446452 86.4143320091 70.5717661059 70.4303085491 74.7702920528 83.9609771583 115.204282578 84.7532930455 87.319804098 75.8158094504 74.118184527 77.008271199 242.594738214 83.2201744435 75.8117846745 92.1747930237 84.82037307 82.1067491644 78.7223232958 96.1646905733 65.8648461271 107.010576974 87.7875740766 77.8328478247 79.9238279118 79.6739026969 69.8959260774 125.561461522 81.233753184 85.5689723915 83.4121022229 78.8226495369 79.8870536122 309.371851152 87.6972144992 82.2451849444 98.7186962555 86.052690242 90.0671319579 73.439370084 100.316529404 81.8077131767 106.804629473 95.5230345344 88.0669874163 85.117339173 84.377642887 86.4856549197 88.999917128 87.8453240925 82.2531985693 91.4485589996 83.9070898067 78.6700105228 298.604247211 80.9499427156 77.0578894064 79.9776659279 77.7833116148 89.0097102044 77.7337249814 74.1796856548 70.5536837177 109.601477741 70.9647368904 77.5689671479 72.3066043249 73.5478420589 74.6570778494 143.756077297 86.6746280003 88.4396935838 78.1187567236 77.8699005365 61.3541571139 290.943942357 84.6336012853 91.561154089 94.1110117016 92.6618987269 92.6865915919 77.1326042556 104.81846846 78.1932425271 92.8377114386 96.8780082811 84.8502527978 93.1488777489 87.6417353891 88.7320221895 107.960847425 93.0328013097 92.7433713739 98.3946773291 80.4416569263 87.0648733708 289.438164956 92.0707332018 72.3263919623 82.0594558959 73.8975054716 94.4444404453 68.8695960221 73.838825236 67.3595518541 106.434070868 65.5327265887 79.5588194309 75.8273574258 67.9327610849 78.6005518512 159.669295291 84.7391699078 78.5958085067 75.7213023811 78.645618972 70.8402462349
fire11_mbox_loc_param_0 246.384486763 254.409670571 404.790990402 387.92843473 251.25428444 258.704861347 355.17720125 320.580023157 445.984053507 377.793201445 337.371144903 428.966977675 343.898841397 211.426527097 454.387949788 256.647951069 378.358202048 488.592607133 321.968675581 457.338347362 313.229343622 304.580607478 423.925512531 298.639863585
fire11_mbox_conf_param_0 230.723456352 90.4183424726 79.5621288845 77.5619813989 93.5881991114 88.0957164698 76.7103354903 94.8532942222 78.6339686352 89.0477057214 87.7599637346 91.297699101 77.2929937216 81.8801453832 88.2736267852 119.913805044 74.8045118637 70.3616649329 95.6302245712 61.8172741783 81.3850283626 200.30494844 88.8830500823 79.3033634246 85.595503074 84.594697139 90.1572782985 73.694501778 89.3248821722 81.8172188803 94.4492214291 92.8163826803 86.5659575595 90.2029041463 82.5347841211 89.8800609531 135.144457172 86.2729397585 88.5095763442 95.301325269 58.7505370445 69.3222052014 249.820954412 82.6428965722 65.9987913526 77.5099018628 84.7567992791 92.9475514259 92.1570122032 96.6760206533 77.7029956644 85.1600474884 85.0205961743 92.3282478347 74.2534231328 93.2486399403 78.6352687508 97.5498042738 86.4135469687 86.9074056943 88.0474012355 79.3790737022 72.6281851728 215.445302873 95.3207837334 78.7350588603 70.1572044781 91.2878263443 82.7778540014 80.6661783375 83.675402467 77.0961269689 88.8094670681 75.7821030151 75.9112126155 74.5898265763 86.6254354636 88.2644337618 112.646531087 67.1879616892 79.1385520322 90.6352056073 64.1586994833 75.6441495798 209.64347552 89.9958409519 77.0935104155 81.4133389394 97.2411753683 99.0061421075 106.290937477 89.9636638589 81.7082213477 103.362837051 88.0731321831 95.8440949159 87.5926059517 112.127642941 86.3361293993 91.8342710828 106.229804682 82.5659800049 93.0245722616 94.1841863518 85.9556483587 238.088081709 78.3272966073 95.6899301731 69.8519855745 95.2013530016 84.0097926884 67.4965343309 80.0738401317 74.3593010198 97.6435485521 80.7632879789 73.2505097301 75.2266035095 85.1918905658 89.485790756 119.480844038 74.794985132 78.4343550199 82.5554166915 71.5961643093 83.1224205775
conv12_2_mbox_loc_param_0 460.67077198 476.417160581 364.411164764 439.670020876 480.999902477 465.781174011 423.495834968 461.17704485 443.553881111 350.195478569 401.30900738 363.890967959 345.914510166 471.557091333 289.209026085 317.08106414 548.351298409 331.15320246 434.862452893 460.186629553 308.31699209 520.539068407 371.380878727 387.016967156
conv12_2_mbox_conf_param_0 224.704778023 97.5434538821 93.4682786544 81.8928593885 92.7633015259 83.1701876978 83.4982994332 111.144239823 105.377215464 116.21173849 92.3040734015 102.272422922 110.832646902 86.247404915 94.0752354126 145.000820174 89.3967640206 81.5584219046 106.355432022 81.474318288 91.6970751273 211.261777608 98.7975837579 111.794257632 93.08223872 88.0374695462 86.5344568307 91.3067836103 107.167233191 107.527586165 119.592261163 104.382433901 104.47155908 104.625210519 97.6652556501 123.241295398 162.009014599 90.9281036424 88.8281420979 108.249583657 82.5640731621 101.722756936 232.679727211 103.039739648 97.5788783652 89.9331723458 99.8942986768 90.0457327994 98.0152120696 107.070212259 88.2137858186 107.852218762 93.5057530857 105.233426267 109.629109896 105.227054675 106.462160803 147.961758247 103.31095568 88.3102277085 103.381142273 89.8887138304 82.0260078674 197.739614085 76.2372233891 82.9232109333 91.0495114356 88.2580136767 93.8575505081 78.7101791862 95.0194828819 99.5087593317 114.421675386 99.0571321803 87.1540765054 109.66675715 99.765391763 86.4390400318 181.324186958 102.05753696 88.3019785104 95.9947003264 88.5678460824 81.2887507955 240.958179005 95.2938918799 87.888784374 97.6871246769 103.70633717 92.8340467566 99.5086013244 112.618214254 107.990997044 104.024147473 95.0691375019 94.8864448663 110.415189917 94.2821327778 106.456139523 114.702704751 110.601060837 104.708987441 107.951439377 101.756451942 98.1417395139 256.103388194 91.9026861883 80.6880076405 90.0697666377 82.4951149272 80.7262450092 80.02533641 87.4068198199 88.2730416511 103.256694388 91.9259051915 73.1614672519 100.318343083 85.7231403984 86.7093500941 150.278436531 101.464462592 88.1760313879 86.937653238 91.3206446866 83.2375350732
conv13_2_mbox_loc_param_0 593.432072293 585.564259554 565.238702539 580.8923029 598.445759574 609.744414926 547.595646028 572.388761394 827.688311244 471.487752574 770.358699831 616.218639972 535.072327462 704.639582092 664.081999714 546.061671697
conv13_2_mbox_conf_param_0 290.718919233 151.138113446 139.878273511 158.117833682 154.791761648 139.921593185 165.19798516 203.131035377 152.531631731 165.372410995 169.669235733 143.456942478 164.633811759 154.689294636 156.337729272 190.877968098 190.342799316 89.6061409228 205.806357926 174.992588441 141.614783297 357.512416417 138.245258689 130.763062612 162.49337712 154.794505556 138.167248592 169.703749456 197.648139138 142.698581082 171.322694693 155.639815769 142.343606689 172.643325411 156.973068006 162.392480718 180.607019147 185.268316266 86.4762338604 187.210572819 187.998653917 145.315790098 351.59893651 134.04894033 113.890945539 132.495503456 150.857591133 125.47063459 173.888985761 181.725098952 152.625278816 112.581202362 135.423952343 111.45255249 168.563919329 135.433834253 135.171926854 161.916186988 139.048859078 75.6992480476 188.431142099 187.887018754 124.757998903 353.240998677 139.235576448 137.078661117 138.640792856 152.228785879 131.685785697 161.253225376 159.500107646 142.259013978 153.773925803 137.740198218 127.687580052 148.809120805 132.577450552 147.5536297 210.767710884 129.583550851 84.8143361789 198.110046093 187.244085246 119.190824566
conv1 0.84167606461
fire2/squeeze1x1 0.150975949507
fire2/expand1x1 0.0914094541588
fire2/expand3x3 0.0914094541588
fire3/squeeze1x1 0.119182352369
fire3/expand1x1 0.118744092287
fire3/expand3x3 0.118744092287
fire4/squeeze1x1 0.135626317521
fire4/expand1x1 0.0861682700608
fire4/expand3x3 0.0861682700608
fire5/squeeze1x1 0.109922799299
fire5/expand1x1 0.105953424945
fire5/expand3x3 0.105953424945
fire6/squeeze1x1 0.119281485339
fire6/expand1x1 0.0688665561419
fire6/expand3x3 0.0688665561419
fire7/squeeze1x1 0.0950261505009
fire7/expand1x1 0.0794283866
fire7/expand3x3 0.0794283866
fire8/squeeze1x1 0.113229806941
fire8/expand1x1 0.0938659297204
fire8/expand3x3 0.0938659297204
fire9/squeeze1x1 0.131501756404
fire9/expand1x1 0.0676622126997
fire9/expand3x3 0.0676622126997
fire10/squeeze1x1 26.6889313701
fire10/expand1x1 18.6293799582
fire10/expand3x3 18.6293799582
fire11/squeeze1x1 27.0556422364
fire11/expand1x1 31.3872489798
fire11/expand3x3 31.3872489798
conv12_1 30.6842156602
conv12_2 33.6303781625
conv13_1 26.690469671
conv13_2 48.2063513113
fire5_mbox_loc 11.9807227866
fire5_mbox_conf 11.9807227866
fire9_mbox_loc 29.3588674509
fire9_mbox_conf 29.3588674509
fire10_mbox_loc 31.5487641969
fire10_mbox_conf 31.5487641969
fire11_mbox_loc 30.6842156602
fire11_mbox_conf 30.6842156602
conv12_2_mbox_loc 26.690469671
conv12_2_mbox_conf 26.690469671
conv13_2_mbox_loc 18.8130546448
conv13_2_mbox_conf 18.8130546448
